#version: 0.2
Ġ a
Ġ t
h e
i n
n d
Ġ s
r e
Ġ w
Ġt he
Ġ o
Ġa nd
Ġ m
in g
Ġ c
Ġ f
Ġ I
Ġ b
e r
a t
e d
Ġt o
o r
e n
i t
a s
e s
Ġ p
a r
o u
Ġ h
Ġ d
i s
Ġ l
Ġo f
a n
o n
č Ċ
Ġ in
T he
a l
Ġ The
o m
Ġt h
Ġ g
Ġ e
Ġm y
e t
e l
a c
u t
en t
o w
s t
Ġ n
Ġs t
Ġw as
Ġf or
a d
Ġ re
l d
Ġb e
l e
i c
u r
u n
a y
g h
Ġ is
Ġm e
i r
Ġ r
Ġth at
Ġ he
l y
Ġo n
o t
it h
a k
Ġw ith
v er
l l
Ġ it
r ou
v e
Ġ u
i on
s e
o o
i m
Ġh as
i f
Ġw e
Ġn e
Ġs h
r i
u re
gh t
Ġa n
a m
c t
' s
Ġa s
Ġw or
c h
i d
r o
o re
p p
Ġ S
in d
c e
is t
e e
a in
u l
u st
Ġa re
Ġ A
Ġc ou
an t
Ġf e
Ġ v
Ġc h
ar d
Ġl i
al l
Ġp l
Ġ H
a nd
he r
re at
es s
Ġb ut
Ġu p
Ġa t
om e
rou nd
Ġh ad
Ġl e
ĠH e
Ġc o
k e
ak e
ar k
i l
Ġc l
ĠI t
o p
Ġt r
u s
Ġe x
ac e
it y
ĠThe y
ĠS he
t er
re s
h ing
u m
he d
Ġo ut
Ġf r
at e
ar t
Ġcou ld
Ġg r
g e
Ġthe ir
Ġ j
Ġc on
Ġ k
as t
ac k
er s
a v
ou nd
Ġw h
o s
n ing
Ġs p
i ll
Ġa l
q u
a b
u d
i g
Ġfe el
oo k
Ġc om
re d
Ġ un
i ght
at ion
Ġo ur
Ġfr om
n e
or t
rou gh
oo d
Ġth rough
a p
Ġ čĊ
Ġs o
Ġa ll
ac h
i z
Ġh a
Ġo ver
Ġp e
ĠA s
Ġ W
ow n
Ġwor ld
Ġin t
Ġf el
Ġs c
Ġa round
a ut
Ġm o
id e
Ġ en
Ġs un
Ġm om
ent s
Ġc an
i es
Ġg o
Ġd ay
Ġbe aut
Ġ y
Ġw at
Ġne w
Ġa b
im p
i e
Ġs ee
Ġfel t
l ow
Ġc reat
re n
if e
al k
Ġwor k
o l
Ġb ack
a w
e ct
c k
Ġl o
ad e
' t
ver y
Ġd e
Ġs ome
A s
Ġa r
Ġd o
s el
Ġint o
ou t
Ġs k
f ul
l ed
c i
Ġwe re
n ess
ing s
e nd
Ġr o
i ld
Ġp ro
en se
as s
Ġth is
Ġa ir
Ġb y
Ġh ow
Ġo r
Ġd own
Ġne ed
es t
Ġit s
Ġu s
l p
Ġn ot
Ġhe lp
Ġle ar
a g
on e
i ve
Ġl ife
ur n
Ġa pp
Ġw alk
Ġp ark
Ġs e
Ġhe r
Ġs ound
l ing
a re
t h
Ġli ke
ic k
Ġs m
an ce
w ard
Ġw ay
p er
Ġm ake
ou s
Ġe very
on g
i v
Ġpl ay
m ent
Ġre m
Ġf l
om et
Ġt ri
Ġw ent
t ing
o g
Ġt re
Ġm ade
w ay
Ġr un
ĠW e
Ġmom ent
Ġthe re
Ġlear n
f f
in e
Ġb re
Ġb u
ne w
o y
Ġt e
Ġw he
Ġt im
Ġd ark
Ġs omet
ot her
ak ing
Ġb l
Ġcon t
Ġw o
Ġf ore
Ġt ake
a u
sel f
Ġs ense
Ġe y
p l
v es
B ut
d en
Ġc r
t her
Ġan other
Ġpl an
Ġw ant
ou r
e p
Ġc ar
it e
s ide
ow s
Ġsomet hing
Ġn o
Ġs aw
Ġab out
n t
Ġs ur
w n
Ġst r
al s
op le
at h
c hed
Ġ imp
f ter
Ġey es
Ġre al
Ġar t
Ġj ust
er t
Ġtim e
Ġk new
at ing
i b
ac t
Ġa m
Ġmy self
an ge
ud den
Ġpe ople
Ġbeaut y
ic e
Ġe v
Ġe m
Ġcould n
Ġha ve
Ġfeel ing
Ġf o
g et
Ġto o
Ġb reat
ward s
Ġd es
he s
Ġbe ach
n er
pp ed
Ġa g
Ġa d
Ġb r
Ġb ook
am p
av es
ar m
udden ly
Ġ if
en ce
Ġy ou
ure s
an g
Ġw ind
res s
Ġd is
Ġf ig
f e
Ġa c
Ġpe ace
Ġt urn
Ġc ity
Ġ qu
f t
nd er
l es
m ed
ou ld
iz ed
Ġsk y
d s
ab le
e red
Ġre ad
Ġfore st
or s
Ġn at
ri end
Ġs et
Ġg et
Ġrem ind
Ġst art
Ġh ome
if ul
Ġ But
Ġd ee
Ġtre es
Ġbeaut iful
Ġe ar
ar i
Ġm or
Ġm an
Ġl ook
f ore
Ġmo v
Ġon e
Ġli ght
ct ion
Ġm us
Ġo wn
Ġmor ning
am e
Ġf riend
u p
Ġp er
Ġcl os
Ġo ther
Ġcom p
ch ing
Ġfig ure
i ver
Ġhe ard
Ġsm all
Ġbe g
um b
Ġf ill
Ġto wards
Ġmus ic
Ġd if
er y
Ġc he
Ġf ace
e m
res h
Ġre st
Ġs u
Ġbe fore
Ġro om
Ġof f
Ġthe n
Ġf resh
j oy
Ġco l
Ġn ight
Ġen joy
Ġgo ing
Ġre s
Ġsh ad
a ge
Ġs he
Ġp r
is e
p t
Ġwo ke
Ġbreat h
Ġhe art
Ġm u
Ġhe re
Ġ M
Ġco ff
Ġg low
or m
Ġf ind
Ġm ore
el l
Ġs w
a il
Ġcoff ee
Ġh is
y ing
in k
Ġwh at
Ġ -
fe ren
Ġbe en
Ġturn ed
Ġd ist
Ġag ain
Ġper f
Ġst re
i ous
Ġs imp
Ġwalk ed
Ġthe y
Ġe ach
Ġc le
i p
u e
Ġbu ild
c es
Ġdif feren
Ġear ly
v el
Ġm ust
Ġh or
z e
ac hed
Ġr ust
Ġreal ized
ĠI n
au ght
Ġb ir
Ġsee med
ĠA fter
qu e
Ġb o
al ly
and s
b r
Ġw arm
Ġf i
i ly
ar y
t ed
Ġthe m
u ll
Ġmom ents
Ġd r
ou nt
p en
Ġs at
Ġf ound
Ġex per
Ġd at
Ġre l
Ġst ud
Ġtoo k
Ġtri p
at er
Ġwat er
Ġw ould
Ġo ld
ar ing
Ġo pen
oo l
Ġg re
Ġev en
Ġwhe re
Ġsp e
Ġdark ness
Ġt w
Ġw r
Ġb us
Ġon ly
umb led
ow er
Ġth ings
Ġf am
Ġwat ched
a ve
Ġfill ed
re ci
as et
Ġdat aset
Ġnat ure
u ct
o se
Ġ ent
re am
Ġde c
g ed
Ġc ast
Ġimp ort
Ġcl ass
ul t
Ġl ong
at ed
s s
Ġch ild
Ġtri ed
c ap
i an
a ur
Ġ T
ak es
b s
n o
ate ful
is p
Ġle aves
Ġgr ateful
Ġh i
k ing
ig n
Ġshad ows
i que
Ġhelp s
i le
ion s
d ay
Ġout side
Ġwh o
Ġdee p
Ġst umbled
all s
r y
Ġg ot
Ġe nd
Ġbre ak
Ġp art
ain t
Ġrest aur
Ġrestaur ant
Ġh o
Ġplan ning
ro ss
Ġp res
Ġd el
Ġdo or
Ġcont in
Ġpl ace
Ġapp reci
et s
Ġt aking
Ġbeg an
et y
Ġan im
Ġcreat es
ount ain
Ġd in
er ing
v ing
Ġ F
Ġre f
Ġcreat ure
is h
he n
Ġth ou
Ġin st
y m
way s
ci al
Ġf in
Ġbir ds
Ġst ep
Ġ E
Ġsur round
pp ing
Ġm ountain
Ġst ill
Ġbe ing
Ġun ique
ĠM y
Ġa way
Ġk n
a z
Ġcast ing
ou se
Ġgr ow
p ing
o nd
Ġex pl
Ġac ross
ation s
i ents
Ġw ood
Ġu nder
Ġne ver
it ies
or y
Ġbe h
Ġmov ie
Ġclos er
Ġdin ner
Ġimport ant
Ġappreci ate
Ġexper i
Ġthe se
s o
Ġ C
ar s
a red
Ġso ft
Ġhe ar
Ġal ways
ent er
et er
it s
Ġal so
Ġc at
Ġme et
Ġp ers
Ġh and
el y
Ġsh op
Ġc ab
S uddenly
a ir
Ġbeh ind
Ġb ed
Ġcab in
Ġcom m
u ck
an c
er g
Ġl un
I t
Ġdist ance
Ġg ood
s p
Ġsimp le
Ġs low
Ġat t
all en
Ġdifferen t
Ġagain st
d er
Ġwhe n
Ġha ir
Ġc are
' m
Ġal one
Ġdel ic
t hing
en e
Ġb ri
Ġv is
Ġfo ot
Ġchild ren
Ġhe ad
ri es
Ġc aught
Ġin ter
Ġtr ain
av or
Ġm ind
Ġst ore
Ġf low
x t
Ġapp ro
u ed
Ġh op
Ġg round
Ġfriend s
Ġe as
ie w
ur al
Ġanim als
Ġhe al
Ġpro d
Ġst e
Ġco ld
Ġp ass
Ġg reat
he re
Ġperf orm
Ġj oy
cap e
Ġlook ed
amp le
Ġc ome
a x
e ze
Ġwat ching
Ġtr an
Ġ ve
it ing
pp ort
iver s
Ġart ist
Ġp ast
c c
Ġex ample
Ġbre eze
Ġlo c
Ġs n
v ed
Ġr an
Ġcou r
Ġfe et
i et
Ġf ood
Ġp os
Ġp h
Ġc ur
g s
ll ow
il ity
Ġl ist
Ġdis c
Ġc amp
Ġthou ght
Ġch allen
Ġc or
Ġheal th
Ġ O
m ing
Ġthe ater
Ġwood s
ic al
a f
Ġpeace ful
Ġv o
Ġv ari
se um
iz on
Ġhor izon
Ġdelic ious
Ġmu seum
Ġtw ist
Ġplay ing
Ġg l
Ġk ind
Ġch ir
ert ain
Ġbu y
Ġs l
Ġs and
er r
Ġm ed
ard en
Ġen erg
in ess
an k
l ess
Ġg arden
Ġh um
Ġto get
Ġtoget her
Ġqu iet
Ġb el
Ġa fter
he ad
Ġin side
os p
Ġst and
d ing
p ite
Ġl et
ĠS uddenly
on ed
Ġc ame
u b
Ġfo llow
Ġc re
Ġb et
Ġst ood
sel ves
le ct
Ġrust ling
i re
Ġl it
t e
Ġeas y
b y
Ġcontin ued
Ġan y
Ġstr ange
Ġcom ing
in es
Ġex h
Ġ L
Ġp ower
Ġwe e
Ġloc al
ĠHe re
Ġcou nt
Ġg ent
Ġv iew
c om
Ġre d
i er
Ġne ar
r am
t le
Ġm at
Ġup on
Ġte ac
Ġha pp
b er
j ect
ch o
Ġkn ow
Ġf ull
Ġo ce
Ġrel ax
Ġoce an
Ġli ves
Ġcon c
u es
Ġpro g
Ġchallen g
Ġfe ar
is hed
s ib
Ġcl ients
Ġp ath
o st
Ġad v
as h
Ġe cho
en ed
end ing
Ġappro ached
ect ion
Ġmountain s
Ġh ot
iv al
as e
Ġg u
Ġexpl ore
Ġw alls
Ġlo ve
Ġne xt
Ġvari ety
d y
Ġs ing
av el
Ġc ook
Ġin v
rou p
Ġre ached
id ed
Ġfe w
u g
re p
Ġpers on
Ġf avor
Ġlo st
Ġwo nder
Ġu se
ail s
Ġchir ping
Ġs el
Ġw a
Ġr ain
Ġg roup
re e
Ġy og
s ion
Ġs al
Ġfavor ite
i ent
Ġc ult
Ġl ou
w e
Ġgre w
Ġ D
us h
Ġour selves
Ġyog a
ic h
t en
Ġqu ick
Ġfam ily
Ġmo ve
Ġ es
Ġal ive
Ġth ick
Ġj our
no v
ust le
m in
Ġbri ght
Ġc ool
m er
Ġw aves
Ġp ound
Ġal ong
Ġf urn
Ġcol le
Ġmu ch
g round
Ġh ouse
I n
Ġstart ed
f ast
Ġs il
id es
Ġli ving
it ure
Ġsh o
Ġfurn iture
Ġve get
Ġcamp ing
Ġwind ow
Ġth ose
Ġtr avel
Ġbreak fast
Ġwh isp
Ġhum an
Ġst ay
Ġste pped
Ġsh ake
us hed
Ġb ene
ress ed
Ġsk in
st ep
ĠA nd
av ing
Ġcont ent
Ġcon ne
Ġt err
or ies
Ġs er
Ġl ands
ic t
Ġc al
Ġwas h
Ġg ro
Ġevery thing
Ġfoot step
Ġab and
Ġdee per
am es
Ġconc ert
Ġfootstep s
Ġspe ak
Ġnear by
Ġg ym
ab les
Ġv ol
r ap
b o
m s
Ġw ild
Ġflow ers
ag es
Ġvo ice
Ġc a
in ing
Ġf ut
Ġfor ward
Ġtr ying
p ect
Ġremind er
Ġmeet ing
Ġaband oned
w are
Ġtwist ed
Ġa ct
Ġpound ing
Ġpr act
Ġexh ib
Ġn ow
Ġlun ch
p ort
Ġsc ream
Ġrem em
ĠThe re
Ġcreat e
Ġwith in
Ġfut ure
Ġ im
Ġsur f
Ġb ot
Ġd re
Ġth an
Ġe er
un ity
Ġread y
Ġd ance
iz e
Ġs ight
on y
Ġwh ile
Ġpro ject
Ġp ier
Ġm et
ari an
Ġwr it
Ġc up
Ġnat ural
' re
t s
vel op
Ġmake up
ĠW hen
Ġhi king
f ort
Ġp ain
ic ed
Ġsw e
Ġd ri
Ġf aint
en ing
Ġp ur
Ġ ed
Ġh ist
Ġch a
Ġun e
ertain ly
m osp
Ġat mosp
Ġex c
Ġbus iness
Ġ B
Ġatmosp here
Ġvis it
Ġl au
Ġmo st
Ġbene ath
z y
ac ing
Ġche ck
is hing
i ke
Ġc all
Ġre c
Ġgent le
Ġor ange
Ġbook s
Ġdec ided
o or
ol og
Ġperf ect
Ġcle ar
Ġcon s
Ġd id
Ġh our
Ġst un
ĠC ertainly
Ġt akes
Ġg ames
Ġcr isp
Ġst o
Ġle ft
l ight
ic es
Ġman y
Ġpres ent
Ġhop e
Ġw ill
Ġsh ould
Ġbr ing
Ġche st
Ġcor ner
Ġv eter
Ġnot hing
ie ve
Ġstun ning
es pite
Ġveget ables
Ġveter in
Ġbuild s
Ġsoft ware
Ġremem ber
Ġen g
Ġveterin arian
Ġo pport
Ġb ar
Ġc enter
ivers ity
Ġeer ie
Ġl ang
Ġlang u
Ġm ar
ne y
Ġcom fort
Ġglow ing
Ġun t
Ġexperi en
i ence
Ġw om
ac ed
an ic
Ġco zy
ug g
Ġbe c
Ġsh ining
Ġch ange
Ġset ting
Ġa head
Ġm ay
as k
Ġread ing
Ġbet ter
Ġbl o
Ġb ath
Ġdes ert
Ġremind ed
b e
ic s
Ġinst r
Ġch ar
Ġb est
Ġenerg y
Ġlear ning
Ġstart ing
Ġl ay
on t
it ness
Ġfor get
Ġm ark
Ġcount ry
o ve
Ġsurround ed
Ġto wn
ro om
le as
Ġexperi ence
Ġcour se
Ġwom an
Ġtr a
Ġcar p
u ly
Ġsm ell
Ġd a
Ġstre ets
Ġj o
Ġb ak
s ed
Ġw ed
Ġd ense
Ġgro c
i a
y ard
Ġwork ing
Ġlit tle
Ġslow ly
Ġperson al
Ġe qu
ion al
Ġclass es
Ġtr uly
Ġse c
Ġli br
g er
ill s
Ġnot iced
Ġjour ney
Ġpart y
Ġcal m
Ġs ou
Ġcl ot
Ġman sion
y st
ĠS ure
Ġho ld
Ġchalleng es
Ġprod uct
Ġsc ent
Ġwhisp ers
Ġperform s
Ġhealth y
l ine
p r
w or
Ġ J
Ġin sp
Ġother s
Ġpl ant
Ġj og
Ġmat ter
Ġunt il
in t
Ġcarp enter
i ed
Ġcon st
Ġd ream
Ġprog ram
Ġr is
Ġstand ing
Ġsh ow
Ġli ve
Ġvol un
r ow
Ġcle aring
v en
ir on
Ġbeg in
Ġm ag
if t
Ġsw im
Ġclos ed
at her
Ġp at
b all
Ġs um
Ġp ink
ud e
Ġp o
le y
aught er
Ġplay ground
Ġde velop
Ġsound s
ac es
ci ent
Ġlibr ary
Ġte ch
at s
Ġin c
ee p
Ġhor r
Ġp ushed
Ġsun s
Ġcomp an
Ġne ck
Ġvolun te
y l
Ġtre e
Ġlangu age
Ġm ist
Ġp ri
ke nd
Ġstr ugg
Ġbus y
Ġwee kend
Ġan cient
st and
Ġha un
Ġsto pped
en s
u ce
al e
Ġre nov
Ġes cape
Ġl ast
Ġmo on
Ġimp act
Ġcha os
Ġs ym
Ġen v
Ġlands cape
Ġsh ap
re ne
Ġw ell
Ġl aughter
uck s
it ude
Ġof ten
Ġbl ue
Ġm on
ap t
Ġf ast
it ed
Ġref res
Ġme m
Ġteac hes
Ġs a
Ġwat ch
Ġre new
Ġfr ont
Ġres p
Ġh ard
Ġshe l
d e
y ond
Ġcol or
Ġstre et
r ic
Ġf est
Ġsh ower
Ġbo dy
Ġeven ing
Ġenv iron
Ġem pt
Ġpr ot
Ġunder stand
Ġ z
Ġl ur
ation al
Ġbo ard
Ġbe yond
ign s
at es
Ġrenov ating
Ġf ishing
Ġg h
Ġv ast
Ġp ull
Ġopen ed
Ġcolle ction
m ents
Ġh all
Ġl at
Ġre t
Ġl ar
Ġor g
Ġinstr uct
Ġs it
Ġwalk ing
Ġtran qu
Ġto ur
Ġm aking
b ed
in ation
Ġlou der
Ġcreat ing
Ġmov ing
Ġfi re
Ġhour s
u se
au se
Ġenviron ment
in ally
Ġd anc
Ġwh is
Ġstre t
no on
Ġbuild ings
Ġfi x
le ep
Ġgr ab
Ġp il
Ġe ff
Ġp leas
on es
he l
Ġafter noon
Ġempt y
Ġinstruct or
Ġwhis per
l ic
Ġto m
Ġd eter
Ġcat ch
e ared
Ġspe cial
r ant
Ġre se
r a
Ġso cial
Ġda ily
Ġcol ors
Ġpos it
Ġa ction
Ġm ot
ĠF or
az ing
Ġwa iting
Ġchar ity
Ġd ressed
Ġv ib
Ġg en
all ing
Ġy e
Ġb ig
er c
Ġsh ows
Ġsh ore
ĠW ith
Ġlo om
Ġgo als
Ġhead ed
Ġpil ot
Ġk eep
Ġh un
u c
Ġgr ass
Ġenjoy ing
Ġm a
Ġf ree
el e
Ġex p
Ġcle an
Ġdeter min
Ġh om
Ġtr ail
Ġte am
o ver
Ġhe av
Ġpro f
Ġho st
ort s
Ġpast ries
Ġterr or
Ġrese ar
b le
c us
Ġgroc ery
t ered
Ġb al
Ġe ver
ĠT h
i al
Ġplay s
Ġpos sib
Ġsel ection
Ġm akes
Ġhist ory
Ġsp ine
Ġg all
Ġplan et
t o
ir st
Ġsp ent
f l
Ġg ri
ĠE very
Ġinter act
h ouse
Ġfl oor
Ġtech n
Ġ N
Ġm id
ĠThe n
ĠIt s
Ġmo der
Ġc ele
Ġclot hes
Ġcele br
Ġst ri
Ġgr ave
ĠD espite
Ġmoder n
Ġth ink
Ġrun ning
Ġbot h
Ġp ick
Ġf ar
ust om
Ġmusic ian
Ġsimp ly
Ġpres ence
Ġh ands
Ġc ustom
Ġcar s
Ġecho ing
ent ure
Ġgh ost
Ġto u
Ġf itness
Ġsk i
Ġfollow ed
Ġm el
olog y
Ġst ories
Ġcom ed
l s
Ġle ave
bo ard
w hel
Ġw and
Ġp aint
Ġr iver
Ġover whel
Ġfl ies
Ġref lect
Ġvib rant
Ġs ame
Ġev ents
ur ing
art h
Ġso l
Ġbath room
Ġb ur
Ġro ad
et h
Ġfel l
Ġtrain er
Ġbel ow
o ke
Ġl ate
Ġst ress
Ġconne ct
Ġfest ival
Ġlau gh
Ġto w
Ġsur pr
Ġbl ack
Ġeng ine
Ġexperien ces
Ġon ce
Ġche f
Ġprot ect
p h
Ġs af
ak ed
Ġsum mer
Ġde p
Ġam use
Ġte eth
Ġem br
Ġoff ice
Ġmy st
Ġch ang
Ġsc ient
Ġamuse ment
Ġbre ad
Ġdr ink
ip s
Ġno vel
Ġfr u
ol ut
Ġf ur
Ġde ad
Ġsu pport
Ġmark et
Ġto p
it ion
i gh
Ġ P
Ġt al
un ities
Ġstud ents
Ġf un
im es
Ġdo g
Ġorg an
at itude
Ġp ool
ist er
one y
k ed
Ġcreat ures
Ġtra pped
Ġcompan y
Ġd est
ar p
ĠT o
com ing
i os
Ġb ustle
Ġa ch
Ġr ise
Ġle ad
Ġbl ood
Ġf ing
Ġin d
Ġtim es
Ġquick ly
iz ing
Ġo cc
Ġb ro
Ġv al
en c
Ġb ike
Ġp ian
Ġare a
Ġgre en
yst em
h y
Ġa ut
Ġs in
Ġp op
Ġwork s
ĠO f
i o
Ġl and
Ġme an
Ġscient ist
a pping
Ġp et
Ġgo ld
Ġshel ter
Ġwe ight
Ġf irst
Ġp rep
i res
Ġfo cus
Ġdr aw
Ġed ge
ro ve
Ġgr atitude
Ġdisc us
Ġgall ery
d ed
Ġd ust
Ġac c
Ġdec ay
Ġh ustle
Ġune ase
ios ity
Ġbuild ing
Ġtranqu ility
Ġpian o
Ġp ut
Ġfam il
Ġse en
Ġlook s
o c
Ġ "
el ess
Ġbe at
ash ion
Ġz oo
p or
Ġto day
Ġr acing
Ġd on
Ġsm ile
Ġnight m
Ġdifferen ce
Ġfin ally
Ġser ves
Ġwor th
Ġab ove
Ġsome one
Ġfi el
on s
Ġsil ence
Ġwed ding
Ġf arm
Ġstr ong
Ġget ting
Ġcomm unity
Ġmed ia
W e
u al
Ġst orm
Ġy our
Ġwee k
Ġengine er
an es
Ġsc en
ang er
iver se
air s
Ġar ri
Ġpur p
Ġblo om
Ġpleas ures
Ġw ide
id s
Ġro ck
Ġdes igns
Ġsuns et
Ġposit ive
Ġl ake
Ġcontin ue
anc hes
Ġmed it
i x
Ġp ar
ro ll
Ġcl im
Ġy et
Ġbr anches
Ġatt ending
at ive
Ġp ic
an ces
Ġsp ot
Ġev ent
Ġpic n
Ġe arth
ul ar
ve red
Ġch ill
Ġun c
a pp
he ther
Ġp re
Ġr ide
Ġdre w
s h
Ġp ot
Ġch oo
ate ver
olut ely
Ġf ashion
Ġsu ch
Ġs our
Ġg as
Ġso on
Ġcontent ment
Ġme ch
st ore
Ġbook store
Ġm oney
Ġp ub
Ġend less
Ġheav y
t aking
u ction
Ġco vered
Ġair port
Ġpr om
Ġstud y
Ġembr ace
Ġp air
Ġst ars
Ġle aving
Ġcom pl
Ġfore ver
b ol
as ter
Ġch at
Ġbreath taking
Ġs ust
Ġf ro
et e
Ġsp orts
Ġso ot
Ġmech anic
n ival
Ġwarm th
Ġhi gh
Ġsho pping
it al
Ġr a
Ġset s
Ġexhib it
Ġsym bol
Ġb ust
il ities
Ġem er
Ġlar ge
Ġresear ch
Ġcont em
Ġplan es
Ġcar nival
g ing
re ad
Ġm ent
ent ly
Ġenjoy ed
Ġl if
Ġcur iosity
Ġim ag
Ġon to
Ġp ace
Ġprod uce
Ġsec re
Ġequ ip
Ġwind ows
Ġk ids
Ġro ll
Ġph ot
Ġsust ain
Ġequip ment
Ġs ection
ac hing
Ġre ach
Ġkind ness
Ġenerg ized
ver s
Ġco nd
Ġsu cc
Ġview s
Ġgen er
Ġo b
Ġevery one
iv ing
Ġswim ming
t y
Ġsc ience
Ġor d
en ch
Ġl ow
ay s
Ġlight house
Ġinteract ive
Ġad op
ent ed
Ġst aring
Ġst roll
os s
Ġdis app
Ġpass ed
Ġph one
Ġecho ed
Ġprof ess
Ġbust ling
y c
ant ic
ack s
Ġdo ct
Ġteac her
Ġp ond
Ġr ight
ib le
Ġsurpr ise
Ġsh ade
wor ld
Ġach ieve
ĠA bs
Ġresp on
Ġtechn ology
ĠAbs olutely
Ġr ides
Ġlo ved
Ġoff ers
Ġgr and
Ġ ide
Ġex ist
Ġac com
Ġw ol
Ġsc ene
Ġpro v
Ġf og
Ġfresh ly
Ġwrit es
Ġh id
Ġshad ow
Ġact iv
Ġbec ome
Ġwh atever
Ġgold en
Ġc and
ic ing
Ġtr y
ĠW hether
Ġexhib its
Ġswe at
Ġa w
Ġf il
at ure
Ġd ire
el s
Ġst ren
Ġcl ose
Ġexpl or
y s
Ġconne ction
Ġopport unity
Ġbak ery
Ġpicn ic
Ġsucc ess
Ġs leep
Ġf ul
Ġg ame
Ġk it
' ve
Ġsp ir
Ġinv est
Ġstren g
Ġs ong
Ġun iversity
Ġcult ures
por ary
Ġd im
Ġfam ous
Ġmind ful
Ġany thing
Ġlur king
Ġfing ers
ot s
Ġcl aw
Ġsc ul
r act
in ed
Ġwor ds
Ġback yard
Ġsin ister
Ġ ke
Ġsing ing
Ġscul pt
i pped
Ġb all
Ġcomp et
world ly
Ġw in
Ġc her
Ġthou gh
n g
Ġe lect
Ġconst ant
igh b
Ġsoot hing
Ġp a
ot ic
Ġne ighb
Ġco de
Ġgrow ing
Ġd ucks
Ġwor ries
Ġother worldly
we en
Ġdri ver
Ġshap e
u is
Ġs ide
Ġdist ant
Ġopport unities
Ġris ing
Ġnightm are
c ed
Ġtr ud
Ġse a
Ġstreng th
Ġno ise
Ġbet ween
ou gh
Ġs ign
Ġst op
Ġsurround s
Ġt ask
Ġp ack
Ġl ab
Ġe g
Ġbe ck
Ġcomp ut
Ġlist ened
or n
ri ed
op e
ig ate
Ġse ar
Ġtran s
b led
Ġt all
Ġfix es
at tered
Ġinst alling
Ġgu it
Ġbegin ning
Ġret urn
Ġt alk
ĠL et
ver al
Ġsn ow
Ġse veral
Ġhot el
Ġoverwhel ming
Ġcontem porary
Ġguit ar
Ġtr ails
Ġout d
Ġexper im
Ġdre ad
Ġment al
Ġm ight
Ġst ate
Ġrespon sib
r om
Ġnew s
el ing
Ġme al
er ies
Ġd iversity
if ic
Ġtal ented
m ark
ar in
Ġfor ce
ro p
ie f
Ġplant s
Ġarri ved
Ġeg gs
ag ed
Ġproduct ive
Ġtrud ged
Ġfl u
Ġfl ight
Ġcook ing
h ood
i red
p ed
Ġon es
and arin
Ġhapp y
Ġhe ld
Ġevery day
Ġpract icing
Ġsour ce
S o
Ġs ch
iv es
ĠM andarin
Ġbel ieve
w alk
Ġr ich
Ġar ch
rep rene
Ġhid den
reprene ur
Ġent ered
Ġent repreneur
Ġsand w
Ġprog ress
Ġocc as
Ġgener ations
c hes
Ġc ir
Ġb ank
ot es
Ġam azing
Ġab le
k en
Ġv ac
Ġsou l
Ġemer ged
Ġt ast
Ġb are
is es
Ġte a
Ġs uddenly
Ġw ar
al ing
Ġth ing
Ġfamil ies
Ġdoct or
Ġg ive
Ġal m
Ġswe et
Ġjo b
c ome
u ally
Ġ ill
Ġt ang
Ġchalleng ing
Ġdid n
m e
s it
Ġfin ished
Ġpaint ings
Ġst ory
Ġcr as
Ġye ars
Ġaccom pl
Ġp ol
Ġey e
Ġt ur
ain ed
Ġday s
Ġsp ace
ĠJ ap
us ed
Ġsymbol s
Ġo min
Ġdif f
Ġomin ous
k n
Ġh im
Ġpri or
c hen
Ġth ri
Ġag es
Ġcomfort able
Ġloom ed
Ġchoo se
Ġkit chen
Ġsch ool
s ing
Ġc uis
Ġe l
Ġhe sit
Ġstud ying
Ġghost ly
Ġre p
Ġen c
Ġcomp ass
Ġrefres hing
Ġpurp ose
Ġimp rove
Ġem ails
Ġsecre ts
Ġadop ting
ĠA t
Ġb ab
or ating
Ġre ve
Ġex erc
Ġfl ash
Ġvolunte ering
Ġsa id
Ġtou ch
Ġs ystem
it ect
Ġexc ited
Ġfur ther
Ġarch itect
Ġ Y
ic ult
Ġcond uct
Ġm en
Ġwh ich
og rap
Ġpers pect
W ith
e ad
or row
Ġsc ram
ag ged
Ġfl ick
Ġwo nd
ak en
Ġca res
Ġcheck ed
Ġb ou
Ġle gs
Ġlat est
Ġbare ly
h l
Ġp ie
Ġh osp
Ġat hl
Ġsp r
Ġlook ing
Ġdetermin ed
Ġdiff icult
d le
Ġt reat
Ġf le
Ġre g
Ġcomput er
Ġsc r
Ġcompass ion
on ne
Ġin nov
Ġwas n
Ġup coming
Ġto ast
Ġst yl
ir ing
Ġcre aked
Ġmid st
Ġhosp ital
Ġlist ening
Ġalm ost
o d
u nd
im e
c he
Ġch ance
Ġhun g
Ġb ask
Ġset t
e ver
Ġh aving
Ġover head
ag er
Ġdes ig
Ġartist s
onne ct
n al
Ġf ad
Ġwe bs
Ġanim al
Ġfollow ing
Ġsing er
n ight
et ed
Ġbreat hing
Ġwrit er
Ġprogram s
Ġmag ic
kn own
g r
at ely
Ġapp eared
Ġbl og
Ġstud ies
ent ial
Ġan n
ĠF inally
Ġshop s
f orm
Ġb and
ap er
Ġneed ed
Ġcr ow
Ġd ent
Ġv enture
Ġch o
Ġgrab bed
Ġcher ish
Ġdes k
Ġhop ing
Ġunderstand ing
Ġtow ering
Ġg n
Ġv an
Ġneighb or
Ġprior it
0 0
Ġs qu
Ġcl ou
Ġso ci
Ġres ist
Ġprofess ional
Ġa p
Ġthe rap
is f
Ġas yl
Ġsat isf
Ġtw ig
Ġimport ance
Ġsculpt ures
Ġasyl um
e re
f ill
t ched
Ġt able
Ġback wards
Ġfriend ly
ĠF rom
Ġtran sp
Ġsel f
Ġstri ve
Ġun known
Ġrust ed
Ġcons um
Ġaction s
Ġord ered
Ġway s
Ġbal ance
Ġdrink s
Ġcir c
o int
Ġm ass
Ġkind s
Ġhorr or
Ġhorr ors
Ġpick ed
Ġd anger
Ġl ot
ck ed
Ġbir th
Ġdisc over
Ġcook ed
v ol
Ġ ice
Ġa we
iz ation
Ġdis hes
Ġvisit ors
Ġpull ed
J ust
Ġs als
er ve
ar led
Ġwind ing
Ġfig ures
ari um
Ġap art
Ġcountry side
Ġmon th
Ġsals a
m ade
us hing
Ġlong er
Ġmeet ings
i or
i pping
Ġs ent
Ġm ale
Ġg ift
Ġr out
Ġdo gs
Ġcr un
Ġad ding
az ed
Ġlun ged
Ġtrain s
Ġinsp ires
Ġexplor ing
Ġhom eless
b ling
Ġplan s
Ġrefres hed
Ġland mark
Ġbirth day
Ġc apt
Ġch ick
Ġse as
Ġcour t
Ġconduct s
Ġscram bled
l ife
Ġw ine
ur ope
ious ly
Ġdanc er
Ġtalk ed
Ġr om
Ġwork ed
ĠE urope
Ġlist en
Ġdraw n
Ġide as
Ġe c
Ġv i
umb ling
ĠT V
Ġknow ing
Ġblog ger
Ġmale vol
Ġin s
ĠS omet
og n
Ġgent ly
Ġboard walk
Ġscr at
Ġsoci ety
Ġa v
Ġwe ather
Ġan t
Ġch as
Ġfru its
Ġful fill
Ġ ing
Ġf ish
is s
Ġre aching
Ġsh arp
Ġpro ble
Ġvac ation
a ze
c ing
Ġo bs
Ġb i
ure d
Ġsc hed
Ġphot ograp
Ġ G
Ġbur st
W hen
a res
Ġ ur
Ġp ee
Ġwin ter
Ġchick en
s ure
Ġm ess
Ġp ay
Ġwork out
Ġhi ke
Ġwand ered
Ġmean ing
Ġexperim ents
Ġvi ol
r uction
it ions
Ġse rene
Ġlou d
Ġrec ogn
Ġwh ite
iv ity
Ġbl ank
Ġrestaurant s
Ġstill ness
Ġgr ad
Ġres il
Ġpract ice
Ġmot iv
Ġsustain able
Ġdesig ner
Ġc em
et ery
Ġsh ut
iv id
Ġbright ly
ĠB y
Ġcem etery
Ġn av
Ġgu ide
Ġcult ure
Ġexerc ise
Ġstyl ist
F inally
f or
led ge
Ġremind s
Ġcomp le
Ġsho es
Ġdevelop s
Ġnovel s
Ġsandw ich
e ar
k es
Ġsp oke
ite ment
Ġstr uck
Ġglow ed
ĠL ife
Ġhist or
ĠTh is
Ġcomed y
Ġdent ist
as c
Ġfor m
Ġtherap ist
Ġc ut
Ġf ly
Ġco ll
Ġclass ic
Ġsal ad
Ġmar vel
Ġdesert ed
Ġma j
Ġpriorit ize
Ġrom antic
Ġre port
Ġcou ch
Ġapp oint
Ġplay ed
Ġdes pite
Ġfin ish
Ġcolle ag
Ġexc itement
Ġmem ory
Ġ very
Ġtransp ort
Ġing red
Ġ R
it es
Ġh it
Ġl ess
Ġcom es
Ġrust le
Ġscream ed
Ġth ro
Ġal ley
Ġthought s
Ġpain ting
Ġhom es
e c
t he
in s
Ġb le
Ġsomet imes
Ġhost ing
Ġgn arled
Ġcomple x
Ġh alls
Ġgr otes
Ġsp un
Ġad m
Ġed uc
be ing
Ġingred ients
y les
Ġb ench
ou n
Ġis s
Ġit self
Ġsh ared
Ġsp ending
Ġsun light
Ġdo ing
Ġwalk s
Ġgrotes que
ce pt
Ġgrave yard
Ġgas ping
Ġdream s
Ġgri p
Ġlaugh ing
ĠTo day
Ġcras hing
Ġinnov ative
Ġvan ished
o ot
r on
Ġun l
Ġbec ame
Ġhost s
Ġbab y
Ġm in
Ġhaun ted
Ġel se
Ġbask et
ci p
Ġdifferen ces
Ġill um
Ġsett led
Ġhe at
iv il
Ġbr ings
cc er
Ġsaf ety
Ġdire ction
Ġsuccess ful
Ġc aut
er v
um p
Ġso ccer
Ġart ic
ars h
Ġlands cap
Ġpur s
Ġcelebr ating
Ġdisapp eared
Ġwar ning
Ġm ir
Ġc ivil
Ġclaw s
Ġmalevol ent
d ings
Ġsh are
iz es
Ġhapp iness
Ġrelax ing
Ġwed dings
Ġresponsib ility
Ġthro at
. "
n ers
rou ght
ren t
Ġinv ig
ain s
il ed
Ġmov ies
Ġpass ing
Ġplant ing
Ġconnect ed
Ġmindful ness
Ġs ure
Ġin fl
ir t
Ġse ren
Ġmov ed
Ġpop ular
Ġillum in
p le
u le
Ġtr ucks
Ġcon f
Ġbre w
Ġear s
Ġcat ching
Ġjour nal
Ġexp an
Ġfiel d
Ġathl ete
Ġf all
Ġex am
Ġremind ing
Ġvo ices
i um
as is
Ġthrough out
Ġsk ills
Ġgrow l
ĠJ ust
Ġneighbor hood
Ġs way
ud d
Ġbu ying
ĠC h
Ġgl ass
Ġinfl u
Ġt ight
um n
Ġfill ing
Ġrel ief
Ġwild life
Ġdust y
Ġann ivers
h at
Ġs avor
Ġquick ened
Ġannivers ary
c are
Ġs ens
or d
Ġr hy
Ġsee m
Ġsu b
Ġpossib ilities
Ġtask s
Ġrhy th
Ġl im
Ġe tched
Ġsh ort
Ġsc re
Ġback ground
Ġatt ract
ĠO n
Ġblo ck
wor k
Ġstrugg led
Ġbasket ball
g hed
Ġf ight
Ġon line
Ġar r
Ġdis pl
Ġcre aking
ove red
Ġhaun ting
Ġiss ues
Ġseren ity
Ġca fe
Ġlau ghed
Ġshadow y
Ġproble ms
Ġexpan se
Ġp ure
an s
Ġgre eted
Ġatt end
Ġmyst ery
anes e
ĠJap anese
Ġflash light
o ors
Ġc ream
Ġto night
Ġd ress
im m
ĠE ach
Ġeff ect
Ġcomed ian
Ġhesit ated
Ġsched ule
D espite
Ġs ell
Ġb ow
Ġp ressed
ow ever
Ġar om
Ġconst ruction
Ġcolor ful
Ġdiscus s
Ġacc ess
Ġsong s
Ġo asis
av ors
Ġun iverse
Ġem p
Ġclos ing
Ġmon st
Ġdetermin ation
Ġconstant ly
Ġtang o
Ġp it
Ġh ous
Ġdest ination
Ġbro ken
Ġspir its
o dy
Ġb rought
Ġd uring
ent ion
Ġr oo
il es
Ġcl own
Ġfl avors
Ġte m
Ġwr iting
Ġwhisp ered
Ġtom orrow
Ġorgan izing
Ġappoint ment
m an
Ġs ick
le ction
ist s
Ġsp end
Ġrelax ed
Ġwebs ites
ere st
Ġa ud
ri d
Ġhair s
Ġph ys
Ġsil ent
Ġlandmark s
n ed
Ġf asc
Ġme als
Ġgr as
Ġse ats
Ġrun s
Ġbusiness es
Ġmel ody
Ġflick ering
Ġrhyth m
c ess
r ying
Ġin h
Ġr aced
Ġde m
out h
Ġvolunte er
Ġscen ic
Ġcuis ine
Ġc ap
Ġc ause
al ity
Ġstret ched
c ast
he red
Ġst one
Ġre pl
Ġre nt
Ġwant ed
Ġmust y
Ġcomm on
Ġinter n
Ġcur sed
Ġsurf ace
Ġstrugg les
Ġwhisper ing
Ġimag ination
Ġcolleag ues
f ree
u ation
Ġc af
Ġfe at
Ġle vel
Ġpat ients
Ġsa fe
M y
Ġover come
Ġman aged
Ġres our
Ġwho le
Ġsit ting
Ġfro ze
Ġb it
ut e
Ġdown t
Ġsur v
Ġbreat he
Ġenjoy s
Ġproduct s
A t
b ing
Ġl ed
Ġv ict
Ġsp read
Ġdes per
Ġaut umn
Ġhous es
o f
Ġto ld
Ġwork er
Ġknow ledge
Ġmem ories
Ġeff ort
Ġreve aling
Ġapart ment
Ġa qu
Ġh arm
Ġd iverse
ore d
ĠL ater
Ġadv enture
Ġsal e
Ġrenew ed
Ġflu ently
Ġwond ers
l ines
id st
Ġinflu enc
Ġtr ick
ter ing
Ġint erest
Ġem ot
Ġind ivid
Ġstrong er
Ġwol f
Ġcaut iously
Ġarom a
Ġdownt own
Ġt est
Ġm all
Ġar ms
Ġresp ond
a pped
Ġs udden
n at
v iew
z z
Ġn ational
Ġcall ed
Ġfru it
Ġpub lic
Ġaqu arium
Ġt ell
as es
Ġp ict
if ting
Ġoutd oor
Ġinfluenc er
Ġt apping
Ġh ills
Ġfill s
Ġinc red
Ġye ar
Ġelect ric
Ġd et
et fl
Ġch ant
Ġus ing
pl es
Ġlun gs
Ġes cap
Ġlat te
ĠN etfl
Ġmedit ation
Ġob st
ĠNetfl ix
w here
Ġw itness
it able
Ġg one
Ġsh rou
Ġoff er
Ġwild er
Ġfiel ds
Ġbou ght
b we
Ġf aces
ren ts
Ġshad es
Ġrust led
Ġnow here
Ġdep th
Ġobst ac
in ted
Ġn ut
Ġun p
iz z
less ly
Ġpub l
Ġwilder ness
Ġc ro
ic ation
Ġcl o
Ġactiv ities
Ġoccas ional
L ife
ĠS o
Ġsl ides
Ġbal c
Ġfad ed
r ance
Ġb oss
Ġst ad
Ġr ace
Ġwith out
Ġlo ves
Ġpain ted
Ġscen ery
Ġstad ium
Ġw el
Ġp ad
Ġp ages
Ġin e
Ġor che
Ġfore bo
Ġhold ing
Ġviol in
Ġresil ience
Ġbalc ony
Ġorche st
Ġforebo ding
Ġlearn ed
Ġproject s
Ġra ise
h ips
p e
es h
Ġl ic
Ġpl aces
Ġdo es
olog ist
i ar
s w
v ent
on ing
Ġre cip
Ġy el
Ġfl esh
Ġcr u
Ġgrow th
Ġinter ior
g ot
Ġd ut
ic y
Ġcou ple
Ġv en
Ġint ric
Ġro ot
Ġem an
Ġref lection
r ise
ĠThe ir
ot e
Ġex t
Ġde af
Ġfore ign
Ġser v
Ġpot ential
Ġfasc in
s c
Ġan sw
Ġde f
Ġlight s
Ġent h
Ġsurround ings
Ġsal ty
Ġsym ph
Ġmusician s
Ġbloom ing
Ġnav igate
Ġdepth s
Ġdut y
or ated
Ġth in
Ġwe ar
us i
ter n
ol ate
Ġnot ice
Ġbus hes
Ġpossib le
Ġval ley
Ġke pt
bwe bs
Ġlic ense
Ġenth usi
Ġd amp
Ġl aw
Ġl ine
ic ip
Ġsh imm
Ġas leep
Ġem erg
Ġsu per
Ġrel ations
Ġbak ed
Ġcivil ization
Ġf alling
Ġme ant
Ġmo d
Ġsun rise
Ġar c
Ġsight s
Ġcompl et
Ġresour ces
â Ģ
Ġs ending
Ġo pt
Ġp ul
Ġr ot
Ġcur rent
Ġdim ly
Ġp ort
Ġl ater
Ġr i
if act
id ing
Ġtr ue
Ġart ifact
Ġloom ing
Ġfarm er
Ġbeck oned
Ġp al
an e
Ġsk ill
Ġchang ed
Ġbrew ed
Ġintern ational
e fore
Ġm ult
Ġm ix
Ġh ues
Ġr ange
Ġt un
Ġc ard
Ġh ill
Ġd art
Ġl ing
Ġl az
al y
Ġfe ed
Ġcl ient
Ġroom s
pect ed
Ġcall ing
Ġma ze
Ġreturn ed
ir re
Ġr az
Ġfeel s
Ġam idst
Ġsec ond
Ġsaf ari
Ġs av
if f
Ġgr ace
Ġro ast
Ġent ity
Ġadv oc
Ġinc l
Ġmedit ate
nat ural
Ġyel low
Ġraz or
Ġt aken
Ġm erc
Ġf re
Ġb ase
Ġe ager
Ġbe ast
Ġstre am
Ġbri d
Ġpower ful
Ġrelax ation
Ġstress es
Ġdeaf ening
p aced
u bs
Ġt ent
red ict
Ġwould n
Ġwr ite
Ġadv ent
Ġpie ces
Ġgrad uation
c ut
Ġf ac
at hered
or k
Ġe at
Ġr are
Ġcl ub
Ġjoy s
Ġaut h
Ġchas ing
Ġshrou ded
Ġsymph ony
i ant
Ġ ess
Ġw all
Ġm ach
Ġp ause
Ġd one
Ġcon vers
Ġsurround ing
Ġred uce
Ġtur ning
onnect ed
a ff
t ub
is ed
Ġst age
Ġcou n
Ġtre nd
Ġwhe ther
Ġfin an
Ġvol ley
Ġbath tub
Ġstret ch
Ġvolley ball
Ã ©
Ġb ills
ant ed
Ġcr ack
Ġbreat hed
Ġent ire
Ġred ec
Ġwa it
l ish
o ld
or c
Ġh ood
Ġd ed
Ġtrain ing
Ġbro ke
Ġfocus ed
Ġsqu irre
Ġjournal ist
Ġfinan cial
in ct
Ġb ones
Ġr ush
Ġen velop
Ġcre ep
Ġcha otic
Ġvast ness
Ġchang ing
Ġdiscus sed
Ġwol ves
Ġcoll ap
Ġscre en
ce nd
Ġgr ap
Ġstep s
Ġcomm un
Ġaccompl ish
Ġclou ds
Ġb at
Ġp izz
Ġcl in
ter s
Ġal t
Ġsing le
Ġpet ting
Ġventure d
Ġunl ike
Ġartic les
Ġredec orating
Ġ ign
Ġh ol
Ġl apt
Ġr um
Ġun w
ap id
Ġwhe el
Ġstud io
Ġchallen ge
Ġterr if
Ġshould er
Ġperspect ive
Ġemp ath
Ġlapt op
d ling
h ic
un g
Ġv ide
Ġcl ubs
Ġno st
Ġhome made
Ġres ort
Ġflow er
Ġchat ted
Ġcrun ching
a ft
Ġg ave
Ġwas hed
Ġfor got
um ent
Ġde ath
Ġsu pp
Ġexperien ced
Ġstroll ed
Ġconsum ed
Ġmess ages
Ġorchest ra
Ġclin ic
Ġst at
Ġre j
Ġsh one
ci ous
Ġrem od
ff ic
Ġreal ize
Ġbr ush
anc ed
Ġsear ching
Ġthri ll
Ġenthusi ast
Ġcomplet ely
Ġremod eling
Ġo pp
Ġg azed
Ġgr anted
Ġen ough
Ġreal ly
Ġperform ances
Ġgl imp
Ġcre ak
Ġunc over
Ġrecogn ize
Ġshimm ering
ab it
Ġse ating
Ġbright er
Ġbeck oning
Ġescap ed
Ġeman ating
u ven
y le
Ġ est
ri b
Ġco bwebs
Ġnew sp
Ġkn it
Ġdanc ed
Ġexp ress
Ġstorm y
Ġspot ted
Ġrej uven
n y
ou st
is ing
Ġad d
Ġune x
Ġdest in
Ġdispl ay
Ġm outh
Ġb ud
Ġd ive
Ġin j
ri ls
Ġex otic
Ġsp a
Ġbl ind
Ġac oust
Ġsu ff
Ġvis ion
Ġcre pt
Ġhapp ened
Ġmist ake
Ġnut r
f its
z en
en ces
Ġst ation
if ted
br ush
Ġent ertain
Ġmen u
Ġadvent ures
Ġca us
Ġmoon light
Ġmot orc
uc ing
Ġcelebr ate
Ġroll ing
Ġsnow board
Ġblank et
Ġmir r
Ġartifact s
Ġmotorc yc
m et
Ġs ush
Ġw ave
Ġl uck
el ling
Ġcl iff
ang ing
Ġres pect
Ġfind ing
ull s
Ġlur ked
Ġgri ll
Ġless ons
Ġfeat ures
Ġacoust ics
Ġsush i
Ġp ale
Ġsm iled
Ġdr y
ĠE ng
Ġgood s
Ġmove ment
Ġinvest igate
Ġempath y
, "
e f
el et
Ġne g
ain st
Ġunder brush
Ġenvironment al
Ġpol it
Ġrep airs
Ġgras p
Ġunp redict
Ġb ony
Ġsh iver
Ġk ay
Ġsee k
Ġhair cut
ub a
Ġmid dle
Ġlif ted
Ġcaf Ã©
Ġintric ate
Ġvide o
Ġw it
at or
ow ed
Ġst ir
Ġsp ee
Ġsc uba
Ġde er
Ġcar ried
Ġsky sc
Ġmet al
Ġgroc eries
Ġlar ger
Ġtom b
ĠP e
Ġrock s
sh arp
Ġseas on
Ġri pp
Ġauth or
Ġpizz a
Ġskysc rap
A nd
h ip
Ġs ink
Ġm is
Ġb ag
Ġh arsh
Ġn ur
Ġfr ag
Ġthem selves
Ġpract ices
Ġris es
Ġspecial izes
Ġphys ical
Ġmult ip
a un
Ġt er
Ġb low
ĠH er
Ġal read
Ġhuman ity
Ġaccompl ished
aly z
Ġalt ar
ĠEng lish
Ġalread y
Ġb ands
Ġto r
Ġun se
Ġyou ng
Ġpres erve
Ġinter c
Ġsn ap
Ġvari ous
Ġhall way
Ġc ent
ic ated
Ġat e
Ġsee ing
ick ed
Ġem ail
Ġcol lect
Ġgrow ling
Ġsatisf ied
Ġincred ible
Ġrelations hips
Ġmultip le
Ġb ound
Ġd un
Ġpass ion
Ġfro zen
Ġsleep ing
Ġenc oun
Ġscrat ch
Ġmaj est
a im
a ust
e w
Ġo at
Ġc akes
Ġp reci
ut es
ant s
Ġtre m
Ġhair st
me al
Ġoat meal
Ġf ate
Ġf act
Ġto es
Ġd irt
id ent
um ents
os ystem
Ġcar ry
Ġbir d
Ġred ucing
Ġinv iting
Ġcult ural
Ġtravel ers
Ġcal ming
Ġpull ing
Ġpa rents
Ġtwig s
Ġec osystem
Ġobstac les
Ġdestin ations
Ġinterc onnected
Ġt y
Ġt ank
Ġco ach
op es
Ġcr aft
Ġsky line
Ġinst ead
Ġatt ention
Ġcount ries
Ġtra ffic
Ġshap es
Ġprep ared
' ll
p s
Ġt attered
an ical
Ġg aze
Ġn ame
Ġsh ares
Ġan k
Ġsk elet
Ġnot e
Ġsl am
Ġclot hing
Ġdevelop er
Ġstret ching
Ġcompet es
rop s
Ġinvig orated
Ġlevel s
Ġrecip es
Ġest ate
u als
Ġto urn
il ess
Ġfl o
Ġgarden s
Ġsum m
Ġperspect ives
Ġhistor ical
Ġnewsp aper
Ġpreci ous
Ġtourn am
k s
Ġs ipped
Ġas s
ack le
Ġent rance
Ġcomm er
Ġbel ong
Ġconcert s
Ġsou p
Ġcustom ers
Ġoverwhel med
Ġpa used
Ġelectric ian
Ġmerc iless
ĠPe ople
e ing
f low
h ine
in ary
es e
Ġsuns hine
Ġprov ides
Ġfil ms
Ġobs c
Ġconvers ation
al ed
om ach
Ġst omach
Ġco ck
ke red
Ġsp aces
Ġreal ity
Ġturn s
vel y
enc y
Ġrout ine
ĠSomet hing
Ġsell s
Ġspee ch
l ook
Ġth reat
ic kered
Ġr ays
Ġsh ivers
ab ility
ap s
alk ing
Ġfl ickered
Ġcont ro
Ġappro ach
Ġwill ing
Ġpurs u
Ġcollap sed
N ature
Ġa st
Ġf aster
at o
Ġh ur
Ġl ying
Ġl ined
Ġare as
Ġbut ter
Ġen sure
ful ly
Ġapp lic
Ġdes olate
Ġbr ushed
Ġman age
Ġpass port
Ġexh aust
Ġspeak er
Ġoutd oors
Ġphotograp hy
Ġmin utes
Ġmerciless ly
Y ou
c ur
t ime
Ġf und
Ġp ost
Ġtre as
Ġfin al
err is
Ġclean ing
ific ant
Ġfly ing
Ġvict im
Ġcommer cial
Ġcock t
Ġc ow
Ġl ush
Ġdo ors
Ġsound ed
Ġbo x
Ġbot anical
Ġcons cious
Ġtransport ation
Ġtrick s
Ġunse en
Ġt ired
Ġp rou
Ġp ets
Ġp ushing
Ġg our
im mer
Ġcr y
Ġcr aw
Ġstart s
Ġsw ings
Ġvis iting
Ġpast a
Ġexplore d
Ġmag ical
Ġtow ered
Ġflight s
00 0
Ġmeaning ful
Ġinterest ing
Ġchant ing
Ġglimp se
Ġunex pected
Ġgrill ed
Ġunpredict able
Ġencoun ter
Ġprou d
g y
Ġm ur
Ġth ank
Ġg e
ĠS t
Ġgr in
ort ed
Ġar m
Ġdelic ate
Ġfoot ball
Ġjo in
Ġaw a
erv ation
Ġattract ions
Ġhol id
u ff
Ġme at
ag ulls
Ġimp os
Ġpier cing
Ġdri ving
Ġtour ists
Ġdon ating
Ġball et
gr own
Ġcirc le
Ġfulfill ing
Ġpee red
c ri
Ġs ip
er ving
The re
Ġse at
Ġgreat er
Ġmar ath
Ġlead s
Ġfarm ers
Ġsear ched
Ġtast e
Ġcontro l
cur dling
Ġgour met
c orn
i qu
Ġb ol
Ġst airs
ist a
Ġup d
Ġj ud
Ġab ility
end er
Ġro se
iv ed
Ġte xt
Ġcar rying
ang es
Ġpop corn
Ġroll er
Ġreport s
Ġpad dle
Ġrum ors
Ġcockt ails
g iving
Ġpl un
Ġun able
Ġover grown
Ġdo c
Ġprep aring
Ġpar ched
ĠSomet imes
udd led
b on
om ed
ut h
Ġcl ut
Ġtr acks
Ġfr antic
Ġag ent
Ġdr agged
Ġcold er
Ġpri v
Ġspir it
Ġke y
Ġin f
ll s
Ġv ines
Ġlo se
Ġqu est
Ġset tle
ĠE ven
Ġwood en
Ġveget able
Ġhuman s
Ġcompl ete
Ġcro iss
Ġmod els
alyz ed
Ġ icy
Ġw ake
Ġp ress
Ġh umbling
Ġd il
Ġg iving
st ones
ĠS h
Ġun f
Ġprod uction
Ġsl opes
Ġim m
Ġshow c
Ġdead lines
Ġsway ing
Ġgrap hic
flow ers
s et
in y
el led
Ġst ench
Ġsh aking
Ġtr uth
Ġhelp ing
Ġstr uct
Ġam ong
Ġspe c
Ġfoot pr
rep it
Ġequ itable
Ġclim ate
Ġtrans form
Ġcaus ing
Ġank le
Ġgl o
Ġfloor board
Ġthink ing
Ġchang es
Ġpack ed
Ġhood ed
Ġunw ind
Ġast ron
Ġapplic ations
d o
p ack
u ge
er n
Ġn est
Ġst aff
am ed
ĠH owever
Ġsee ms
Ġlo cked
Ġhow led
Ġcar bon
ress ive
med i
Ġrel ent
Ġdec repit
row ing
Ġmonst er
Ġpict ures
Ġarc ade
Ġign ore
Ġstat ue
he t
Ġc ertain
Ġf allen
Ġh on
Ġg ate
Ġe le
ut ion
Ġre view
Ġwor d
Ġtr ad
Ġun sure
Ġair pl
Ġhow ling
ick ets
Ġad orn
Ġtw ink
Ġstri ke
Ġacc ount
Ġclim bed
Ġob ject
Ġlandscap es
Ġillumin ated
Ġsavor ing
Ġadorn ed
Ġb ark
Ġl one
Ġg ust
Ġch ur
Ġco aster
Ġnot es
Ġapp s
Ġstr a
Ġsimp lic
Ġho b
ict ion
Ġmar ine
Ġdep os
Ġmyst eries
Ġdire ct
ĠY et
Ġlim bs
Ġhairst yles
Ġsimplic ity
b ers
g es
m a
Ġc yc
Ġst ar
Ġr ows
Ġreal m
Ġqu ite
Ġpath s
Ġwa ft
Ġmean s
vent ually
Ġcreep ing
Ġdepos it
Ġg ir
Ġcl aim
op h
ren ched
pl ace
ĠB efore
Ġtranqu il
Ġprep are
Ġopt ions
Ġstra ight
Ġs ave
ing ing
Ġh ig
Ġg athered
Ġre qu
ver all
Ġu nd
Ġsn apping
Ġwild flowers
Ġim medi
Ġmatter s
Ġhaun t
Ġsens es
Ġenvelop ed
Ġnost rils
Ġluck y
f oot
Ġb as
an ed
ĠThe se
Ġr ather
Ġint ense
Ġback pack
Ġde v
Ġperform ance
Ġcor rid
Ġstay ed
Ġcomfort ing
Ġweekend s
Ġpar alyzed
Ġsystem s
Ġskyscrap ers
i als
k y
Ġw ings
Ġin ner
ur ies
ir ds
Ġsn acks
Ġprom ise
Ġcrow ded
Ġbow ling
Ġroot ed
Ġnutr ition
b re
Ġm ater
Ġf ol
Ġh uddled
id er
Ġcan c
ie ved
Ġdown s
Ġus ed
Ġstr ate
Ġstore s
Ġsn ar
Ġcook s
Ġscream s
Ġbak er
Ġmyst er
Ġlead ing
Ġkay aking
Ġmarath on
Ġth ous
Ġe ating
et ing
Ġre ward
ak s
Ġor der
em s
Ġatt ack
Ġbur ning
Ġmen acing
Ġlandscap er
Ġarr ange
Ġdem on
Ġling ered
cend ed
Ġfootpr int
t ling
Ġt ackle
Ġw on
ar ity
Ġg ut
Ġst yles
Ġbe ating
Ġfe ars
il ar
Ġj ump
Ġun for
Ġor anges
Ġneed s
Ġsm oot
Ġcr yst
Ġcomp re
Ġtw o
Ġunder foot
Ġgl immer
Ġfollow ers
Ġcard io
Ġterrif ying
Ġchur ch
Ġ i
Ġf it
at ory
Ġp ush
Ġd renched
ic ally
Ġr it
am ing
ess ert
Ġup s
il ing
Ġam b
ĠIn st
Ġmed ical
Ġmag az
Ġcand les
Ġfil m
Ġenthusiast s
Ġcow ork
Ġsmoot h
u nder
Ġp ave
Ġd rove
Ġd essert
is her
ad es
ch ar
Ġex cept
Ġlo g
Ġev il
Ġbr ands
Ġmusic als
ĠIn side
Ġcour age
Ġshow ing
Ġdanc ing
Ġcompassion ate
Ġmass ive
Ġant icip
apid ated
Ġfloorboard s
Ġmyster ious
T h
c ue
Ġt en
Ġh al
Ġn ar
Ġre char
Ġsh ift
ri ble
Ġpark s
Ġstr anger
ft op
Ġman ager
Ġspe aking
Ġcomm unities
Ġpeaceful ness
Ġwand er
Ġfamil iar
Ġpurp le
Ġcompet itions
Ġmotorcyc les
Ġdil apidated
Ġnutrition ist
f it
h ou
m all
he me
Ġn ice
Ġne cess
Ġwor st
Ġli vely
Ġsc heme
Ġdisc overed
ĠO verall
Ġsil hou
Ġlangu ages
Ġthri ve
Ġmotiv ational
Ġattend ed
Ġroo ftop
Ġded icated
Ġdun es
Ġfrantic ally
Ġpave ment
Ġsilhou et
e k
g ers
h ile
l f
Ġs an
Ġo per
Ġb art
ow ing
own ed
ĠAfter wards
Ġpo et
Ġcompan ies
Ġfascin ating
Ġairpl anes
Ġs ipping
Ġc alls
Ġf led
Ġin form
Ġbe ings
im ate
pp ings
Ġle g
Ġj um
Ġback ed
Ġhelp ed
Ġjust ice
Ġad ult
Ġwater f
Ġweight s
Ġpie ce
Ġharm ony
Ġbart ender
o le
Ġt iny
Ġd iv
is ion
om b
Ġstud ent
Ġhapp en
Ġvisit ed
Ġinsp ire
Ġpo d
Ġprof ound
Ġghost s
Ġcrow d
Ġble w
Ġpubl ished
Ġrot ting
Ġarrange ments
Ġa f
Ġs ay
Ġc ot
Ġre leas
ĠA ll
Ġch air
Ġsp ark
Ġbr own
Ġbr ainst
Ġwr ap
az z
Ġappro aching
ĠB irds
Ġfire f
Ġcho ices
Ġbackground s
Ġroo f
Ġcryst al
Ġc e
Ġc ross
is on
ir ation
Ġcl arity
Ġk no
iz ations
Ġse af
ert aint
Ġcount less
Ġboard ed
Ġsupport ing
Ġpool s
Ġcand le
Ġaccess ories
Ġskelet al
Ġslam med
Ġfiref ight
i age
Ġ V
Ġw ore
Ġc am
Ġb ad
Ġp aper
Ġst ared
ri g
ct u
Ġcou ples
Ġsp in
Ġse agulls
Ġdark er
Ġbo ating
Ġref used
Ġcult iv
Ġbest sel
ĠTh at
Ġwand ering
Ġillumin ating
Ġexam s
Ġserv ice
Ġtrem bling
Ġspec ies
Ġnest led
Ġwaft ed
Ġimmedi ately
Ġcanc er
i ance
Ġf isher
Ġst yle
Ġfor t
Ġclass ical
Ġgood by
Ġve nd
Ġtwist s
sib le
Ġadv anced
Ġbring ing
Ġtom ato
Ġexist s
Ġcand y
Ġdesper ate
Ġport ra
Ġmach ines
Ġfol iage
Ġrechar ge
Ġcot t
O f
Ġt ables
Ġf air
Ġl ift
Ġth rowing
ro ad
ard s
Ġfl or
Ġfi xt
Ġappreci ation
Ġsoft ly
Ġhop es
Ġtravel ing
Ġelect r
Ġmirr or
Ġfixt ures
l ers
n ot
z es
Ġm iles
Ġf ade
ac ity
Ġas ked
ain ing
Ġout fits
Ġsee king
Ġcreat ive
iv ely
Ġdes ign
ang ers
Ġlight ning
Ġmus c
umb er
Ġpo ll
Ġfire place
ra id
Ġsol ace
Ġdraw ing
Ġaw oke
Ġtight ly
Ġindivid ual
Ġindivid uals
Ġcru cial
Ġsink ing
Ġseaf ood
Ġfirefight er
Ġt ax
Ġt elling
Ġso ak
Ġpro cess
Ġapp ar
Ġcont rib
Ġno ises
Ġper se
Ġhand made
Ġste ad
Ġsurf er
Ġshel ves
Ġful ly
Ġcuis ines
Ġpal m
Ġcoun sel
H owever
c l
Ġ âĢ
Ġto ppings
Ġp u
Ġp or
Ġth r
Ġn on
ter y
ĠW hat
Ġde al
Ġsome where
iv en
Ġtou ched
Ġunc ertaint
Ġcommun ication
s es
u x
Ġs le
Ġc ine
Ġg ates
Ġr agged
Ġr ushing
Ġsh aring
and ing
Ġgo es
Ġenjoy able
Ġres pite
Ġmuseum s
Ġorg anic
Ġdecay ing
Ġtreat s
Ġfle eting
Ġcap acity
Ġskill ed
Ġforgot ten
Ġter rible
Ġupd ate
Ġnar row
Ġaf raid
Ġa ff
Ġm ad
Ġm ine
as y
Ġsh attered
Ġtr ack
us ion
Ġfr is
end ed
Ġchild hood
Ġbar ista
Ġpri zes
Ġchoo sing
Ġord inary
Ġur ge
Ġcowork ers
b ack
Ġ 5
Ġt ap
in o
Ġm aint
Ġl ux
rou s
Ġgo lf
ag ging
Ġinst inct
Ġcamp a
Ġwonder ing
ĠWith out
ĠP anic
Ġclim b
ĠJap an
Ġphotograp her
Ġtrend y
Ġblow ing
. .
h aps
m en
s y
Ġs ail
Ġf acing
Ġg le
ad o
Ġme re
se ct
Ġsh ark
Ġcr ab
Ġend ed
Ġact s
Ġexc iting
Ġbegin ners
Ġclean ed
Ġprov ide
Ġscrat ching
Ġble nd
Ġsurv ive
Ġlaz y
Ġess ential
Ġobsc ured
Ġanticip ation
Ġcine ma
b ust
l and
l ifting
Ġm aster
Ġg ives
Ġsh ook
ke y
Ġtr uck
ast ic
Ġsp l
aw ay
Ġro ots
Ġhor se
Ġtwist ing
Ġterr ain
Ġbec ause
Ġexplor ation
Ġominous ly
Ġcrun ch
Ġcreak y
a i
l t
o on
Ġb one
Ġto ys
as hed
Ġp our
an ch
Ġup gr
Ġall ows
ĠAs ia
Ġro le
Ġown s
Ġmind s
Ġgu est
Ġwonder ful
Ġlou n
Ġeng age
Ġbar ren
Ġinsp ired
Ġinsp iration
Ġfix ed
Ġval ues
Ġlab or
Ġdanger ous
Ġins ign
Ġant ique
Ġmaj or
Ġcap able
Ġemerg ing
Ġwit ch
Ġripp le
iqu es
Ġpaddle board
Ġcorrid ors
Ġunfor giving
Ġelectr ical
i el
t i
Ġs ac
Ġo il
Ġm il
es ter
Ġth under
Ġg iant
ver ing
Ġv ill
Ġtr ap
Ġun natural
Ġover look
Ġman ages
umb le
Ġsimp l
Ġthem e
Ġsurf ing
Ġimag ined
Ġblock bust
Ġsick ly
Ġplun ged
Ġamb iance
Ġpod cast
ĠâĢ ĵ
o id
Ġ 2
Ġf aced
us ole
Ġsee ming
Ġfin ances
Ġadv ises
Ġma usole
Ġocc ur
Ġcho ice
Ġloud ly
Ġimpos sible
Ġmausole um
b alls
Ġs igns
Ġb ared
Ġr ushed
am m
Ġli kes
aw s
ck ing
Ġbr aced
Ġstart up
Ġshe er
Ġdel i
Ġcat ches
Ġbed room
Ġsal es
Ġexc ell
Ġpresent ation
Ġpat tern
Ġgen res
Ġpossib ility
for med
Ġine qu
Ġentertain ment
Ġholid ays
Ġflor ist
Ġupgr ade
b ee
s ess
Ġf ou
or med
Ġof fe
Ġg iven
ĠH is
Ġex act
Ġgr azing
Ġsp ect
Ġsp ag
Ġtri pping
Ġget away
Ġbo at
Ġbo ats
Ġbri ef
Ġpos sess
Ġevent ually
Ġwond ered
Ġav oc
Ġinvig orating
Ġrespond ed
Ġsquirre ls
Ġbud get
Ġcroiss ant
het ti
Ġadult s
Ġpor ch
Ġlux ur
sy ch
Ġoffe red
Ġspag hetti
e x
p an
Ġ 1
he st
Ġs au
Ġb urn
Ġd iving
The n
et her
Ġr ound
ant ly
all ow
Ġex pect
Ġj azz
Ġab s
Ġdes cended
Ġdis s
Ġwr ong
ĠF erris
Ġreflect ing
Ġtast ing
Ġhistor ic
Ġemot ional
Ġroast ed
Ġaccomplish ment
cri pt
Ġfort un
Ġuncertaint y
Ġavoc ado
Ġt rou
al ine
Ġbe ats
Ġun set
ren aline
Ġrem ained
Ġbre aking
Ġdist ur
ines e
Ġski ing
Ġmarket ing
Ġweek s
Ġpot tery
Ġeduc ation
ĠCh inese
Ġcry pt
Ġvend ors
Ġfris bee
T hat
l ies
n el
r ont
y ss
Ġ er
Ġto ol
Ġp an
Ġp sych
Ġd ig
Ġg ar
Ġre ce
Ġbe ar
Ġhe els
ard ed
Ġint ens
Ġsun ny
Ġab yss
ren ch
Ġbu zz
Ġbr anch
Ġpr ay
hen sion
Ġchir p
Ġlit er
Ġmove ments
Ġsto ck
Ġbar be
Ġide a
Ġactiv ity
Ġspr inted
Ġadm ire
Ġrepl ied
Ġincl ud
Ġhig her
Ġrit ual
Ġmagaz ines
b ook
f ire
f ric
h ow
Ġ err
in a
Ġp ine
if ied
Ġwe aring
ĠS ome
ĠA fric
av ed
iv als
Ġcr ash
Ġdec or
Ġdeep ly
Ġkn own
Ġhead ing
Ġperform ers
Ġfood s
Ġexh ilar
Ġgu ides
Ġsin ce
Ġweight lifting
ular ly
Ġpre y
Ġconnection s
Ġenc our
Ġbou qu
Ġrout ines
Ġven ue
Ġrelent lessly
Ġsan ctu
Ġcounsel or
Ġexcell ent
Ġunset tling
Ġsanctu ary
h o
r ation
Ġs aving
Ġm al
Ġin sect
Ġg est
ad ow
Ġit ems
Ġex it
Ġgr ows
Ġcon v
Ġcon feren
ap ed
Ġbl ess
Ġbeg un
Ġspe ed
Ġpers ist
Ġlunch time
Ġvolunte ers
Ġstrugg ling
Ġposit ivity
Ġsuper natural
Ġcurrent ly
Ġcraft s
Ġhal f
Ġinsign ificant
b l
Ġm arsh
Ġh abit
is m
Ġg ather
Ġfor th
ak able
ant h
Ġtr ust
Ġgr aves
og ether
Ġart is
Ġag o
Ġad ded
Ġkn ife
Ġune asy
Ġcheck up
Ġpink s
Ġreflect ed
Ġsol itude
Ġrock y
Ġadm iring
Ġdart ing
Ġlaz ily
Ġmajest ic
Ġreward ing
Ġmusc les
Ġsau ce
Ġmarsh mall
i ences
l or
Ġ ver
in ting
er ves
is hes
Ġan al
ul ation
Ġch airs
um ph
Ġwh y
Ġro b
Ġtri umph
Ġbl ur
Ġad renaline
Ġwhere ver
Ġwr ote
Ġent er
Ġpart ies
Ġsel ling
Ġtravel s
Ġinc re
Ġstrugg le
Ġret reat
Ġsatisf ying
Ġemot ions
Ġwel come
Ġsuff oc
Ġnur se
Ġtreas ure
Ġgir l
Ġlog os
Ġnecess ary
Ġinform ation
Ġexact ly
r up
om y
Ġli ved
Ġco st
Ġj ol
ab ly
Ġso ld
Ġbreath s
Ġdr ank
Ġslow ed
Ġcur ious
Ġtravel er
Ġbot t
Ġcons ervation
Ġmag n
Ġpat io
Ġhard sh
Ġmel od
Ġmonth s
Ġsens ation
Ġaud ience
Ġsquirre l
Ġsumm it
Ġmeat balls
Ġpoll ution
ester day
Ġartis an
S he
w ater
Ġ 3
Ġt end
Ġs ister
as ing
Ġl anes
ut ions
ic hes
un ting
Ġsh ot
um an
Ġint ent
Ġhow l
Ġse w
Ġmusic al
Ġpres erving
Ġeas e
ĠO ur
Ġsou ls
Ġfest ivals
Ġtour s
Ġchat ter
Ġge ese
Ġshowc ases
Ġmarshmall ows
t ural
Ġa ge
Ġis n
Ġad apt
Ġopen ing
Ġpart ic
Ġchir ped
Ġsl ight
Ġremem b
Ġbot tle
Ġmar ried
Ġda unting
Ġput ting
Ġgas ped
Ġprom otes
Ġchat ting
Ġsecre t
Ġchas ed
Ġtransport ed
Ġpolit ics
Ġfact ory
Ġfund ra
Ġgut tural
Ġfisher men
ĠAfric a
d ies
k er
n s
Ġs igh
ith ing
Ġne are
um e
Ġout line
os aur
Ġsc an
Ġag ony
Ġwr ithing
Ġdin osaur
Ġbri ll
Ġflow ing
Ġsl ipping
Ġexperim ent
With out
Ġaud iences
Ġinh abit
Ġclo aked
Ġguest s
c ase
f riend
w r
or ient
Ġan x
Ġco at
Ġgr av
Ġsc ur
Ġgo al
Ġsome how
Ġher bs
Ġbo dies
Ġdr ifted
ĠF rench
Ġinst alls
anc y
af ting
Ġpound ed
Ġcolle ge
Ġbig ger
Ġdep art
ĠG r
Ġpict ure
Ġfascin ated
Ġpriv ile
Ġcoaster s
Ġstead y
Ġlabor atory
Ġt iles
Ġc hes
ed om
Ġd i
Ġn et
Ġst air
Ġu m
Ġsh ips
Ġsh aken
Ġan g
ĠS at
Ġbo ots
Ġcomm ute
Ġmark ings
Ġeff orts
Ġhun ger
Ġval u
Ġfle w
Ġfad ing
Ġeffect s
Ġsav ored
Ġcent uries
Ġtournam ent
Ġanal yst
Ġbrill iant
Ġches s
l ike
n ow
in al
ou red
Ġh at
ur day
Ġme adow
im ately
ri ght
Ġj ew
Ġcreat ivity
Ġdo omed
Ġdark est
Ġdis orient
Ġve ins
Ġocean s
Ġeer ily
Ġhold s
Ġyour self
Ġphot o
Ġsandw iches
Ġcras hed
Ġspr ing
Ġfulfill ment
Ġbi ologist
Ġrepl aced
Ġven ues
Ġtun e
Ġfre edom
Ġty p
Ġbol ted
Ġhob by
bre ll
Ġcultiv ate
Ġbarbe cue
friend ly
Ġum brell
ĠSat urday
F or
O ne
p ie
v al
Ġo d
Ġc ities
it ting
Ġh y
is er
ad ing
Ġsh ifting
Ġsc ree
Ġcreat ed
ci ally
ag ing
Ġse aled
Ġcor ners
Ġlet ting
Ġrec o
Ġdead line
Ġsustain ability
Ġfle e
Ġalley way
Ġdef end
Ġbase ball
Ġdoc ument
Ġportra its
Ġconferen ce
b les
u cc
Ġp red
Ġh anging
Ġbe coming
Ġwor n
Ġpe eling
Ġcan op
Ġwr apped
Ġpart icip
ĠC l
Ġsand y
Ġpleas ure
Ġplanet arium
Ġtou gh
Ġnightm ares
Ġpar lor
Ġprov ided
Ġresponsib ilities
Ġmass ages
Ġcapt ures
ord ers
Ġarr ay
Ġline up
Ġopp ressive
Ġrejuven ated
Ġinterconnected ness
Ġsilhouet te
Ġgoodby e
lt imately
Y et
Ġb es
Ġr aces
Ġher self
Ġplay er
Ġcr ickets
Ġplan ner
Ġad vers
Ġho llow
sp iring
Ġes pe
Ġsmell s
Ġwebs ite
Ġpee k
Ġsurv ival
Ġlaw y
Ġbase ment
Ġsupp lies
Ġtomb stones
Ġawa ited
Ġjud ge
Ġstruct ure
Ġmater ial
Th is
Ġappar ition
Ġartisan al
Ġvalu able
Ġespe cially
b acks
f ly
y r
Ġa ck
Ġp anic
ar ies
Ġh ing
Ġd ue
ac y
Ġre act
Ġr ice
Ġwe ap
Ġsh udd
Ġsh ifted
av en
ick ing
Ġcont r
ress ion
Ġdis h
Ġdist ract
sp e
ug ged
Ġsho ots
Ġwrit ten
Ġtwink le
Ġthous ands
Ġwaterf all
Ġsac r
Ġvill age
Ġinsect s
Ġbless ings
Ġsuffoc ating
Ġcanop y
Ġack now
e en
g u
Ġb on
it her
al ian
Ġfor ces
us ive
Ġwat ers
Ġsk ate
Ġclos et
Ġdat a
Ġinter view
Ġperform ing
Ġcamp us
ĠO ne
Ġadv ance
Ġdri ve
Ġinstr uments
Ġchar ac
Ġmist y
Ġfing er
Ġarchitect ure
Ġathl et
che t
Ġhung ry
Ġcomplex ity
Ġartic le
Ġadvoc ate
Ġtrend s
Ġjum ped
Ġbouqu ets
Ġadvers ity
Ġhing es
? "
m on
Ġc ack
er ly
Ġe tern
ect ive
Ġfl avor
Ġac cept
Ġkn ows
Ġpass ions
Ġph arm
Ġbel ief
Ġany one
Ġnear ly
Ġdri ven
Ġgri pped
sh aring
Ġflick er
Ġansw er
Ġblind ly
Ġstrate gy
Ġrob es
Ġjew el
Ġetern ity
g est
Ġo w
Ġb an
or ing
Ġp age
ac hes
Ġr ad
Ġch ap
ĠIt alian
Ġj ack
Ġdo d
Ġset backs
Ġhapp ening
Ġwa ited
Ġsol utions
Ġra ised
Ġinvest ig
Ġoccas ions
Ġtreat ments
Ġnav ig
Ġblock ing
Ġwitness ed
Ġpul se
Ġtun nel
Ġcrack ed
Ġbutter fly
Ġsnar ling
ĠInst ead
Ġdessert s
Ġfou ght
Ġlawy er
e aring
p ting
Ġc ell
Ġc ries
as hing
Ġl ull
Ġe ld
Ġst ones
Ġst ained
ic ate
Ġch am
Ġch amp
Ġle apt
il s
Ġsc attered
Ġro ar
Ġfl ut
Ġcomp ose
Ġdist orted
Ġcat s
Ġcur t
com m
Ġsal on
Ġexperien cing
Ġbegin s
Ġmot ion
Ġmel ted
Ġpaint s
Ġoccas ion
Ġinh uman
Ġmil k
Ġinequ ality
Ġerr ands
Ġrememb ered
Ġgrav est
Ġbes ide
c overed
Ġt ail
as ed
Ġst ark
Ġre as
ak y
am il
Ġli ps
os ing
os es
Ġover all
Ġde w
Ġapp l
Ġtre k
Ġcr umbling
Ġsmall est
Ġpass en
Ġdisc onnect
Ġgarden er
ĠD J
Ġthick er
Ġpop ulation
Ġemer ge
Ġwindows ill
Ġneighb ors
ĠY ou
Ġcoll ab
ĠCh ina
Ġclown s
Ġrent al
Ġpubl ishes
Ġbrainst ormed
Ġmaster pie
Ġpour ing
Ġloun ge
Ġfortun ate
Ġliter ature
Ġreco iled
Ġshudd ered
f ound
h s
p air
Ġ U
in spiring
Ġm oss
Ġf ail
es mer
Ġg azing
st one
Ġre comm
ic ies
Ġr u
pp ucc
Ġle ather
aw n
Ġapp ear
Ġsm oke
ang ed
ount ered
Ġcomm ut
Ġph il
Ġcount s
Ġca ppucc
Ġsou ven
Ġunc ertain
Ġlif eless
Ġtrans l
Ġenc ountered
Ġmotiv ated
Ġpit ch
Ġsnowboard ing
Ġtournam ents
Ġpursu ing
Ġexhaust ed
Ġengage ment
Ġsimpl est
Ġseeming ly
Ġoccur ren
wr it
Ġcontr ast
Ġjewel ry
Ġsouven ir
s m
Ġm ut
Ġb ite
Ġp ed
Ġd ip
Ġwas te
se qu
ct ic
ep t
Ġdes pair
Ġbeautiful ly
Ġcur se
Ġmed ic
Ġcons ult
Ġshould ers
Ġjo kes
Ġjog ging
Ġprotect ing
mark et
Ġpol icies
Ġmagic ian
Ġmess age
Ġresil ient
Ġbow l
Ġdet ails
Ġsuper market
oph one
Ġbestsel lers
Ġcrab bing
Ġpattern s
Ġslight ly
Ġfundra iser
' d
T o
o very
r al
Ġa ware
Ġs ax
is or
am ic
Ġex ch
Ġwh ipped
ap ing
Ġnew found
Ġhelp less
Ġfl ames
Ġfl oors
arm ing
Ġhi ked
ĠE ventually
Ġcomm it
Ġinstr ument
Ġshow ered
ĠN o
Ġgreen ery
Ġchill ing
Ġadop t
Ġdisapp ear
Ġclou dy
Ġec on
Ġpurs ue
Ġsub way
Ġmix es
Ġdart ed
Ġentire ly
Ġpost s
Ġclaim ed
Ġcott age
Ġround ed
Ġinclud ing
Ġdisorient ed
Ġsacr if
Ġeld erly
Ġoccurren ces
j ar
in th
Ġs ings
Ġo k
Ġp oun
Ġd ro
Ġpl astic
Ġcon sequ
ne ver
Ġdis m
Ġqu ality
Ġsw ir
Ġrel ieved
akes pe
uck ed
Ġsand cast
Ġgarden ing
Ġbar ri
Ġmar g
Ġside walk
Ġrep res
Ġcrow ds
Ġcapt iv
Ġdispl ays
Ġdoes n
Ġsav ed
Ġinj ust
Ġbag s
Ġunf amil
Ġbackpack ing
Ġstair case
Ġconsult ant
akespe are
Ġunfamil iar
S omet
p ro
Ġa im
Ġm esmer
Ġc ore
Ġf ans
Ġb omb
Ġst alking
Ġbe am
ver ance
Ġsh out
Ġcont orted
Ġno se
Ġart work
Ġunder g
Ġsn apped
Ġact ress
Ġlay er
Ġpo int
Ġshap ed
Ġembr acing
Ġdon ate
Ġra ind
Ġflu ff
Ġconsum e
Ġur g
Ġdesper ation
Ġecosystem s
ĠSh akespeare
Ġce iling
cl ass
Ġrece ived
ĠCl imate
Ġjudge ment
Ġpassen gers
Ġsax ophone
B efore
j ust
Ġa jar
Ġp en
ar a
Ġh ar
Ġhe ctic
am ent
ul f
Ġv ine
Ġhad n
Ġle aned
Ġun spe
Ġrem ain
Ġrem ains
Ġfore head
Ġoff ering
Ġrust y
Ġcare free
Ġground ing
Ġste pping
Ġve il
Ġfun ction
Ġind ust
Ġhit ting
Ġunl o
Ġcro chet
Ġadd ress
uff ling
Ġcompre hension
Ġperse verance
Ġblockbust er
Ġburn ed
f ry
Ġf umbled
Ġb ars
Ġh uge
Ġl oo
Ġl apping
Ġr inging
ĠA n
ĠA r
ant ing
Ġv int
Ġch il
Ġk ne
Ġlife gu
Ġtri ath
Ġdis orders
Ġcomp elled
Ġche ese
Ġheart s
Ġsil ver
Ġpur ples
row th
Ġorgan ize
Ġach ie
Ġlif ting
Ġexist ence
Ġinvest ments
Ġtur key
Ġav id
Ġconf ident
Ġmonst rous
Ġpoet ry
Ġ5 0
Ġmal ice
Ġmagn ific
Ġweap on
Ġchamp ions
Ġcurt ains
Ġfluff y
Ġunspe akable
Ġtriath l
Ġt ag
Ġs aves
Ġf a
Ġp oured
Ġl ines
Ġfor ms
ore s
Ġtr un
os ed
Ġall ow
Ġover t
ren owned
Ġwhe at
Ġem bers
Ġfi ery
Ġcast le
ĠT ogether
Ġser ve
bo dy
Ġris ks
Ġhall ways
Ġteam s
Ġresear ching
Ġgall eries
Ġlif est
Ġcho ir
Ġadm ired
Ġcoun ter
Ġinj ured
Ġhaircut s
Ġmajest y
Ġquest ions
Ġrequ ires
Ġluxur y
Ġdiss ip
Ġconv in
Ġok ay
Ġconsequ ences
Ġraind rops
Ġchil ly
n a
u ing
Ġt rop
re tched
it i
Ġd ou
Ġd aring
Ġg ig
Ġn erves
le ase
ic ian
ce ed
ĠH aw
ess ion
il t
Ġsp ell
ol ve
Ġdo lls
Ġplan e
Ġcar ved
Ġno on
Ġad just
Ġres c
Ġref uge
Ġhand le
Ġcabin ets
Ġadv isor
Ġstay ing
Ġshould n
be at
Ġpat ient
Ġheav ily
ĠN ature
Ġfun ny
Ġland ed
Ġprom ised
Ġlab yr
Ġcut ting
Ġdirection s
Ġdet ective
Ġcru ise
Ġserv ices
Ġbrid ges
Ġcommun icate
Ġblind ing
Ġastron aut
ai i
Ġscur rying
Ġcham ber
Ġreas on
ĠHaw aii
Ġlabyr inth
E ventually
h ome
r ict
t es
Ġm ill
Ġf ountain
at ching
Ġd w
om er
Ġis land
Ġhe ll
if y
Ġsh r
Ġwor se
Ġch or
Ġup l
Ġgr own
Ġj u
Ġcom b
ĠW alking
ib ly
ĠM ay
Ġgre y
Ġsn ack
Ġmat ted
Ġlau nd
Ġrec yc
Ġtechn iques
Ġtop ics
Ġorgan izations
Ġsign aling
Ġtrans formed
Ġseas he
Ġbrid al
Ġfac ilities
Ġtransform s
Ġmad ness
Ġ2 000
Ġbott om
Ġtyp es
Ġathlet es
Ġgravest ones
Ġcommut ers
Ġunderg rowth
Ġvint age
d es
f iction
nd s
Ġw ines
Ġb out
er ce
ed s
Ġh ab
Ġh oney
an ing
Ġre un
Ġr ab
Ġr ough
Ġr iding
Ġwe athered
Ġch ips
Ġch oc
Ġli es
Ġco ding
ter nal
Ġj agged
Ġsc rap
Ġcan o
Ġpro per
Ġreal izing
Ġsu it
Ġshe ets
Ġhapp ily
Ġcook ies
Ġbene fits
Ġspeak s
Ġim ages
Ġkeep s
ph ones
Ġsaf ely
Ġval ue
Ġdisapp earing
Ġclo ck
Ġine v
Ġansw ers
âĢ Ļ
Ġfeed back
Ġsupp ly
Ġexhaust ion
Ġimm ers
Ġreleas es
Ġbomb arded
Ġlaund ry
Ġseashe lls
Ġhab its
E very
r ing
w hile
Ġs ang
Ġthe at
Ġm other
Ġd am
st retched
Ġst ands
Ġst eep
ak er
Ġsh ri
am anth
Ġas ide
ist ent
Ġpl umber
Ġco ast
Ġtr im
Ġout stretched
ast ly
Ġwh ir
Ġmo b
ol ved
Ġpro p
Ġqu aint
Ġsw all
Ġsw ept
Ġfi erce
Ġgl inting
In side
Ġrec ently
Ġsa un
Ġcond itions
Ġdoct ors
Ġbab bling
Ġconf ront
Ġtem pt
Ġclo ak
Ġincl usive
Ġbud ge
Ġmirr ors
Ġneg lect
Ġcraw l
Ġdoc uments
Ġhon king
Ġobject s
Ġencour age
Ġinhabit ants
Ġbelief s
Ġow l
Ġjack et
Ġrab b
amanth a
L et
g ment
s k
Ġw aved
Ġm ort
Ġf iction
an y
Ġst are
Ġst uck
Ġis ol
Ġr apid
ver n
if ts
Ġas pect
ĠS amantha
Ġsc ar
Ġcan v
ag ram
Ġwhe never
Ġcr it
Ġche er
Ġdr aped
Ġbreak s
Ġpart s
Ġho ot
Ġfin ishing
Ġgl ist
Ġsal t
ĠD uring
Ġcons ider
Ġeng ulf
Ġsurpr ises
Ġbro ad
Ġball ets
Ġsear ch
Ġsway ed
ĠOn ce
Ġdet ail
Ġadvoc ating
Ġbrid ge
Ġded ication
aun t
Ġtap est
Ġdepart ment
writ er
Ġachie ving
o ken
r im
Ġt aught
Ġw et
Ġo ven
Ġm ud
Ġf oss
Ġb aking
it ional
ou sel
is ure
Ġl aun
ad ed
Ġbe nd
ot ted
Ġwe b
ĠS und
Ġv ital
Ġle isure
Ġco ver
ook ing
Ġun re
Ġmo ld
Ġcan not
Ġapp et
Ġplay ers
Ġcar ousel
Ġsur ge
Ġdes ire
Ġsu g
Ġdr um
Ġold er
Ġdel ight
Ġdisc overy
Ġsl ide
Ġblo cked
Ġequ ality
Ġdevelop ing
Ġsol ves
Ġcontem pl
Ġcompet ition
Ġtang led
Ġfulfill ed
Ġblank ets
Ġmarvel ed
Ġincred ibly
Ġobstac le
Ġterrif ied
Ġspark ling
Ġtool s
Ġpsych ologist
Ġgar lic
Ġdistract ions
Ġcappucc ino
Ġmarg inal
Ġvine yard
Ġtrop ical
Ġgig g
b al
m other
p y
Ġt ips
he nt
Ġm ain
Ġm ask
Ġc ere
er man
at ives
Ġd ie
Ġd ug
is ible
Ġe t
ir ts
Ġv ivid
Ġpl at
ud ed
Ġpe aks
Ġdo ck
Ġbl iss
ell ig
Ġdist rict
Ġrec onnect
Ġperfect ly
Ġinsp iring
Ġpat ch
Ġgh astly
Ġsit es
Ġshore line
Ġaut hent
Ġpre c
Ġexist ed
Ġactiv ely
Ġsign ificant
Ġtrans f
Ġmass age
Ġmir age
Ġsub ject
Ġfeat uring
Ġwel coming
Ġexpress ion
Ġthank ful
Ġbol t
Ġclut ched
Ġstruct ures
Ġund ead
Ġpu zz
Ġaff ect
Somet imes
Ġupl ift
Ġreun ion
p ar
Ġs ank
Ġw est
Ġm ing
Ġf ancy
at ors
Ġto ward
Ġg aunt
Ġe th
ac on
Ġv owed
Ġle ge
Ġout fit
Ġso aking
iz ers
Ġab road
Ġus ual
Ġplan ned
ang s
Ġeas ily
Ġpast ry
Ġvo id
Ġgl inted
Ġinv isible
Ġcontent ed
Ġgro aned
Ġtechn olog
Ġsol ve
Ġorgan ization
Ġpol ice
Ġsett ling
Ġclou d
Ġrecogn izing
Ġdress ing
Ġrent als
Ġmod el
Ġpul sing
Ġroast ing
Ġcontrib ute
Ġbuzz ing
Ġjol t
Ġchor us
Ġmob ile
Ġsaun a
Ġcanv as
c o
Ġt ickets
Ġs ite
Ġf u
Ġp its
Ġh ide
al g
Ġre v
Ġr as
Ġsh ines
ers hip
ol ving
Ġtri pped
Ġem b
orm al
Ġdoor way
Ġhead stones
Ġjog ged
Ġz ones
Ġspecial ty
Ġimag ine
Ġphot os
Ġprov iding
Ġball oon
Ġelect ron
Ġspr aw
Ġreg ard
Ġav ail
Ġeduc ational
Ġport al
Ġadvoc ates
Ġthrill ing
Ġneg ative
Ġcollect ive
Ġflo ck
Ġbelong ing
Ġcampa ign
Ġ1 0
Ġexpect ing
Ġhardsh ips
Ġprivile ge
Ġleisure ly
Ġmarginal ized
m it
Ġs us
it age
Ġg ain
ac he
Ġfor ced
Ġme ets
if ying
ul ner
Ġv ulner
Ġch ills
Ġco ex
Ġco des
Ġgr ay
ort ing
Ġmo ves
Ġen h
ive red
Ġapp ly
Ġher itage
Ġfl ood
Ġam aze
Ġget s
Ġlight ing
Ġmu ff
Ġdr am
ĠF ear
ĠO r
Ġsl ick
mer se
Ġim merse
ĠB road
Ġtra pping
Ġjo bs
Ġunc overed
Ġclaw ing
Ġcir cus
Ġreve al
Ġcirc led
Ġec o
Ġemerg ency
Ġgrace fully
Ġhur ried
Ġjud gment
Ġtriumph s
Ġneare r
Ġscan ned
Ġadopt ion
Ġpoun ce
Ġbarri ers
Ġindust ry
Ġfoss ils
Ġcoex ist
ĠBroad way
n is
he nd
re w
Ġw ound
Ġw ished
Ġf erris
er haps
Ġp ow
ou ched
Ġd awn
Ġg al
st airs
Ġst ick
Ġme as
ir m
pp er
Ġli qu
Ġat op
Ġall owing
Ġen s
Ġdo ll
Ġus ually
Ġrun ners
Ġbu b
Ġcr ust
Ġstr angers
act ion
Ġlibr arian
Ġinc ant
Ġworth while
Ġmotiv ates
ec ause
Ġrhythm ic
Ġpul s
Ġfac ials
Ġtreas ures
Ġinf ect
Ġpress ing
Ġglo bal
Ġcompre hend
Ġten nis
Ġinstinct s
Ġpan or
Ġintens ity
Ġbon fire
Ġtapest ry
Ġappet izers
Ġplat form
Ġauthent ic
Ġelectron ics
W hether
c ent
w ise
Ġs ad
Ġs ides
Ġp anting
Ġd angers
al es
Ġth irst
Ġe ast
Ġst ale
le ar
Ġli e
Ġk ill
ig ious
Ġsk ies
Ġhow ls
Ġimp ressive
ari ly
Ġper haps
ian ces
Ġground ed
Ġcour sing
Ġrain y
Ġser ving
Ġact ors
Ġbusiness man
Ġmist akes
ĠEvery thing
Ġdrink ing
Ġob l
Ġgrand mother
Ġsculpt ure
Ġcut s
Ġcivil izations
Ġfight ing
Ġtem per
Ġspread ing
Ġbat hed
Ġnost alg
Ġquest ion
Ġdirect ly
Ġbas ic
Ġcam er
Ġpu pp
Ġmelod ies
Ġacknow ledge
Ġappl iances
Ġurg ent
Ġmagnific ent
Ġlifest yle
Ġchoc olate
rim ination
F rom
g ainst
x pl
Ġ iron
Ġs end
Ġw iring
Ġf right
Ġf angs
it ious
ac ist
Ġn erv
Ġbe ard
Ġr ivers
Ġas k
Ġsp ices
ous ly
Ġbr and
Ġbr ook
Ġown er
Ġother wise
Ġsw am
Ġflow ed
Ġground s
Ġloc als
Ġcur led
Ġsl ip
Ġsho ck
Ġunt ouched
Ġpri de
Ġmem or
Ġexp and
Ġtal es
Ġput s
Ġcomput ers
Ġsatisf action
Ġins istent
Ġrecip e
Ġext ra
Ġflo ating
Ġmur m
Ġimm ense
Ġstrate g
Ġmaint ain
.. .
Ġgle aming
Ġpersist ed
ĠMay be
Ġswall owed
Ġspraw ling
Ġpanor amic
c ceed
d r
l it
m p
w ol
Ġs ort
re t
Ġm er
Ġc ase
Ġf ant
Ġf usion
al ities
Ġth rew
ac les
ur iosity
Ġr at
Ġr aged
Ġsh ivered
ee ping
Ġch ase
Ġle ast
Ġapp le
Ġdark ened
Ġart s
ib er
Ġsu cceed
Ġdr ag
Ġdec ision
Ġslow ing
Ġcare fully
Ġvis ible
Ġflow s
Ġmat ch
Ġmat tered
Ġsho ot
ĠB ecause
Ġbusy ness
Ġmel ting
Ġput rid
Ġprom ising
Ġaccom pan
Ġeduc ate
Ġattract s
Ġvict ory
Ġdesper ately
Ġmach ine
Ġsuff ering
Ġmotorcyc le
Ġenvironmental ist
Ġcraw led
Ġtrou bles
Ġexhilar ating
Ġumbrell a
Ġskate board
Ġru ins
Ġmedic ine
g o
h op
h atever
n ate
p ass
Ġ vers
Ġt ub
Ġt ucked
Ġw ish
Ġf ool
Ġb ell
at ic
Ġl icked
Ġe ternal
Ġr id
se eing
id ence
Ġco sm
Ġout sk
ers on
Ġwh ipping
Ġso il
Ġsc ary
ck et
Ġwere wol
Ġro de
Ġno body
Ġforest s
Ġsw ung
Ġfi le
ĠC ar
Ġhealth ier
Ġwindow p
Ġmay be
Ġeff ic
Ġhun ted
ĠTh ough
Ġmel t
Ġfocus ing
Ġtast y
Ġcapt ure
Ġbi kes
Ġtest ament
Ġopp os
Ġmis sion
Ġfrag rance
Ġcent ered
Ġpassion ate
Ġthreat ening
Ġinf in
Ġdemon ic
Ġcross ed
Ġdeal ership
Ġcampa igns
Ġgest ure
Ġpharm acist
ĠAr ab
Ġinev itable
Ġtempt ation
Ġinfect ious
Ġfool ish
Ġoutsk irts
F i
a rents
b id
i ety
s ive
v ious
w ood
Ġ K
Ġt ire
Ġc ac
Ġto y
Ġd rops
Ġd otted
el ed
Ġwas hing
Ġfor ming
Ġme ats
Ġwe ars
Ġfe ather
Ġco vers
Ġcl amm
ook ed
ap ers
Ġover p
ĠW i
Ġint ention
ag ue
Ġsm elled
Ġno d
Ġnight s
Ġdr agging
ĠT om
Ġgrow ls
Ġunder water
Ġhead lines
Ġloc ally
Ġcor por
Ġhum ming
Ġgu ided
Ġser ved
Ġsight seeing
Ġune arth
light s
Ġda pp
Ġbur ied
Ġfil tered
Ġsystem ic
Ġreg ularly
Ġstyl ish
Ġann ual
Ġseas ons
cip her
Ġneg at
Ġholid ay
Ġhob b
Ġthous and
Ġreleas ed
iel d
Ġdistur bed
Ġincre asing
Ġanx iety
Ġcollab or
ara h
Ġtrun k
Ġdou b
Ġet here
Ġemb ark
Ġsus p
Ġliqu id
Ġclamm y
p se
r avel
Ġs omed
Ġw aking
Ġw arp
Ġc ake
Ġf irm
Ġb ill
it ive
Ġh aven
Ġd om
Ġd ol
Ġd iet
is ions
Ġg ifts
Ġst alk
Ġre n
Ġr ub
id ation
um ed
um st
Ġint ro
Ġint rig
Ġsk ating
Ġse par
Ġsm art
Ġfl ame
ange red
Ġsky d
Ġche ering
Ġpr ick
ink ing
Ġhor ns
Ġbo ot
Ġend angered
Ġappreci ating
Ġbeh av
Ġcare er
Ġgu ard
Ġexhib ition
Ġrec over
Ġjo ined
Ġprogram mer
Ġwell being
Ġhard er
Ġgrass y
Ġblood curdling
Ġchill ed
Ġgrand p
Ġclaw ed
ĠY esterday
Ġcirc umst
Ġsched ul
ĠG erman
Ġeduc ates
Ġine xpl
Ġmix ed
Ġnutr itious
Ġtrad itional
Ġoper a
Ġsle pt
Ġpartic ularly
Ġpred ator
Ġsacrif ice
Ġfa ith
ĠSund ay
ĠArab ic
Ġcac oph
Ġhobb ies
Ġethere al
Ġsomed ay
Ġdol ph
Ġinexpl ic
b an
l et
m o
o king
r ate
Ġ ident
in ee
in ts
Ġs en
Ġf et
Ġb ic
Ġp m
Ġp and
Ġd ied
Ġth ud
el f
Ġre us
ĠS arah
Ġpl ot
Ġj aws
Ġun ner
Ġworld s
Ġsc or
Ġgo vern
Ġwork day
Ġdo om
sel ling
ag ers
Ġte aring
ep end
ib ility
fore st
Ġown ers
ip e
Ġbus es
ower ing
Ġexpl ain
Ġbeh old
Ġhair d
Ġcor pse
Ġmat inee
ber ries
Ġconc ern
Ġrec l
Ġcons ist
Ġpresent ed
Ġmem bers
enc ies
Ġprep ares
Ġarri val
Ġpicn ics
Ġroll ed
Ġfog gy
Ġfle x
Ġinnov ation
Ġproble m
Ġobs erve
Ġmarvel ing
Ġsub mit
Ġtem ple
Ġemerg encies
Ġgrace ful
Ġtrad itions
Ġtax es
Ġmasterpie ce
Ġfunction al
Ġengulf ed
Ġavail able
Ġoppos ite
Ġfeather s
Ġgrandp arents
Ġcacoph ony
Ġbic yc
Ġreus able
" .
W hat
d om
g n
o ck
p erson
Ġw afting
Ġo ak
Ġm ouse
Ġp ile
Ġl ots
Ġg aping
Ġfor mer
Ġsh uffling
ĠS pan
ant age
ant ern
ĠH allow
Ġgr ind
Ġun ity
Ġlo af
Ġde cipher
Ġhelp ful
Ġcont act
ib be
Ġread ers
Ġrest less
Ġdist inct
br is
Ġdec ide
Ġdec orating
Ġgot ten
Ġinst ant
Ġinst all
Ġste aming
Ġdisc rimination
Ġpeaceful ly
Ġexplore s
Ġtravel ed
Ġser ies
Ġdri ves
Ġforget ting
Ġsec l
Ġcalm ness
Ġproduct ivity
Ġrenew able
Ġret ire
Ġgen et
Ġpick ing
Ġclim bing
Ġpre st
Ġpre vent
Ġprofess or
Ġhim self
Ġur ban
Ġfight s
Ġpal p
Ġpolit ical
Ġbelong ed
Ġwilling ness
Ġkno cked
Ġhabit ats
Ġtend rils
Ġban an
Ġtransl ator
Ġtriathl on
Ġcano eing
Ġrapid ly
Ġcamer a
ĠCar ibbe
Ġunearth ly
ĠSpan ish
ĠHallow een
ĠCaribbe an
P anic
U ltimately
c lear
l aze
p idation
u ate
u zz
Ġs izes
Ġm ood
Ġb er
Ġb ore
Ġto ng
Ġp ill
ar ison
Ġd ared
Ġl antern
ad ows
Ġre ver
Ġre vel
ur ity
un ch
ak ers
Ġtr ump
um ping
Ġal ike
Ġpe ering
Ġint ently
Ġab laze
Ġde bris
Ġtre pidation
Ġbu ilt
Ġcr im
Ġhome work
Ġcomp arison
Ġsw ing
Ġtrain ers
Ġgreat est
Ġve g
Ġsn ork
ĠO ut
Ġsec urity
Ġpo inted
Ġz omb
Ġstri ving
Ġdest ruction
Ġhigh way
Ġra ising
Ġball room
Ġtast ed
Ġdiscover ing
Ġcolleag ue
ĠSo on
Ġopt im
Ġtent acles
Ġthank ed
Ġclut ching
Ġtwink ling
Ġcyc ling
Ġbrainst orm
Ġpossess ions
Ġphil os
Ġaim lessly
Ġadjust ed
Ġscrap ing
Ġtechnolog ies
Ġregard less
Ġvulner able
Ġnostalg ia
Ġmurm ur
ĠTom orrow
Ġnegat ivity
Ġbehav ior
Ġsecl uded
Ġprest igious
Ġpalp able
f ace
i ac
m ist
Ġh ors
Ġd rop
Ġl osing
Ġn our
Ġre ds
Ġre ef
Ġsh irt
ch anging
Ġv irt
Ġup stairs
Ġk eeping
ight s
Ġall owed
Ġover night
ĠW as
Ġint ellig
ress er
Ġheart beat
Ġdr ift
Ġexper t
Ġgre ens
Ġclass ics
Ġdin ing
Ġgood ness
Ġcor al
Ġteac hing
Ġclear ance
Ġsit u
Ġtom e
Ġtow er
Ġind ul
Ġpar an
Ġprom ote
Ġcand l
Ġke ys
Ġhesit ation
Ġexerc ises
Ġsent in
Ġviol ently
Ġlim its
ĠOn ly
Ġgras ping
Ġansw ered
Ġtomb stone
Ġtor ment
Ġty ping
Ġconscious ness
Ġpriv ate
Ġcroiss ants
Ġamong st
Ġdev ices
Ġmater ials
Ġcott on
iel ding
Ġhabit at
Ġchap ter
Ġrecomm end
Ġkne es
Ġtheat ers
Ġwindowp ane
Ġhaird resser
Ġgenet ics
Ġtrump et
a id
Ġs ne
ing e
Ġc act
es c
Ġd ipped
Ġl id
Ġst umble
ot ion
ve y
ri ly
Ġas p
Ġcl ung
Ġtr ace
Ġun s
Ġun ison
Ġover se
ĠW hile
Ġlo vers
Ġevery where
Ġev olving
Ġag ency
Ġman iac
Ġres erve
Ġdel iber
anc ing
Ġvis ions
Ġsl ipped
Ġscream ing
Ġdre ary
Ġclear ly
Ġris k
Ġhun ched
Ġstress ful
Ġsour ces
Ġrich ness
Ġrep air
Ġdiscover ies
Ġharm on
Ġlaw n
Ġling ering
Ġfre el
Ġrejuven ating
Ġfrag rant
Ġbound aries
Ġobsc uring
ĠSt r
Ġrelent less
Ġreview s
Ġcyc l
Ġjum ping
Ġspin ach
Ġshark s
Ġabs olutely
rup t
Ġod d
Ġlull ab
Ġmesmer izing
Ġrecyc ling
Ġpuls ating
Ġtemper ature
Ġwerewol f
Ġber ries
Ġphilos op
c her
d ant
t les
Ġa ur
Ġt ents
Ġo be
Ġm ap
Ġm ail
Ġf ab
Ġf alls
Ġb oy
at ter
Ġth ree
ac uzz
ent ing
ur ning
Ġr ing
ve re
Ġwe ak
Ġne on
am ond
Ġfe ature
Ġfr ust
Ġwh ist
Ġfeel ings
Ġso ck
ĠW hatever
low ly
Ġde fe
ild ren
Ġor nate
Ġher d
Ġplay ful
oy er
Ġimp ressed
Ġbr ows
Ġres ult
Ġend s
Ġsn ugg
Ġgl int
Ġafter wards
ĠL ooking
Ġquick en
Ġact ive
Ġim age
ugg ing
Ġtour ist
Ġhun ting
ĠTh rough
Ġski ers
Ġdiscus sing
Ġrespon se
Ġaw ak
Ġsong writer
Ġtall er
ĠY es
Ġdesig ning
Ġbi ology
Ġbi ases
Ġpurs ued
Ġext end
Ġbat tle
Ġthrill er
Ġmis sing
ĠSt anding
Ġaccount ant
Ġtax i
Ġdig ging
Ġver dant
Ġretreat ed
Ġdinosaur s
Ġdi amond
Ġcharac ter
Ġcack ling
Ġtrek ked
Ġovert ook
Ġrabb it
Ġdapp led
Ġcircumst ances
Ġhors es
Ġfreel ance
Ġlullab y
Ġobe y
acuzz i
E ven
r un
v ation
Ġt ick
Ġt aun
Ġs ig
Ġc er
Ġc ul
Ġc rops
er ved
ed ed
Ġd uck
Ġin no
al th
Ġth resh
Ġg own
ent y
Ġn ic
ver t
ver ty
im y
Ġne ared
ĠS e
ĠA round
ĠA gainst
and ed
us ions
Ġsp are
Ġso d
Ġy ard
Ġlo ving
Ġsm iling
Ġte en
Ġplan ets
Ġdis e
Ġres cue
Ġdec ades
Ġdec isions
Ġhi kes
Ġhop eless
Ġpass age
Ġdisc ount
Ġpract iced
Ġrec ent
Ġhope ful
Ġpat ter
Ġpo verty
Ġsuns ets
Ġlast ing
Ġrenew al
Ġenvironment ally
olut ion
Ġland ing
Ġprofess ion
Ġaw ake
Ġfil tering
Ġwar ned
und red
Ġav oid
Ġworkout s
Ġtem pting
Ġescap ing
Ġext ended
Ġnur t
Ġge ologist
Ġunf old
Ġoverlook ing
Ġsales person
Ġpray ed
Ġparticip ating
Ġped est
Ġinjust ice
Ġdam age
Ġmort al
Ġcheer ful
Ġglist ening
Ġming ling
Ġobl ig
Ġinfin ite
Ġsepar ate
Ġdolph ins
Ġsitu ations
Ġthresh old
H e
d rop
l enting
p m
r ack
Ġ id
Ġs ands
Ġm iss
Ġc oo
Ġc ried
Ġf oyer
Ġb attered
ed ge
it tle
Ġh ip
Ġh undred
Ġe b
Ġn ap
Ġre lease
ly mp
Ġon ward
Ġare na
res pass
ack ed
Ġha ze
Ġhow ever
Ġfl aky
pl oy
Ġam pl
Ġbr ave
Ġdee pen
Ġmus h
Ġpr im
Ġpr ice
pt ion
Ġcoff in
Ġwr ist
Ġwr apping
Ġatt em
Ġcamp fire
Ġhealth care
ĠO lymp
Ġsl imy
Ġecho es
Ġhuman oid
Ġdevelop ment
Ġlat tes
Ġsit uation
ĠTo ky
Ġval ued
Ġpet als
Ġdon ates
Ġcompl eted
Ġtalk ing
Ġvac u
Ġrout e
Ġbi king
Ġlim it
Ġphys ically
Ġcaf es
Ġinterest s
Ġskyscrap er
Ġcraw ling
Ġastron omer
Ġsay ing
Ġaff ord
ĠGr and
Ġcharac ters
Ġaccept ed
Ġsandcast les
Ġlifegu ards
Ġdissip ated
Ġdw ind
Ġunre lenting
Ġinexplic able
Ġflex ibility
Ġtong ue
Ġintellig ence
Ġsentin els
ĠToky o
I P
k ers
m ers
p aper
r ons
v ings
z ing
Ġt ide
Ġs im
Ġf ive
Ġf ence
it or
it ch
st ract
Ġfor bid
Ġr ugged
Ġpl aced
Ġle mon
Ġco vering
um es
Ġso aked
Ġpe ak
ies t
Ġab und
Ġab stract
ren ess
Ġde b
Ġwant s
Ġcar vings
Ġreal ization
Ġread er
Ġcle ared
Ġspe ck
ĠC o
ĠC uriosity
Ġfull est
Ġconc ent
Ġbene fit
Ġgro an
Ġwrit he
Ġchar ged
Ġtree house
Ġgrab bing
fl ies
Ġsol id
Ġroad s
ĠP ar
Ġrock ing
Ġkit ten
Ġill usions
Ġtur mo
Ġreve aled
Ġur ging
Ġform al
Ġcomplex ities
Ġmin ute
Ġneighborhood s
Ġscre ens
Ġattract ion
Ġsurv ived
Ġemot ion
Ġelectric ity
Ġwel com
Ġvalley s
Ġrelations hip
Ġfeed ing
Ġmerc y
Ġhol es
Ġinj uries
Ġmur ky
Ġpictures que
Ġaccount able
Ġrequ ire
ĠV IP
Ġnarrow ly
Ġscree ch
Ġflut tering
Ġappear ance
Ġecon omy
Ġmill ions
Ġbout ique
Ġwhir led
Ġras py
Ġeffic ient
epend ent
Ġcandl el
Ġaur a
Ġsod a
Ġmush room
Ġturmo il
M V
S L
f all
j ud
m bling
t able
Ġt ar
Ġt el
Ġt respass
Ġs ake
Ġw is
Ġc ave
Ġc ash
Ġc asc
Ġto t
or ds
Ġp un
Ġl ap
Ġl oss
Ġl apped
Ġin iti
Ġg am
Ġe p
ay ed
Ġr ate
Ġr ink
Ġu ltimately
am ics
Ġwor ry
Ġgr avel
Ġcon ven
Ġso ared
Ġmo ans
Ġen orm
Ġy ards
Ġback drop
Ġapp re
Ġse ize
Ġtre ad
Ġte ar
Ġte ach
Ġcr ime
Ġwind s
Ġper ched
Ġmu nd
Ġcontin ues
Ġunder ground
ĠC any
Ġhand ed
Ġheal ing
Ġperform er
Ġjoy ful
Ġsel ves
ĠD MV
Ġact or
Ġsurf ers
Ġequ al
Ġswim mers
Ġpat rons
Ġorgan izes
Ġthri ving
Ġdent al
Ġconsum ption
Ġappoint ments
Ġless on
ĠCh ildren
Ġext r
Ġripp les
Ġfrag ility
look ing
Ġpursu it
Ġfund s
Ġawa reness
Ġplun ging
Ġcyc le
Ġhig hest
Ġer a
Ġdecor ations
Ġhy p
Ġdocument aries
Ġadvance ments
Ġrad io
Ġconvin ce
Ġju ice
Ġaspect s
Ġdrum s
Ġincreasing ly
ĠPar is
ĠCany on
O n
g ard
w arming
Ġ Ġ
Ġs ession
Ġm ath
Ġb orrow
it tering
Ġh ue
Ġl aid
Ġe ither
ut ter
Ġst ages
Ġst umbling
Ġre eling
Ġbe es
Ġbe ers
ic a
