{"!":0,"\"":1,"#":2,"$":3,"%":4,"&":5,"'":6,"(":7,")":8,"*":9,"+":10,",":11,"-":12,".":13,"/":14,"0":15,"1":16,"2":17,"3":18,"4":19,"5":20,"6":21,"7":22,"8":23,"9":24,":":25,";":26,"<":27,"=":28,">":29,"?":30,"@":31,"A":32,"B":33,"C":34,"D":35,"E":36,"F":37,"G":38,"H":39,"I":40,"J":41,"K":42,"L":43,"M":44,"N":45,"O":46,"P":47,"Q":48,"R":49,"S":50,"T":51,"U":52,"V":53,"W":54,"X":55,"Y":56,"Z":57,"[":58,"\\":59,"]":60,"^":61,"_":62,"`":63,"a":64,"b":65,"c":66,"d":67,"e":68,"f":69,"g":70,"h":71,"i":72,"j":73,"k":74,"l":75,"m":76,"n":77,"o":78,"p":79,"q":80,"r":81,"s":82,"t":83,"u":84,"v":85,"w":86,"x":87,"y":88,"z":89,"{":90,"|":91,"}":92,"~":93,"¡":94,"¢":95,"£":96,"¤":97,"¥":98,"¦":99,"§":100,"¨":101,"©":102,"ª":103,"«":104,"¬":105,"®":106,"¯":107,"°":108,"±":109,"²":110,"³":111,"´":112,"µ":113,"¶":114,"·":115,"¸":116,"¹":117,"º":118,"»":119,"¼":120,"½":121,"¾":122,"¿":123,"À":124,"Á":125,"Â":126,"Ã":127,"Ä":128,"Å":129,"Æ":130,"Ç":131,"È":132,"É":133,"Ê":134,"Ë":135,"Ì":136,"Í":137,"Î":138,"Ï":139,"Ð":140,"Ñ":141,"Ò":142,"Ó":143,"Ô":144,"Õ":145,"Ö":146,"×":147,"Ø":148,"Ù":149,"Ú":150,"Û":151,"Ü":152,"Ý":153,"Þ":154,"ß":155,"à":156,"á":157,"â":158,"ã":159,"ä":160,"å":161,"æ":162,"ç":163,"è":164,"é":165,"ê":166,"ë":167,"ì":168,"í":169,"î":170,"ï":171,"ð":172,"ñ":173,"ò":174,"ó":175,"ô":176,"õ":177,"ö":178,"÷":179,"ø":180,"ù":181,"ú":182,"û":183,"ü":184,"ý":185,"þ":186,"ÿ":187,"Ā":188,"ā":189,"Ă":190,"ă":191,"Ą":192,"ą":193,"Ć":194,"ć":195,"Ĉ":196,"ĉ":197,"Ċ":198,"ċ":199,"Č":200,"č":201,"Ď":202,"ď":203,"Đ":204,"đ":205,"Ē":206,"ē":207,"Ĕ":208,"ĕ":209,"Ė":210,"ė":211,"Ę":212,"ę":213,"Ě":214,"ě":215,"Ĝ":216,"ĝ":217,"Ğ":218,"ğ":219,"Ġ":220,"ġ":221,"Ģ":222,"ģ":223,"Ĥ":224,"ĥ":225,"Ħ":226,"ħ":227,"Ĩ":228,"ĩ":229,"Ī":230,"ī":231,"Ĭ":232,"ĭ":233,"Į":234,"į":235,"İ":236,"ı":237,"Ĳ":238,"ĳ":239,"Ĵ":240,"ĵ":241,"Ķ":242,"ķ":243,"ĸ":244,"Ĺ":245,"ĺ":246,"Ļ":247,"ļ":248,"Ľ":249,"ľ":250,"Ŀ":251,"ŀ":252,"Ł":253,"ł":254,"Ń":255,"Ġa":256,"Ġt":257,"he":258,"in":259,"nd":260,"Ġs":261,"re":262,"Ġw":263,"Ġthe":264,"Ġo":265,"Ġand":266,"Ġm":267,"ing":268,"Ġc":269,"Ġf":270,"ĠI":271,"Ġb":272,"er":273,"at":274,"ed":275,"Ġto":276,"or":277,"en":278,"it":279,"as":280,"es":281,"Ġp":282,"ar":283,"ou":284,"Ġh":285,"Ġd":286,"is":287,"Ġl":288,"Ġof":289,"an":290,"on":291,"čĊ":292,"Ġin":293,"The":294,"al":295,"ĠThe":296,"om":297,"Ġth":298,"Ġg":299,"Ġe":300,"Ġmy":301,"et":302,"el":303,"ac":304,"ut":305,"ent":306,"ow":307,"st":308,"Ġn":309,"Ġst":310,"Ġwas":311,"Ġfor":312,"ad":313,"Ġre":314,"ld":315,"Ġbe":316,"le":317,"ic":318,"ur":319,"un":320,"ay":321,"gh":322,"Ġis":323,"Ġme":324,"ir":325,"Ġr":326,"Ġthat":327,"Ġhe":328,"ly":329,"Ġon":330,"ot":331,"ith":332,"ak":333,"Ġwith":334,"ver":335,"ll":336,"Ġit":337,"rou":338,"ve":339,"Ġu":340,"ion":341,"se":342,"oo":343,"im":344,"Ġhas":345,"if":346,"Ġwe":347,"Ġne":348,"Ġsh":349,"ri":350,"ure":351,"ght":352,"Ġan":353,"am":354,"ct":355,"'s":356,"Ġas":357,"Ġwor":358,"ch":359,"id":360,"ro":361,"ore":362,"pp":363,"ĠS":364,"ind":365,"ce":366,"ist":367,"ee":368,"ain":369,"ul":370,"ust":371,"Ġare":372,"ĠA":373,"Ġcou":374,"ant":375,"Ġfe":376,"Ġv":377,"Ġch":378,"ard":379,"Ġli":380,"all":381,"Ġpl":382,"ĠH":383,"and":384,"her":385,"reat":386,"ess":387,"Ġbut":388,"Ġup":389,"Ġat":390,"ome":391,"round":392,"Ġhad":393,"Ġle":394,"ĠHe":395,"Ġco":396,"ke":397,"ake":398,"ark":399,"il":400,"Ġcl":401,"ĠIt":402,"op":403,"Ġtr":404,"us":405,"Ġex":406,"ace":407,"ity":408,"ĠThey":409,"ĠShe":410,"ter":411,"res":412,"hing":413,"um":414,"hed":415,"Ġout":416,"Ġfr":417,"ate":418,"art":419,"Ġcould":420,"Ġgr":421,"ge":422,"Ġtheir":423,"Ġj":424,"Ġcon":425,"Ġk":426,"ast":427,"ack":428,"ers":429,"av":430,"ound":431,"Ġwh":432,"os":433,"ning":434,"Ġsp":435,"ill":436,"Ġal":437,"qu":438,"ab":439,"ud":440,"ig":441,"Ġfeel":442,"ook":443,"Ġcom":444,"red":445,"Ġun":446,"ight":447,"ation":448,"Ġour":449,"Ġfrom":450,"ne":451,"ort":452,"rough":453,"ood":454,"Ġthrough":455,"ap":456,"ĠčĊ":457,"Ġso":458,"Ġall":459,"ach":460,"iz":461,"Ġha":462,"Ġover":463,"Ġpe":464,"ĠAs":465,"ĠW":466,"own":467,"Ġworld":468,"Ġint":469,"Ġfel":470,"Ġsc":471,"Ġaround":472,"aut":473,"Ġmo":474,"ide":475,"Ġen":476,"Ġsun":477,"Ġmom":478,"ents":479,"Ġcan":480,"ies":481,"Ġgo":482,"Ġday":483,"Ġbeaut":484,"Ġy":485,"Ġwat":486,"Ġnew":487,"Ġab":488,"imp":489,"ie":490,"Ġsee":491,"Ġfelt":492,"low":493,"Ġcreat":494,"ren":495,"ife":496,"alk":497,"Ġwork":498,"ol":499,"Ġback":500,"aw":501,"ect":502,"ck":503,"Ġlo":504,"ade":505,"'t":506,"very":507,"Ġde":508,"Ġsome":509,"As":510,"Ġar":511,"Ġdo":512,"sel":513,"Ġinto":514,"out":515,"Ġsk":516,"ful":517,"led":518,"ci":519,"Ġwere":520,"ness":521,"ings":522,"end":523,"Ġro":524,"ild":525,"Ġpro":526,"ense":527,"ass":528,"Ġthis":529,"Ġair":530,"Ġby":531,"Ġhow":532,"Ġor":533,"Ġdown":534,"Ġneed":535,"est":536,"Ġits":537,"Ġus":538,"lp":539,"Ġnot":540,"Ġhelp":541,"Ġlear":542,"ag":543,"one":544,"ive":545,"Ġlife":546,"urn":547,"Ġapp":548,"Ġwalk":549,"Ġpark":550,"Ġse":551,"Ġher":552,"Ġsound":553,"ling":554,"are":555,"th":556,"Ġlike":557,"ick":558,"Ġsm":559,"ance":560,"ward":561,"Ġway":562,"per":563,"Ġmake":564,"ous":565,"Ġevery":566,"ong":567,"iv":568,"Ġplay":569,"ment":570,"Ġrem":571,"Ġfl":572,"omet":573,"Ġtri":574,"Ġwent":575,"ting":576,"og":577,"Ġtre":578,"Ġmade":579,"way":580,"Ġrun":581,"ĠWe":582,"Ġmoment":583,"Ġthere":584,"Ġlearn":585,"ff":586,"ine":587,"Ġbre":588,"Ġbu":589,"new":590,"oy":591,"Ġte":592,"Ġwhe":593,"Ġtim":594,"Ġdark":595,"Ġsomet":596,"other":597,"aking":598,"Ġbl":599,"Ġcont":600,"Ġwo":601,"Ġfore":602,"Ġtake":603,"au":604,"self":605,"Ġsense":606,"Ġey":607,"pl":608,"ves":609,"But":610,"den":611,"Ġcr":612,"ther":613,"Ġanother":614,"Ġplan":615,"Ġwant":616,"our":617,"ep":618,"Ġcar":619,"ite":620,"side":621,"ows":622,"Ġsomething":623,"Ġno":624,"Ġsaw":625,"Ġabout":626,"nt":627,"Ġsur":628,"wn":629,"Ġstr":630,"als":631,"ople":632,"ath":633,"ched":634,"Ġimp":635,"fter":636,"Ġeyes":637,"Ġreal":638,"Ġart":639,"Ġjust":640,"ert":641,"Ġtime":642,"Ġknew":643,"ating":644,"ib":645,"act":646,"Ġam":647,"Ġmyself":648,"ange":649,"udden":650,"Ġpeople":651,"Ġbeauty":652,"ice":653,"Ġev":654,"Ġem":655,"Ġcouldn":656,"Ġhave":657,"Ġfeeling":658,"Ġfo":659,"get":660,"Ġtoo":661,"Ġbreat":662,"wards":663,"Ġdes":664,"hes":665,"Ġbeach":666,"ner":667,"pped":668,"Ġag":669,"Ġad":670,"Ġbr":671,"Ġbook":672,"amp":673,"aves":674,"arm":675,"uddenly":676,"Ġif":677,"ence":678,"Ġyou":679,"ures":680,"ang":681,"Ġwind":682,"ress":683,"Ġdis":684,"Ġfig":685,"fe":686,"Ġac":687,"Ġpeace":688,"Ġturn":689,"Ġcity":690,"Ġqu":691,"ft":692,"nder":693,"les":694,"med":695,"ould":696,"ized":697,"Ġsky":698,"ds":699,"able":700,"ered":701,"Ġread":702,"Ġforest":703,"ors":704,"Ġnat":705,"riend":706,"Ġset":707,"Ġget":708,"Ġremind":709,"Ġstart":710,"Ġhome":711,"iful":712,"ĠBut":713,"Ġdee":714,"Ġtrees":715,"Ġbeautiful":716,"Ġear":717,"ari":718,"Ġmor":719,"Ġman":720,"Ġlook":721,"fore":722,"Ġmov":723,"Ġone":724,"Ġlight":725,"ction":726,"Ġmus":727,"Ġown":728,"Ġmorning":729,"ame":730,"Ġfriend":731,"up":732,"Ġper":733,"Ġclos":734,"Ġother":735,"Ġcomp":736,"ching":737,"Ġfigure":738,"iver":739,"Ġheard":740,"Ġsmall":741,"Ġbeg":742,"umb":743,"Ġfill":744,"Ġtowards":745,"Ġmusic":746,"Ġdif":747,"ery":748,"Ġche":749,"Ġface":750,"em":751,"resh":752,"Ġrest":753,"Ġsu":754,"Ġbefore":755,"Ġroom":756,"Ġoff":757,"Ġthen":758,"Ġfresh":759,"joy":760,"Ġcol":761,"Ġnight":762,"Ġenjoy":763,"Ġgoing":764,"Ġres":765,"Ġshad":766,"age":767,"Ġshe":768,"Ġpr":769,"ise":770,"pt":771,"Ġwoke":772,"Ġbreath":773,"Ġheart":774,"Ġmu":775,"Ġhere":776,"ĠM":777,"Ġcoff":778,"Ġglow":779,"orm":780,"Ġfind":781,"Ġmore":782,"ell":783,"Ġsw":784,"ail":785,"Ġcoffee":786,"Ġhis":787,"ying":788,"ink":789,"Ġwhat":790,"Ġ-":791,"feren":792,"Ġbeen":793,"Ġturned":794,"Ġdist":795,"Ġagain":796,"Ġperf":797,"Ġstre":798,"ious":799,"Ġsimp":800,"Ġwalked":801,"Ġthey":802,"Ġeach":803,"Ġcle":804,"ip":805,"ue":806,"Ġbuild":807,"ces":808,"Ġdifferen":809,"Ġearly":810,"vel":811,"Ġmust":812,"Ġhor":813,"ze":814,"ached":815,"Ġrust":816,"Ġrealized":817,"ĠIn":818,"aught":819,"Ġbir":820,"Ġseemed":821,"ĠAfter":822,"que":823,"Ġbo":824,"ally":825,"ands":826,"br":827,"Ġwarm":828,"Ġfi":829,"ily":830,"ary":831,"ted":832,"Ġthem":833,"ull":834,"Ġmoments":835,"Ġdr":836,"ount":837,"pen":838,"Ġsat":839,"Ġfound":840,"Ġexper":841,"Ġdat":842,"Ġrel":843,"Ġstud":844,"Ġtook":845,"Ġtrip":846,"ater":847,"Ġwater":848,"Ġwould":849,"Ġold":850,"aring":851,"Ġopen":852,"ool":853,"Ġgre":854,"Ġeven":855,"Ġwhere":856,"Ġspe":857,"Ġdarkness":858,"Ġtw":859,"Ġwr":860,"Ġbus":861,"Ġonly":862,"umbled":863,"ower":864,"Ġthings":865,"Ġfam":866,"Ġwatched":867,"ave":868,"Ġfilled":869,"reci":870,"aset":871,"Ġdataset":872,"Ġnature":873,"uct":874,"ose":875,"Ġent":876,"ream":877,"Ġdec":878,"ged":879,"Ġcast":880,"Ġimport":881,"Ġclass":882,"ult":883,"Ġlong":884,"ated":885,"ss":886,"Ġchild":887,"Ġtried":888,"cap":889,"ian":890,"aur":891,"ĠT":892,"akes":893,"bs":894,"no":895,"ateful":896,"isp":897,"Ġleaves":898,"Ġgrateful":899,"Ġhi":900,"king":901,"ign":902,"Ġshadows":903,"ique":904,"Ġhelps":905,"ile":906,"ions":907,"day":908,"Ġoutside":909,"Ġwho":910,"Ġdeep":911,"Ġstumbled":912,"alls":913,"ry":914,"Ġgot":915,"Ġend":916,"Ġbreak":917,"Ġpart":918,"aint":919,"Ġrestaur":920,"Ġrestaurant":921,"Ġho":922,"Ġplanning":923,"ross":924,"Ġpres":925,"Ġdel":926,"Ġdoor":927,"Ġcontin":928,"Ġplace":929,"Ġappreci":930,"ets":931,"Ġtaking":932,"Ġbegan":933,"ety":934,"Ġanim":935,"Ġcreates":936,"ountain":937,"Ġdin":938,"ering":939,"ving":940,"ĠF":941,"Ġref":942,"Ġcreature":943,"ish":944,"hen":945,"Ġthou":946,"Ġinst":947,"ym":948,"ways":949,"cial":950,"Ġfin":951,"Ġbirds":952,"Ġstep":953,"ĠE":954,"Ġsurround":955,"pping":956,"Ġmountain":957,"Ġstill":958,"Ġbeing":959,"Ġunique":960,"ĠMy":961,"Ġaway":962,"Ġkn":963,"az":964,"Ġcasting":965,"ouse":966,"Ġgrow":967,"ping":968,"ond":969,"Ġexpl":970,"Ġacross":971,"ations":972,"ients":973,"Ġwood":974,"Ġunder":975,"Ġnever":976,"ities":977,"ory":978,"Ġbeh":979,"Ġmovie":980,"Ġcloser":981,"Ġdinner":982,"Ġimportant":983,"Ġappreciate":984,"Ġexperi":985,"Ġthese":986,"so":987,"ĠC":988,"ars":989,"ared":990,"Ġsoft":991,"Ġhear":992,"Ġalways":993,"enter":994,"eter":995,"its":996,"Ġalso":997,"Ġcat":998,"Ġmeet":999,"Ġpers":1000,"Ġhand":1001,"ely":1002,"Ġshop":1003,"Ġcab":1004,"Suddenly":1005,"air":1006,"Ġbehind":1007,"Ġbed":1008,"Ġcabin":1009,"Ġcomm":1010,"uck":1011,"anc":1012,"erg":1013,"Ġlun":1014,"It":1015,"Ġdistance":1016,"Ġgood":1017,"sp":1018,"Ġsimple":1019,"Ġslow":1020,"Ġatt":1021,"allen":1022,"Ġdifferent":1023,"Ġagainst":1024,"der":1025,"Ġwhen":1026,"Ġhair":1027,"Ġcare":1028,"'m":1029,"Ġalone":1030,"Ġdelic":1031,"thing":1032,"ene":1033,"Ġbri":1034,"Ġvis":1035,"Ġfoot":1036,"Ġchildren":1037,"Ġhead":1038,"ries":1039,"Ġcaught":1040,"Ġinter":1041,"Ġtrain":1042,"avor":1043,"Ġmind":1044,"Ġstore":1045,"Ġflow":1046,"xt":1047,"Ġappro":1048,"ued":1049,"Ġhop":1050,"Ġground":1051,"Ġfriends":1052,"Ġeas":1053,"iew":1054,"ural":1055,"Ġanimals":1056,"Ġheal":1057,"Ġprod":1058,"Ġste":1059,"Ġcold":1060,"Ġpass":1061,"Ġgreat":1062,"here":1063,"Ġperform":1064,"Ġjoy":1065,"cape":1066,"Ġlooked":1067,"ample":1068,"Ġcome":1069,"ax":1070,"eze":1071,"Ġwatching":1072,"Ġtran":1073,"Ġve":1074,"iting":1075,"pport":1076,"ivers":1077,"Ġartist":1078,"Ġpast":1079,"cc":1080,"Ġexample":1081,"Ġbreeze":1082,"Ġloc":1083,"Ġsn":1084,"ved":1085,"Ġran":1086,"Ġcour":1087,"Ġfeet":1088,"iet":1089,"Ġfood":1090,"Ġpos":1091,"Ġph":1092,"Ġcur":1093,"gs":1094,"llow":1095,"ility":1096,"Ġlist":1097,"Ġdisc":1098,"Ġcamp":1099,"Ġthought":1100,"Ġchallen":1101,"Ġcor":1102,"Ġhealth":1103,"ĠO":1104,"ming":1105,"Ġtheater":1106,"Ġwoods":1107,"ical":1108,"af":1109,"Ġpeaceful":1110,"Ġvo":1111,"Ġvari":1112,"seum":1113,"izon":1114,"Ġhorizon":1115,"Ġdelicious":1116,"Ġmuseum":1117,"Ġtwist":1118,"Ġplaying":1119,"Ġgl":1120,"Ġkind":1121,"Ġchir":1122,"ertain":1123,"Ġbuy":1124,"Ġsl":1125,"Ġsand":1126,"err":1127,"Ġmed":1128,"arden":1129,"Ġenerg":1130,"iness":1131,"ank":1132,"less":1133,"Ġgarden":1134,"Ġhum":1135,"Ġtoget":1136,"Ġtogether":1137,"Ġquiet":1138,"Ġbel":1139,"Ġafter":1140,"head":1141,"Ġinside":1142,"osp":1143,"Ġstand":1144,"ding":1145,"pite":1146,"Ġlet":1147,"ĠSuddenly":1148,"oned":1149,"Ġcame":1150,"ub":1151,"Ġfollow":1152,"Ġcre":1153,"Ġbet":1154,"Ġstood":1155,"selves":1156,"lect":1157,"Ġrustling":1158,"ire":1159,"Ġlit":1160,"te":1161,"Ġeasy":1162,"by":1163,"Ġcontinued":1164,"Ġany":1165,"Ġstrange":1166,"Ġcoming":1167,"ines":1168,"Ġexh":1169,"ĠL":1170,"Ġpower":1171,"Ġwee":1172,"Ġlocal":1173,"ĠHere":1174,"Ġcount":1175,"Ġgent":1176,"Ġview":1177,"com":1178,"Ġred":1179,"ier":1180,"Ġnear":1181,"ram":1182,"tle":1183,"Ġmat":1184,"Ġupon":1185,"Ġteac":1186,"Ġhapp":1187,"ber":1188,"ject":1189,"cho":1190,"Ġknow":1191,"Ġfull":1192,"Ġoce":1193,"Ġrelax":1194,"Ġocean":1195,"Ġlives":1196,"Ġconc":1197,"ues":1198,"Ġprog":1199,"Ġchalleng":1200,"Ġfear":1201,"ished":1202,"sib":1203,"Ġclients":1204,"Ġpath":1205,"ost":1206,"Ġadv":1207,"ash":1208,"Ġecho":1209,"ened":1210,"ending":1211,"Ġapproached":1212,"ection":1213,"Ġmountains":1214,"Ġhot":1215,"ival":1216,"ase":1217,"Ġgu":1218,"Ġexplore":1219,"Ġwalls":1220,"Ġlove":1221,"Ġnext":1222,"Ġvariety":1223,"dy":1224,"Ġsing":1225,"avel":1226,"Ġcook":1227,"Ġinv":1228,"roup":1229,"Ġreached":1230,"ided":1231,"Ġfew":1232,"ug":1233,"rep":1234,"Ġperson":1235,"Ġfavor":1236,"Ġlost":1237,"Ġwonder":1238,"Ġuse":1239,"ails":1240,"Ġchirping":1241,"Ġsel":1242,"Ġwa":1243,"Ġrain":1244,"Ġgroup":1245,"ree":1246,"Ġyog":1247,"sion":1248,"Ġsal":1249,"Ġfavorite":1250,"ient":1251,"Ġcult":1252,"Ġlou":1253,"we":1254,"Ġgrew":1255,"ĠD":1256,"ush":1257,"Ġourselves":1258,"Ġyoga":1259,"ich":1260,"ten":1261,"Ġquick":1262,"Ġfamily":1263,"Ġmove":1264,"Ġes":1265,"Ġalive":1266,"Ġthick":1267,"Ġjour":1268,"nov":1269,"ustle":1270,"min":1271,"Ġbright":1272,"Ġcool":1273,"mer":1274,"Ġwaves":1275,"Ġpound":1276,"Ġalong":1277,"Ġfurn":1278,"Ġcolle":1279,"Ġmuch":1280,"ground":1281,"Ġhouse":1282,"In":1283,"Ġstarted":1284,"fast":1285,"Ġsil":1286,"ides":1287,"Ġliving":1288,"iture":1289,"Ġsho":1290,"Ġfurniture":1291,"Ġveget":1292,"Ġcamping":1293,"Ġwindow":1294,"Ġthose":1295,"Ġtravel":1296,"Ġbreakfast":1297,"Ġwhisp":1298,"Ġhuman":1299,"Ġstay":1300,"Ġstepped":1301,"Ġshake":1302,"ushed":1303,"Ġbene":1304,"ressed":1305,"Ġskin":1306,"step":1307,"ĠAnd":1308,"aving":1309,"Ġcontent":1310,"Ġconne":1311,"Ġterr":1312,"ories":1313,"Ġser":1314,"Ġlands":1315,"ict":1316,"Ġcal":1317,"Ġwash":1318,"Ġgro":1319,"Ġeverything":1320,"Ġfootstep":1321,"Ġaband":1322,"Ġdeeper":1323,"ames":1324,"Ġconcert":1325,"Ġfootsteps":1326,"Ġspeak":1327,"Ġnearby":1328,"Ġgym":1329,"ables":1330,"Ġvol":1331,"rap":1332,"bo":1333,"ms":1334,"Ġwild":1335,"Ġflowers":1336,"ages":1337,"Ġvoice":1338,"Ġca":1339,"ining":1340,"Ġfut":1341,"Ġforward":1342,"Ġtrying":1343,"pect":1344,"Ġreminder":1345,"Ġmeeting":1346,"Ġabandoned":1347,"ware":1348,"Ġtwisted":1349,"Ġact":1350,"Ġpounding":1351,"Ġpract":1352,"Ġexhib":1353,"Ġnow":1354,"Ġlunch":1355,"port":1356,"Ġscream":1357,"Ġremem":1358,"ĠThere":1359,"Ġcreate":1360,"Ġwithin":1361,"Ġfuture":1362,"Ġim":1363,"Ġsurf":1364,"Ġbot":1365,"Ġdre":1366,"Ġthan":1367,"Ġeer":1368,"unity":1369,"Ġready":1370,"Ġdance":1371,"ize":1372,"Ġsight":1373,"ony":1374,"Ġwhile":1375,"Ġproject":1376,"Ġpier":1377,"Ġmet":1378,"arian":1379,"Ġwrit":1380,"Ġcup":1381,"Ġnatural":1382,"'re":1383,"ts":1384,"velop":1385,"Ġmakeup":1386,"ĠWhen":1387,"Ġhiking":1388,"fort":1389,"Ġpain":1390,"iced":1391,"Ġswe":1392,"Ġdri":1393,"Ġfaint":1394,"ening":1395,"Ġpur":1396,"Ġed":1397,"Ġhist":1398,"Ġcha":1399,"Ġune":1400,"ertainly":1401,"mosp":1402,"Ġatmosp":1403,"Ġexc":1404,"Ġbusiness":1405,"ĠB":1406,"Ġatmosphere":1407,"Ġvisit":1408,"Ġlau":1409,"Ġmost":1410,"Ġbeneath":1411,"zy":1412,"acing":1413,"Ġcheck":1414,"ishing":1415,"ike":1416,"Ġcall":1417,"Ġrec":1418,"Ġgentle":1419,"Ġorange":1420,"Ġbooks":1421,"Ġdecided":1422,"oor":1423,"olog":1424,"Ġperfect":1425,"Ġclear":1426,"Ġcons":1427,"Ġdid":1428,"Ġhour":1429,"Ġstun":1430,"ĠCertainly":1431,"Ġtakes":1432,"Ġgames":1433,"Ġcrisp":1434,"Ġsto":1435,"Ġleft":1436,"light":1437,"ices":1438,"Ġmany":1439,"Ġpresent":1440,"Ġhope":1441,"Ġwill":1442,"Ġshould":1443,"Ġbring":1444,"Ġchest":1445,"Ġcorner":1446,"Ġveter":1447,"Ġnothing":1448,"ieve":1449,"Ġstunning":1450,"espite":1451,"Ġvegetables":1452,"Ġveterin":1453,"Ġbuilds":1454,"Ġsoftware":1455,"Ġremember":1456,"Ġeng":1457,"Ġveterinarian":1458,"Ġopport":1459,"Ġbar":1460,"Ġcenter":1461,"iversity":1462,"Ġeerie":1463,"Ġlang":1464,"Ġlangu":1465,"Ġmar":1466,"ney":1467,"Ġcomfort":1468,"Ġglowing":1469,"Ġunt":1470,"Ġexperien":1471,"ience":1472,"Ġwom":1473,"aced":1474,"anic":1475,"Ġcozy":1476,"ugg":1477,"Ġbec":1478,"Ġshining":1479,"Ġchange":1480,"Ġsetting":1481,"Ġahead":1482,"Ġmay":1483,"ask":1484,"Ġreading":1485,"Ġbetter":1486,"Ġblo":1487,"Ġbath":1488,"Ġdesert":1489,"Ġreminded":1490,"be":1491,"ics":1492,"Ġinstr":1493,"Ġchar":1494,"Ġbest":1495,"Ġenergy":1496,"Ġlearning":1497,"Ġstarting":1498,"Ġlay":1499,"ont":1500,"itness":1501,"Ġforget":1502,"Ġmark":1503,"Ġcountry":1504,"ove":1505,"Ġsurrounded":1506,"Ġtown":1507,"room":1508,"leas":1509,"Ġexperience":1510,"Ġcourse":1511,"Ġwoman":1512,"Ġtra":1513,"Ġcarp":1514,"uly":1515,"Ġsmell":1516,"Ġda":1517,"Ġstreets":1518,"Ġjo":1519,"Ġbak":1520,"sed":1521,"Ġwed":1522,"Ġdense":1523,"Ġgroc":1524,"ia":1525,"yard":1526,"Ġworking":1527,"Ġlittle":1528,"Ġslowly":1529,"Ġpersonal":1530,"Ġequ":1531,"ional":1532,"Ġclasses":1533,"Ġtruly":1534,"Ġsec":1535,"Ġlibr":1536,"ger":1537,"ills":1538,"Ġnoticed":1539,"Ġjourney":1540,"Ġparty":1541,"Ġcalm":1542,"Ġsou":1543,"Ġclot":1544,"Ġmansion":1545,"yst":1546,"ĠSure":1547,"Ġhold":1548,"Ġchallenges":1549,"Ġproduct":1550,"Ġscent":1551,"Ġwhispers":1552,"Ġperforms":1553,"Ġhealthy":1554,"line":1555,"pr":1556,"wor":1557,"ĠJ":1558,"Ġinsp":1559,"Ġothers":1560,"Ġplant":1561,"Ġjog":1562,"Ġmatter":1563,"Ġuntil":1564,"int":1565,"Ġcarpenter":1566,"ied":1567,"Ġconst":1568,"Ġdream":1569,"Ġprogram":1570,"Ġris":1571,"Ġstanding":1572,"Ġshow":1573,"Ġlive":1574,"Ġvolun":1575,"row":1576,"Ġclearing":1577,"ven":1578,"iron":1579,"Ġbegin":1580,"Ġmag":1581,"ift":1582,"Ġswim":1583,"Ġclosed":1584,"ather":1585,"Ġpat":1586,"ball":1587,"Ġsum":1588,"Ġpink":1589,"ude":1590,"Ġpo":1591,"ley":1592,"aughter":1593,"Ġplayground":1594,"Ġdevelop":1595,"Ġsounds":1596,"aces":1597,"cient":1598,"Ġlibrary":1599,"Ġtech":1600,"ats":1601,"Ġinc":1602,"eep":1603,"Ġhorr":1604,"Ġpushed":1605,"Ġsuns":1606,"Ġcompan":1607,"Ġneck":1608,"Ġvolunte":1609,"yl":1610,"Ġtree":1611,"Ġlanguage":1612,"Ġmist":1613,"Ġpri":1614,"kend":1615,"Ġstrugg":1616,"Ġbusy":1617,"Ġweekend":1618,"Ġancient":1619,"stand":1620,"Ġhaun":1621,"Ġstopped":1622,"ens":1623,"uce":1624,"ale":1625,"Ġrenov":1626,"Ġescape":1627,"Ġlast":1628,"Ġmoon":1629,"Ġimpact":1630,"Ġchaos":1631,"Ġsym":1632,"Ġenv":1633,"Ġlandscape":1634,"Ġshap":1635,"rene":1636,"Ġwell":1637,"Ġlaughter":1638,"ucks":1639,"itude":1640,"Ġoften":1641,"Ġblue":1642,"Ġmon":1643,"apt":1644,"Ġfast":1645,"ited":1646,"Ġrefres":1647,"Ġmem":1648,"Ġteaches":1649,"Ġsa":1650,"Ġwatch":1651,"Ġrenew":1652,"Ġfront":1653,"Ġresp":1654,"Ġhard":1655,"Ġshel":1656,"de":1657,"yond":1658,"Ġcolor":1659,"Ġstreet":1660,"ric":1661,"Ġfest":1662,"Ġshower":1663,"Ġbody":1664,"Ġevening":1665,"Ġenviron":1666,"Ġempt":1667,"Ġprot":1668,"Ġunderstand":1669,"Ġz":1670,"Ġlur":1671,"ational":1672,"Ġboard":1673,"Ġbeyond":1674,"igns":1675,"ates":1676,"Ġrenovating":1677,"Ġfishing":1678,"Ġgh":1679,"Ġvast":1680,"Ġpull":1681,"Ġopened":1682,"Ġcollection":1683,"ments":1684,"Ġhall":1685,"Ġlat":1686,"Ġret":1687,"Ġlar":1688,"Ġorg":1689,"Ġinstruct":1690,"Ġsit":1691,"Ġwalking":1692,"Ġtranqu":1693,"Ġtour":1694,"Ġmaking":1695,"bed":1696,"ination":1697,"Ġlouder":1698,"Ġcreating":1699,"Ġmoving":1700,"Ġfire":1701,"Ġhours":1702,"use":1703,"ause":1704,"Ġenvironment":1705,"inally":1706,"Ġdanc":1707,"Ġwhis":1708,"Ġstret":1709,"noon":1710,"Ġbuildings":1711,"Ġfix":1712,"leep":1713,"Ġgrab":1714,"Ġpil":1715,"Ġeff":1716,"Ġpleas":1717,"ones":1718,"hel":1719,"Ġafternoon":1720,"Ġempty":1721,"Ġinstructor":1722,"Ġwhisper":1723,"lic":1724,"Ġtom":1725,"Ġdeter":1726,"Ġcatch":1727,"eared":1728,"Ġspecial":1729,"rant":1730,"Ġrese":1731,"ra":1732,"Ġsocial":1733,"Ġdaily":1734,"Ġcolors":1735,"Ġposit":1736,"Ġaction":1737,"Ġmot":1738,"ĠFor":1739,"azing":1740,"Ġwaiting":1741,"Ġcharity":1742,"Ġdressed":1743,"Ġvib":1744,"Ġgen":1745,"alling":1746,"Ġye":1747,"Ġbig":1748,"erc":1749,"Ġshows":1750,"Ġshore":1751,"ĠWith":1752,"Ġloom":1753,"Ġgoals":1754,"Ġheaded":1755,"Ġpilot":1756,"Ġkeep":1757,"Ġhun":1758,"uc":1759,"Ġgrass":1760,"Ġenjoying":1761,"Ġma":1762,"Ġfree":1763,"ele":1764,"Ġexp":1765,"Ġclean":1766,"Ġdetermin":1767,"Ġhom":1768,"Ġtrail":1769,"Ġteam":1770,"over":1771,"Ġheav":1772,"Ġprof":1773,"Ġhost":1774,"orts":1775,"Ġpastries":1776,"Ġterror":1777,"Ġresear":1778,"ble":1779,"cus":1780,"Ġgrocery":1781,"tered":1782,"Ġbal":1783,"Ġever":1784,"ĠTh":1785,"ial":1786,"Ġplays":1787,"Ġpossib":1788,"Ġselection":1789,"Ġmakes":1790,"Ġhistory":1791,"Ġspine":1792,"Ġgall":1793,"Ġplanet":1794,"to":1795,"irst":1796,"Ġspent":1797,"fl":1798,"Ġgri":1799,"ĠEvery":1800,"Ġinteract":1801,"house":1802,"Ġfloor":1803,"Ġtechn":1804,"ĠN":1805,"Ġmid":1806,"ĠThen":1807,"ĠIts":1808,"Ġmoder":1809,"Ġcele":1810,"Ġclothes":1811,"Ġcelebr":1812,"Ġstri":1813,"Ġgrave":1814,"ĠDespite":1815,"Ġmodern":1816,"Ġthink":1817,"Ġrunning":1818,"Ġboth":1819,"Ġpick":1820,"Ġfar":1821,"ustom":1822,"Ġmusician":1823,"Ġsimply":1824,"Ġpresence":1825,"Ġhands":1826,"Ġcustom":1827,"Ġcars":1828,"Ġechoing":1829,"enture":1830,"Ġghost":1831,"Ġtou":1832,"Ġfitness":1833,"Ġski":1834,"Ġfollowed":1835,"Ġmel":1836,"ology":1837,"Ġstories":1838,"Ġcomed":1839,"ls":1840,"Ġleave":1841,"board":1842,"whel":1843,"Ġwand":1844,"Ġpaint":1845,"Ġriver":1846,"Ġoverwhel":1847,"Ġflies":1848,"Ġreflect":1849,"Ġvibrant":1850,"Ġsame":1851,"Ġevents":1852,"uring":1853,"arth":1854,"Ġsol":1855,"Ġbathroom":1856,"Ġbur":1857,"Ġroad":1858,"eth":1859,"Ġfell":1860,"Ġtrainer":1861,"Ġbelow":1862,"oke":1863,"Ġlate":1864,"Ġstress":1865,"Ġconnect":1866,"Ġfestival":1867,"Ġlaugh":1868,"Ġtow":1869,"Ġsurpr":1870,"Ġblack":1871,"Ġengine":1872,"Ġexperiences":1873,"Ġonce":1874,"Ġchef":1875,"Ġprotect":1876,"ph":1877,"Ġsaf":1878,"aked":1879,"Ġsummer":1880,"Ġdep":1881,"Ġamuse":1882,"Ġteeth":1883,"Ġembr":1884,"Ġoffice":1885,"Ġmyst":1886,"Ġchang":1887,"Ġscient":1888,"Ġamusement":1889,"Ġbread":1890,"Ġdrink":1891,"ips":1892,"Ġnovel":1893,"Ġfru":1894,"olut":1895,"Ġfur":1896,"Ġdead":1897,"Ġsupport":1898,"Ġmarket":1899,"Ġtop":1900,"ition":1901,"igh":1902,"ĠP":1903,"Ġtal":1904,"unities":1905,"Ġstudents":1906,"Ġfun":1907,"imes":1908,"Ġdog":1909,"Ġorgan":1910,"atitude":1911,"Ġpool":1912,"ister":1913,"oney":1914,"ked":1915,"Ġcreatures":1916,"Ġtrapped":1917,"Ġcompany":1918,"Ġdest":1919,"arp":1920,"ĠTo":1921,"coming":1922,"ios":1923,"Ġbustle":1924,"Ġach":1925,"Ġrise":1926,"Ġlead":1927,"Ġblood":1928,"Ġfing":1929,"Ġind":1930,"Ġtimes":1931,"Ġquickly":1932,"izing":1933,"Ġocc":1934,"Ġbro":1935,"Ġval":1936,"enc":1937,"Ġbike":1938,"Ġpian":1939,"Ġarea":1940,"Ġgreen":1941,"ystem":1942,"hy":1943,"Ġaut":1944,"Ġsin":1945,"Ġpop":1946,"Ġworks":1947,"ĠOf":1948,"io":1949,"Ġland":1950,"Ġmean":1951,"Ġscientist":1952,"apping":1953,"Ġpet":1954,"Ġgold":1955,"Ġshelter":1956,"Ġweight":1957,"Ġfirst":1958,"Ġprep":1959,"ires":1960,"Ġfocus":1961,"Ġdraw":1962,"Ġedge":1963,"rove":1964,"Ġgratitude":1965,"Ġdiscus":1966,"Ġgallery":1967,"ded":1968,"Ġdust":1969,"Ġacc":1970,"Ġdecay":1971,"Ġhustle":1972,"Ġunease":1973,"iosity":1974,"Ġbuilding":1975,"Ġtranquility":1976,"Ġpiano":1977,"Ġput":1978,"Ġfamil":1979,"Ġseen":1980,"Ġlooks":1981,"oc":1982,"Ġ\"":1983,"eless":1984,"Ġbeat":1985,"ashion":1986,"Ġzoo":1987,"por":1988,"Ġtoday":1989,"Ġracing":1990,"Ġdon":1991,"Ġsmile":1992,"Ġnightm":1993,"Ġdifference":1994,"Ġfinally":1995,"Ġserves":1996,"Ġworth":1997,"Ġabove":1998,"Ġsomeone":1999,"Ġfiel":2000,"ons":2001,"Ġsilence":2002,"Ġwedding":2003,"Ġfarm":2004,"Ġstrong":2005,"Ġgetting":2006,"Ġcommunity":2007,"Ġmedia":2008,"We":2009,"ual":2010,"Ġstorm":2011,"Ġyour":2012,"Ġweek":2013,"Ġengineer":2014,"anes":2015,"Ġscen":2016,"anger":2017,"iverse":2018,"airs":2019,"Ġarri":2020,"Ġpurp":2021,"Ġbloom":2022,"Ġpleasures":2023,"Ġwide":2024,"ids":2025,"Ġrock":2026,"Ġdesigns":2027,"Ġsunset":2028,"Ġpositive":2029,"Ġlake":2030,"Ġcontinue":2031,"anches":2032,"Ġmedit":2033,"ix":2034,"Ġpar":2035,"roll":2036,"Ġclim":2037,"Ġyet":2038,"Ġbranches":2039,"Ġattending":2040,"ative":2041,"Ġpic":2042,"ances":2043,"Ġspot":2044,"Ġevent":2045,"Ġpicn":2046,"Ġearth":2047,"ular":2048,"vered":2049,"Ġchill":2050,"Ġunc":2051,"app":2052,"hether":2053,"Ġpre":2054,"Ġride":2055,"Ġdrew":2056,"sh":2057,"Ġpot":2058,"Ġchoo":2059,"atever":2060,"olutely":2061,"Ġfashion":2062,"Ġsuch":2063,"Ġsour":2064,"Ġgas":2065,"Ġsoon":2066,"Ġcontentment":2067,"Ġmech":2068,"store":2069,"Ġbookstore":2070,"Ġmoney":2071,"Ġpub":2072,"Ġendless":2073,"Ġheavy":2074,"taking":2075,"uction":2076,"Ġcovered":2077,"Ġairport":2078,"Ġprom":2079,"Ġstudy":2080,"Ġembrace":2081,"Ġpair":2082,"Ġstars":2083,"Ġleaving":2084,"Ġcompl":2085,"Ġforever":2086,"bol":2087,"aster":2088,"Ġchat":2089,"Ġbreathtaking":2090,"Ġsust":2091,"Ġfro":2092,"ete":2093,"Ġsports":2094,"Ġsoot":2095,"Ġmechanic":2096,"nival":2097,"Ġwarmth":2098,"Ġhigh":2099,"Ġshopping":2100,"ital":2101,"Ġra":2102,"Ġsets":2103,"Ġexhibit":2104,"Ġsymbol":2105,"Ġbust":2106,"ilities":2107,"Ġemer":2108,"Ġlarge":2109,"Ġresearch":2110,"Ġcontem":2111,"Ġplanes":2112,"Ġcarnival":2113,"ging":2114,"read":2115,"Ġment":2116,"ently":2117,"Ġenjoyed":2118,"Ġlif":2119,"Ġcuriosity":2120,"Ġimag":2121,"Ġonto":2122,"Ġpace":2123,"Ġproduce":2124,"Ġsecre":2125,"Ġequip":2126,"Ġwindows":2127,"Ġkids":2128,"Ġroll":2129,"Ġphot":2130,"Ġsustain":2131,"Ġequipment":2132,"Ġsection":2133,"aching":2134,"Ġreach":2135,"Ġkindness":2136,"Ġenergized":2137,"vers":2138,"Ġcond":2139,"Ġsucc":2140,"Ġviews":2141,"Ġgener":2142,"Ġob":2143,"Ġeveryone":2144,"iving":2145,"Ġswimming":2146,"ty":2147,"Ġscience":2148,"Ġord":2149,"ench":2150,"Ġlow":2151,"ays":2152,"Ġlighthouse":2153,"Ġinteractive":2154,"Ġadop":2155,"ented":2156,"Ġstaring":2157,"Ġstroll":2158,"oss":2159,"Ġdisapp":2160,"Ġpassed":2161,"Ġphone":2162,"Ġechoed":2163,"Ġprofess":2164,"Ġbustling":2165,"yc":2166,"antic":2167,"acks":2168,"Ġdoct":2169,"Ġteacher":2170,"Ġpond":2171,"Ġright":2172,"ible":2173,"Ġsurprise":2174,"Ġshade":2175,"world":2176,"Ġachieve":2177,"ĠAbs":2178,"Ġrespon":2179,"Ġtechnology":2180,"ĠAbsolutely":2181,"Ġrides":2182,"Ġloved":2183,"Ġoffers":2184,"Ġgrand":2185,"Ġide":2186,"Ġexist":2187,"Ġaccom":2188,"Ġwol":2189,"Ġscene":2190,"Ġprov":2191,"Ġfog":2192,"Ġfreshly":2193,"Ġwrites":2194,"Ġhid":2195,"Ġshadow":2196,"Ġactiv":2197,"Ġbecome":2198,"Ġwhatever":2199,"Ġgolden":2200,"Ġcand":2201,"icing":2202,"Ġtry":2203,"ĠWhether":2204,"Ġexhibits":2205,"Ġsweat":2206,"Ġaw":2207,"Ġfil":2208,"ature":2209,"Ġdire":2210,"els":2211,"Ġstren":2212,"Ġclose":2213,"Ġexplor":2214,"ys":2215,"Ġconnection":2216,"Ġopportunity":2217,"Ġbakery":2218,"Ġpicnic":2219,"Ġsuccess":2220,"Ġsleep":2221,"Ġful":2222,"Ġgame":2223,"Ġkit":2224,"'ve":2225,"Ġspir":2226,"Ġinvest":2227,"Ġstreng":2228,"Ġsong":2229,"Ġuniversity":2230,"Ġcultures":2231,"porary":2232,"Ġdim":2233,"Ġfamous":2234,"Ġmindful":2235,"Ġanything":2236,"Ġlurking":2237,"Ġfingers":2238,"ots":2239,"Ġclaw":2240,"Ġscul":2241,"ract":2242,"ined":2243,"Ġwords":2244,"Ġbackyard":2245,"Ġsinister":2246,"Ġke":2247,"Ġsinging":2248,"Ġsculpt":2249,"ipped":2250,"Ġball":2251,"Ġcompet":2252,"worldly":2253,"Ġwin":2254,"Ġcher":2255,"Ġthough":2256,"ng":2257,"Ġelect":2258,"Ġconstant":2259,"ighb":2260,"Ġsoothing":2261,"Ġpa":2262,"otic":2263,"Ġneighb":2264,"Ġcode":2265,"Ġgrowing":2266,"Ġducks":2267,"Ġworries":2268,"Ġotherworldly":2269,"ween":2270,"Ġdriver":2271,"Ġshape":2272,"uis":2273,"Ġside":2274,"Ġdistant":2275,"Ġopportunities":2276,"Ġrising":2277,"Ġnightmare":2278,"ced":2279,"Ġtrud":2280,"Ġsea":2281,"Ġstrength":2282,"Ġnoise":2283,"Ġbetween":2284,"ough":2285,"Ġsign":2286,"Ġstop":2287,"Ġsurrounds":2288,"Ġtask":2289,"Ġpack":2290,"Ġlab":2291,"Ġeg":2292,"Ġbeck":2293,"Ġcomput":2294,"Ġlistened":2295,"orn":2296,"ried":2297,"ope":2298,"igate":2299,"Ġsear":2300,"Ġtrans":2301,"bled":2302,"Ġtall":2303,"Ġfixes":2304,"attered":2305,"Ġinstalling":2306,"Ġguit":2307,"Ġbeginning":2308,"Ġreturn":2309,"Ġtalk":2310,"ĠLet":2311,"veral":2312,"Ġsnow":2313,"Ġseveral":2314,"Ġhotel":2315,"Ġoverwhelming":2316,"Ġcontemporary":2317,"Ġguitar":2318,"Ġtrails":2319,"Ġoutd":2320,"Ġexperim":2321,"Ġdread":2322,"Ġmental":2323,"Ġmight":2324,"Ġstate":2325,"Ġresponsib":2326,"rom":2327,"Ġnews":2328,"eling":2329,"Ġmeal":2330,"eries":2331,"Ġdiversity":2332,"ific":2333,"Ġtalented":2334,"mark":2335,"arin":2336,"Ġforce":2337,"rop":2338,"ief":2339,"Ġplants":2340,"Ġarrived":2341,"Ġeggs":2342,"aged":2343,"Ġproductive":2344,"Ġtrudged":2345,"Ġflu":2346,"Ġflight":2347,"Ġcooking":2348,"hood":2349,"ired":2350,"ped":2351,"Ġones":2352,"andarin":2353,"Ġhappy":2354,"Ġheld":2355,"Ġeveryday":2356,"Ġpracticing":2357,"Ġsource":2358,"So":2359,"Ġsch":2360,"ives":2361,"ĠMandarin":2362,"Ġbelieve":2363,"walk":2364,"Ġrich":2365,"Ġarch":2366,"reprene":2367,"Ġhidden":2368,"repreneur":2369,"Ġentered":2370,"Ġentrepreneur":2371,"Ġsandw":2372,"Ġprogress":2373,"Ġoccas":2374,"Ġgenerations":2375,"ches":2376,"Ġcir":2377,"Ġbank":2378,"otes":2379,"Ġamazing":2380,"Ġable":2381,"ken":2382,"Ġvac":2383,"Ġsoul":2384,"Ġemerged":2385,"Ġtast":2386,"Ġbare":2387,"ises":2388,"Ġtea":2389,"Ġsuddenly":2390,"Ġwar":2391,"aling":2392,"Ġthing":2393,"Ġfamilies":2394,"Ġdoctor":2395,"Ġgive":2396,"Ġalm":2397,"Ġsweet":2398,"Ġjob":2399,"come":2400,"ually":2401,"Ġill":2402,"Ġtang":2403,"Ġchallenging":2404,"Ġdidn":2405,"me":2406,"sit":2407,"Ġfinished":2408,"Ġpaintings":2409,"Ġstory":2410,"Ġcras":2411,"Ġyears":2412,"Ġaccompl":2413,"Ġpol":2414,"Ġeye":2415,"Ġtur":2416,"ained":2417,"Ġdays":2418,"Ġspace":2419,"ĠJap":2420,"used":2421,"Ġsymbols":2422,"Ġomin":2423,"Ġdiff":2424,"Ġominous":2425,"kn":2426,"Ġhim":2427,"Ġprior":2428,"chen":2429,"Ġthri":2430,"Ġages":2431,"Ġcomfortable":2432,"Ġloomed":2433,"Ġchoose":2434,"Ġkitchen":2435,"Ġschool":2436,"sing":2437,"Ġcuis":2438,"Ġel":2439,"Ġhesit":2440,"Ġstudying":2441,"Ġghostly":2442,"Ġrep":2443,"Ġenc":2444,"Ġcompass":2445,"Ġrefreshing":2446,"Ġpurpose":2447,"Ġimprove":2448,"Ġemails":2449,"Ġsecrets":2450,"Ġadopting":2451,"ĠAt":2452,"Ġbab":2453,"orating":2454,"Ġreve":2455,"Ġexerc":2456,"Ġflash":2457,"Ġvolunteering":2458,"Ġsaid":2459,"Ġtouch":2460,"Ġsystem":2461,"itect":2462,"Ġexcited":2463,"Ġfurther":2464,"Ġarchitect":2465,"ĠY":2466,"icult":2467,"Ġconduct":2468,"Ġmen":2469,"Ġwhich":2470,"ograp":2471,"Ġperspect":2472,"With":2473,"ead":2474,"orrow":2475,"Ġscram":2476,"agged":2477,"Ġflick":2478,"Ġwond":2479,"aken":2480,"Ġcares":2481,"Ġchecked":2482,"Ġbou":2483,"Ġlegs":2484,"Ġlatest":2485,"Ġbarely":2486,"hl":2487,"Ġpie":2488,"Ġhosp":2489,"Ġathl":2490,"Ġspr":2491,"Ġlooking":2492,"Ġdetermined":2493,"Ġdifficult":2494,"dle":2495,"Ġtreat":2496,"Ġfle":2497,"Ġreg":2498,"Ġcomputer":2499,"Ġscr":2500,"Ġcompassion":2501,"onne":2502,"Ġinnov":2503,"Ġwasn":2504,"Ġupcoming":2505,"Ġtoast":2506,"Ġstyl":2507,"iring":2508,"Ġcreaked":2509,"Ġmidst":2510,"Ġhospital":2511,"Ġlistening":2512,"Ġalmost":2513,"od":2514,"und":2515,"ime":2516,"che":2517,"Ġchance":2518,"Ġhung":2519,"Ġbask":2520,"Ġsett":2521,"ever":2522,"Ġhaving":2523,"Ġoverhead":2524,"ager":2525,"Ġdesig":2526,"Ġartists":2527,"onnect":2528,"nal":2529,"Ġfad":2530,"Ġwebs":2531,"Ġanimal":2532,"Ġfollowing":2533,"Ġsinger":2534,"night":2535,"eted":2536,"Ġbreathing":2537,"Ġwriter":2538,"Ġprograms":2539,"Ġmagic":2540,"known":2541,"gr":2542,"ately":2543,"Ġappeared":2544,"Ġblog":2545,"Ġstudies":2546,"ential":2547,"Ġann":2548,"ĠFinally":2549,"Ġshops":2550,"form":2551,"Ġband":2552,"aper":2553,"Ġneeded":2554,"Ġcrow":2555,"Ġdent":2556,"Ġventure":2557,"Ġcho":2558,"Ġgrabbed":2559,"Ġcherish":2560,"Ġdesk":2561,"Ġhoping":2562,"Ġunderstanding":2563,"Ġtowering":2564,"Ġgn":2565,"Ġvan":2566,"Ġneighbor":2567,"Ġpriorit":2568,"00":2569,"Ġsqu":2570,"Ġclou":2571,"Ġsoci":2572,"Ġresist":2573,"Ġprofessional":2574,"Ġap":2575,"Ġtherap":2576,"isf":2577,"Ġasyl":2578,"Ġsatisf":2579,"Ġtwig":2580,"Ġimportance":2581,"Ġsculptures":2582,"Ġasylum":2583,"ere":2584,"fill":2585,"tched":2586,"Ġtable":2587,"Ġbackwards":2588,"Ġfriendly":2589,"ĠFrom":2590,"Ġtransp":2591,"Ġself":2592,"Ġstrive":2593,"Ġunknown":2594,"Ġrusted":2595,"Ġconsum":2596,"Ġactions":2597,"Ġordered":2598,"Ġways":2599,"Ġbalance":2600,"Ġdrinks":2601,"Ġcirc":2602,"oint":2603,"Ġmass":2604,"Ġkinds":2605,"Ġhorror":2606,"Ġhorrors":2607,"Ġpicked":2608,"Ġdanger":2609,"Ġlot":2610,"cked":2611,"Ġbirth":2612,"Ġdiscover":2613,"Ġcooked":2614,"vol":2615,"Ġice":2616,"Ġawe":2617,"ization":2618,"Ġdishes":2619,"Ġvisitors":2620,"Ġpulled":2621,"Just":2622,"Ġsals":2623,"erve":2624,"arled":2625,"Ġwinding":2626,"Ġfigures":2627,"arium":2628,"Ġapart":2629,"Ġcountryside":2630,"Ġmonth":2631,"Ġsalsa":2632,"made":2633,"ushing":2634,"Ġlonger":2635,"Ġmeetings":2636,"ior":2637,"ipping":2638,"Ġsent":2639,"Ġmale":2640,"Ġgift":2641,"Ġrout":2642,"Ġdogs":2643,"Ġcrun":2644,"Ġadding":2645,"azed":2646,"Ġlunged":2647,"Ġtrains":2648,"Ġinspires":2649,"Ġexploring":2650,"Ġhomeless":2651,"bling":2652,"Ġplans":2653,"Ġrefreshed":2654,"Ġlandmark":2655,"Ġbirthday":2656,"Ġcapt":2657,"Ġchick":2658,"Ġseas":2659,"Ġcourt":2660,"Ġconducts":2661,"Ġscrambled":2662,"life":2663,"Ġwine":2664,"urope":2665,"iously":2666,"Ġdancer":2667,"Ġtalked":2668,"Ġrom":2669,"Ġworked":2670,"ĠEurope":2671,"Ġlisten":2672,"Ġdrawn":2673,"Ġideas":2674,"Ġec":2675,"Ġvi":2676,"umbling":2677,"ĠTV":2678,"Ġknowing":2679,"Ġblogger":2680,"Ġmalevol":2681,"Ġins":2682,"ĠSomet":2683,"ogn":2684,"Ġgently":2685,"Ġboardwalk":2686,"Ġscrat":2687,"Ġsociety":2688,"Ġav":2689,"Ġweather":2690,"Ġant":2691,"Ġchas":2692,"Ġfruits":2693,"Ġfulfill":2694,"Ġing":2695,"Ġfish":2696,"iss":2697,"Ġreaching":2698,"Ġsharp":2699,"Ġproble":2700,"Ġvacation":2701,"aze":2702,"cing":2703,"Ġobs":2704,"Ġbi":2705,"ured":2706,"Ġsched":2707,"Ġphotograp":2708,"ĠG":2709,"Ġburst":2710,"When":2711,"ares":2712,"Ġur":2713,"Ġpee":2714,"Ġwinter":2715,"Ġchicken":2716,"sure":2717,"Ġmess":2718,"Ġpay":2719,"Ġworkout":2720,"Ġhike":2721,"Ġwandered":2722,"Ġmeaning":2723,"Ġexperiments":2724,"Ġviol":2725,"ruction":2726,"itions":2727,"Ġserene":2728,"Ġloud":2729,"Ġrecogn":2730,"Ġwhite":2731,"ivity":2732,"Ġblank":2733,"Ġrestaurants":2734,"Ġstillness":2735,"Ġgrad":2736,"Ġresil":2737,"Ġpractice":2738,"Ġmotiv":2739,"Ġsustainable":2740,"Ġdesigner":2741,"Ġcem":2742,"etery":2743,"Ġshut":2744,"ivid":2745,"Ġbrightly":2746,"ĠBy":2747,"Ġcemetery":2748,"Ġnav":2749,"Ġguide":2750,"Ġculture":2751,"Ġexercise":2752,"Ġstylist":2753,"Finally":2754,"for":2755,"ledge":2756,"Ġreminds":2757,"Ġcomple":2758,"Ġshoes":2759,"Ġdevelops":2760,"Ġnovels":2761,"Ġsandwich":2762,"ear":2763,"kes":2764,"Ġspoke":2765,"itement":2766,"Ġstruck":2767,"Ġglowed":2768,"ĠLife":2769,"Ġhistor":2770,"ĠThis":2771,"Ġcomedy":2772,"Ġdentist":2773,"asc":2774,"Ġform":2775,"Ġtherapist":2776,"Ġcut":2777,"Ġfly":2778,"Ġcoll":2779,"Ġclassic":2780,"Ġsalad":2781,"Ġmarvel":2782,"Ġdeserted":2783,"Ġmaj":2784,"Ġprioritize":2785,"Ġromantic":2786,"Ġreport":2787,"Ġcouch":2788,"Ġappoint":2789,"Ġplayed":2790,"Ġdespite":2791,"Ġfinish":2792,"Ġcolleag":2793,"Ġexcitement":2794,"Ġmemory":2795,"Ġvery":2796,"Ġtransport":2797,"Ġingred":2798,"ĠR":2799,"ites":2800,"Ġhit":2801,"Ġless":2802,"Ġcomes":2803,"Ġrustle":2804,"Ġscreamed":2805,"Ġthro":2806,"Ġalley":2807,"Ġthoughts":2808,"Ġpainting":2809,"Ġhomes":2810,"ec":2811,"the":2812,"ins":2813,"Ġble":2814,"Ġsometimes":2815,"Ġhosting":2816,"Ġgnarled":2817,"Ġcomplex":2818,"Ġhalls":2819,"Ġgrotes":2820,"Ġspun":2821,"Ġadm":2822,"Ġeduc":2823,"being":2824,"Ġingredients":2825,"yles":2826,"Ġbench":2827,"oun":2828,"Ġiss":2829,"Ġitself":2830,"Ġshared":2831,"Ġspending":2832,"Ġsunlight":2833,"Ġdoing":2834,"Ġwalks":2835,"Ġgrotesque":2836,"cept":2837,"Ġgraveyard":2838,"Ġgasping":2839,"Ġdreams":2840,"Ġgrip":2841,"Ġlaughing":2842,"ĠToday":2843,"Ġcrashing":2844,"Ġinnovative":2845,"Ġvanished":2846,"oot":2847,"ron":2848,"Ġunl":2849,"Ġbecame":2850,"Ġhosts":2851,"Ġbaby":2852,"Ġmin":2853,"Ġhaunted":2854,"Ġelse":2855,"Ġbasket":2856,"cip":2857,"Ġdifferences":2858,"Ġillum":2859,"Ġsettled":2860,"Ġheat":2861,"ivil":2862,"Ġbrings":2863,"ccer":2864,"Ġsafety":2865,"Ġdirection":2866,"Ġsuccessful":2867,"Ġcaut":2868,"erv":2869,"ump":2870,"Ġsoccer":2871,"Ġartic":2872,"arsh":2873,"Ġlandscap":2874,"Ġpurs":2875,"Ġcelebrating":2876,"Ġdisappeared":2877,"Ġwarning":2878,"Ġmir":2879,"Ġcivil":2880,"Ġclaws":2881,"Ġmalevolent":2882,"dings":2883,"Ġshare":2884,"izes":2885,"Ġhappiness":2886,"Ġrelaxing":2887,"Ġweddings":2888,"Ġresponsibility":2889,"Ġthroat":2890,".\"":2891,"ners":2892,"rought":2893,"rent":2894,"Ġinvig":2895,"ains":2896,"iled":2897,"Ġmovies":2898,"Ġpassing":2899,"Ġplanting":2900,"Ġconnected":2901,"Ġmindfulness":2902,"Ġsure":2903,"Ġinfl":2904,"irt":2905,"Ġseren":2906,"Ġmoved":2907,"Ġpopular":2908,"Ġillumin":2909,"ple":2910,"ule":2911,"Ġtrucks":2912,"Ġconf":2913,"Ġbrew":2914,"Ġears":2915,"Ġcatching":2916,"Ġjournal":2917,"Ġexpan":2918,"Ġfield":2919,"Ġathlete":2920,"Ġfall":2921,"Ġexam":2922,"Ġreminding":2923,"Ġvoices":2924,"ium":2925,"asis":2926,"Ġthroughout":2927,"Ġskills":2928,"Ġgrowl":2929,"ĠJust":2930,"Ġneighborhood":2931,"Ġsway":2932,"udd":2933,"Ġbuying":2934,"ĠCh":2935,"Ġglass":2936,"Ġinflu":2937,"Ġtight":2938,"umn":2939,"Ġfilling":2940,"Ġrelief":2941,"Ġwildlife":2942,"Ġdusty":2943,"Ġannivers":2944,"hat":2945,"Ġsavor":2946,"Ġquickened":2947,"Ġanniversary":2948,"care":2949,"Ġsens":2950,"ord":2951,"Ġrhy":2952,"Ġseem":2953,"Ġsub":2954,"Ġpossibilities":2955,"Ġtasks":2956,"Ġrhyth":2957,"Ġlim":2958,"Ġetched":2959,"Ġshort":2960,"Ġscre":2961,"Ġbackground":2962,"Ġattract":2963,"ĠOn":2964,"Ġblock":2965,"work":2966,"Ġstruggled":2967,"Ġbasketball":2968,"ghed":2969,"Ġfight":2970,"Ġonline":2971,"Ġarr":2972,"Ġdispl":2973,"Ġcreaking":2974,"overed":2975,"Ġhaunting":2976,"Ġissues":2977,"Ġserenity":2978,"Ġcafe":2979,"Ġlaughed":2980,"Ġshadowy":2981,"Ġproblems":2982,"Ġexpanse":2983,"Ġpure":2984,"ans":2985,"Ġgreeted":2986,"Ġattend":2987,"Ġmystery":2988,"anese":2989,"ĠJapanese":2990,"Ġflashlight":2991,"oors":2992,"Ġcream":2993,"Ġtonight":2994,"Ġdress":2995,"imm":2996,"ĠEach":2997,"Ġeffect":2998,"Ġcomedian":2999,"Ġhesitated":3000,"Ġschedule":3001,"Despite":3002,"Ġsell":3003,"Ġbow":3004,"Ġpressed":3005,"owever":3006,"Ġarom":3007,"Ġconstruction":3008,"Ġcolorful":3009,"Ġdiscuss":3010,"Ġaccess":3011,"Ġsongs":3012,"Ġoasis":3013,"avors":3014,"Ġuniverse":3015,"Ġemp":3016,"Ġclosing":3017,"Ġmonst":3018,"Ġdetermination":3019,"Ġconstantly":3020,"Ġtango":3021,"Ġpit":3022,"Ġhous":3023,"Ġdestination":3024,"Ġbroken":3025,"Ġspirits":3026,"ody":3027,"Ġbrought":3028,"Ġduring":3029,"ention":3030,"Ġroo":3031,"iles":3032,"Ġclown":3033,"Ġflavors":3034,"Ġtem":3035,"Ġwriting":3036,"Ġwhispered":3037,"Ġtomorrow":3038,"Ġorganizing":3039,"Ġappointment":3040,"man":3041,"Ġsick":3042,"lection":3043,"ists":3044,"Ġspend":3045,"Ġrelaxed":3046,"Ġwebsites":3047,"erest":3048,"Ġaud":3049,"rid":3050,"Ġhairs":3051,"Ġphys":3052,"Ġsilent":3053,"Ġlandmarks":3054,"ned":3055,"Ġfasc":3056,"Ġmeals":3057,"Ġgras":3058,"Ġseats":3059,"Ġruns":3060,"Ġbusinesses":3061,"Ġmelody":3062,"Ġflickering":3063,"Ġrhythm":3064,"cess":3065,"rying":3066,"Ġinh":3067,"Ġraced":3068,"Ġdem":3069,"outh":3070,"Ġvolunteer":3071,"Ġscenic":3072,"Ġcuisine":3073,"Ġcap":3074,"Ġcause":3075,"ality":3076,"Ġstretched":3077,"cast":3078,"hered":3079,"Ġstone":3080,"Ġrepl":3081,"Ġrent":3082,"Ġwanted":3083,"Ġmusty":3084,"Ġcommon":3085,"Ġintern":3086,"Ġcursed":3087,"Ġsurface":3088,"Ġstruggles":3089,"Ġwhispering":3090,"Ġimagination":3091,"Ġcolleagues":3092,"free":3093,"uation":3094,"Ġcaf":3095,"Ġfeat":3096,"Ġlevel":3097,"Ġpatients":3098,"Ġsafe":3099,"My":3100,"Ġovercome":3101,"Ġmanaged":3102,"Ġresour":3103,"Ġwhole":3104,"Ġsitting":3105,"Ġfroze":3106,"Ġbit":3107,"ute":3108,"Ġdownt":3109,"Ġsurv":3110,"Ġbreathe":3111,"Ġenjoys":3112,"Ġproducts":3113,"At":3114,"bing":3115,"Ġled":3116,"Ġvict":3117,"Ġspread":3118,"Ġdesper":3119,"Ġautumn":3120,"Ġhouses":3121,"of":3122,"Ġtold":3123,"Ġworker":3124,"Ġknowledge":3125,"Ġmemories":3126,"Ġeffort":3127,"Ġrevealing":3128,"Ġapartment":3129,"Ġaqu":3130,"Ġharm":3131,"Ġdiverse":3132,"ored":3133,"ĠLater":3134,"Ġadventure":3135,"Ġsale":3136,"Ġrenewed":3137,"Ġfluently":3138,"Ġwonders":3139,"lines":3140,"idst":3141,"Ġinfluenc":3142,"Ġtrick":3143,"tering":3144,"Ġinterest":3145,"Ġemot":3146,"Ġindivid":3147,"Ġstronger":3148,"Ġwolf":3149,"Ġcautiously":3150,"Ġaroma":3151,"Ġdowntown":3152,"Ġtest":3153,"Ġmall":3154,"Ġarms":3155,"Ġrespond":3156,"apped":3157,"Ġsudden":3158,"nat":3159,"view":3160,"zz":3161,"Ġnational":3162,"Ġcalled":3163,"Ġfruit":3164,"Ġpublic":3165,"Ġaquarium":3166,"Ġtell":3167,"ases":3168,"Ġpict":3169,"ifting":3170,"Ġoutdoor":3171,"Ġinfluencer":3172,"Ġtapping":3173,"Ġhills":3174,"Ġfills":3175,"Ġincred":3176,"Ġyear":3177,"Ġelectric":3178,"Ġdet":3179,"etfl":3180,"Ġchant":3181,"Ġusing":3182,"ples":3183,"Ġlungs":3184,"Ġescap":3185,"Ġlatte":3186,"ĠNetfl":3187,"Ġmeditation":3188,"Ġobst":3189,"ĠNetflix":3190,"where":3191,"Ġwitness":3192,"itable":3193,"Ġgone":3194,"Ġshrou":3195,"Ġoffer":3196,"Ġwilder":3197,"Ġfields":3198,"Ġbought":3199,"bwe":3200,"Ġfaces":3201,"rents":3202,"Ġshades":3203,"Ġrustled":3204,"Ġnowhere":3205,"Ġdepth":3206,"Ġobstac":3207,"inted":3208,"Ġnut":3209,"Ġunp":3210,"izz":3211,"lessly":3212,"Ġpubl":3213,"Ġwilderness":3214,"Ġcro":3215,"ication":3216,"Ġclo":3217,"Ġactivities":3218,"Ġoccasional":3219,"Life":3220,"ĠSo":3221,"Ġslides":3222,"Ġbalc":3223,"Ġfaded":3224,"rance":3225,"Ġboss":3226,"Ġstad":3227,"Ġrace":3228,"Ġwithout":3229,"Ġloves":3230,"Ġpainted":3231,"Ġscenery":3232,"Ġstadium":3233,"Ġwel":3234,"Ġpad":3235,"Ġpages":3236,"Ġine":3237,"Ġorche":3238,"Ġforebo":3239,"Ġholding":3240,"Ġviolin":3241,"Ġresilience":3242,"Ġbalcony":3243,"Ġorchest":3244,"Ġforeboding":3245,"Ġlearned":3246,"Ġprojects":3247,"Ġraise":3248,"hips":3249,"pe":3250,"esh":3251,"Ġlic":3252,"Ġplaces":3253,"Ġdoes":3254,"ologist":3255,"iar":3256,"sw":3257,"vent":3258,"oning":3259,"Ġrecip":3260,"Ġyel":3261,"Ġflesh":3262,"Ġcru":3263,"Ġgrowth":3264,"Ġinterior":3265,"got":3266,"Ġdut":3267,"icy":3268,"Ġcouple":3269,"Ġven":3270,"Ġintric":3271,"Ġroot":3272,"Ġeman":3273,"Ġreflection":3274,"rise":3275,"ĠTheir":3276,"ote":3277,"Ġext":3278,"Ġdeaf":3279,"Ġforeign":3280,"Ġserv":3281,"Ġpotential":3282,"Ġfascin":3283,"sc":3284,"Ġansw":3285,"Ġdef":3286,"Ġlights":3287,"Ġenth":3288,"Ġsurroundings":3289,"Ġsalty":3290,"Ġsymph":3291,"Ġmusicians":3292,"Ġblooming":3293,"Ġnavigate":3294,"Ġdepths":3295,"Ġduty":3296,"orated":3297,"Ġthin":3298,"Ġwear":3299,"usi":3300,"tern":3301,"olate":3302,"Ġnotice":3303,"Ġbushes":3304,"Ġpossible":3305,"Ġvalley":3306,"Ġkept":3307,"bwebs":3308,"Ġlicense":3309,"Ġenthusi":3310,"Ġdamp":3311,"Ġlaw":3312,"Ġline":3313,"icip":3314,"Ġshimm":3315,"Ġasleep":3316,"Ġemerg":3317,"Ġsuper":3318,"Ġrelations":3319,"Ġbaked":3320,"Ġcivilization":3321,"Ġfalling":3322,"Ġmeant":3323,"Ġmod":3324,"Ġsunrise":3325,"Ġarc":3326,"Ġsights":3327,"Ġcomplet":3328,"Ġresources":3329,"âĢ":3330,"Ġsending":3331,"Ġopt":3332,"Ġpul":3333,"Ġrot":3334,"Ġcurrent":3335,"Ġdimly":3336,"Ġport":3337,"Ġlater":3338,"Ġri":3339,"ifact":3340,"iding":3341,"Ġtrue":3342,"Ġartifact":3343,"Ġlooming":3344,"Ġfarmer":3345,"Ġbeckoned":3346,"Ġpal":3347,"ane":3348,"Ġskill":3349,"Ġchanged":3350,"Ġbrewed":3351,"Ġinternational":3352,"efore":3353,"Ġmult":3354,"Ġmix":3355,"Ġhues":3356,"Ġrange":3357,"Ġtun":3358,"Ġcard":3359,"Ġhill":3360,"Ġdart":3361,"Ġling":3362,"Ġlaz":3363,"aly":3364,"Ġfeed":3365,"Ġclient":3366,"Ġrooms":3367,"pected":3368,"Ġcalling":3369,"Ġmaze":3370,"Ġreturned":3371,"irre":3372,"Ġraz":3373,"Ġfeels":3374,"Ġamidst":3375,"Ġsecond":3376,"Ġsafari":3377,"Ġsav":3378,"iff":3379,"Ġgrace":3380,"Ġroast":3381,"Ġentity":3382,"Ġadvoc":3383,"Ġincl":3384,"Ġmeditate":3385,"natural":3386,"Ġyellow":3387,"Ġrazor":3388,"Ġtaken":3389,"Ġmerc":3390,"Ġfre":3391,"Ġbase":3392,"Ġeager":3393,"Ġbeast":3394,"Ġstream":3395,"Ġbrid":3396,"Ġpowerful":3397,"Ġrelaxation":3398,"Ġstresses":3399,"Ġdeafening":3400,"paced":3401,"ubs":3402,"Ġtent":3403,"redict":3404,"Ġwouldn":3405,"Ġwrite":3406,"Ġadvent":3407,"Ġpieces":3408,"Ġgraduation":3409,"cut":3410,"Ġfac":3411,"athered":3412,"ork":3413,"Ġeat":3414,"Ġrare":3415,"Ġclub":3416,"Ġjoys":3417,"Ġauth":3418,"Ġchasing":3419,"Ġshrouded":3420,"Ġsymphony":3421,"iant":3422,"Ġess":3423,"Ġwall":3424,"Ġmach":3425,"Ġpause":3426,"Ġdone":3427,"Ġconvers":3428,"Ġsurrounding":3429,"Ġreduce":3430,"Ġturning":3431,"onnected":3432,"aff":3433,"tub":3434,"ised":3435,"Ġstage":3436,"Ġcoun":3437,"Ġtrend":3438,"Ġwhether":3439,"Ġfinan":3440,"Ġvolley":3441,"Ġbathtub":3442,"Ġstretch":3443,"Ġvolleyball":3444,"Ã©":3445,"Ġbills":3446,"anted":3447,"Ġcrack":3448,"Ġbreathed":3449,"Ġentire":3450,"Ġredec":3451,"Ġwait":3452,"lish":3453,"old":3454,"orc":3455,"Ġhood":3456,"Ġded":3457,"Ġtraining":3458,"Ġbroke":3459,"Ġfocused":3460,"Ġsquirre":3461,"Ġjournalist":3462,"Ġfinancial":3463,"inct":3464,"Ġbones":3465,"Ġrush":3466,"Ġenvelop":3467,"Ġcreep":3468,"Ġchaotic":3469,"Ġvastness":3470,"Ġchanging":3471,"Ġdiscussed":3472,"Ġwolves":3473,"Ġcollap":3474,"Ġscreen":3475,"cend":3476,"Ġgrap":3477,"Ġsteps":3478,"Ġcommun":3479,"Ġaccomplish":3480,"Ġclouds":3481,"Ġbat":3482,"Ġpizz":3483,"Ġclin":3484,"ters":3485,"Ġalt":3486,"Ġsingle":3487,"Ġpetting":3488,"Ġventured":3489,"Ġunlike":3490,"Ġarticles":3491,"Ġredecorating":3492,"Ġign":3493,"Ġhol":3494,"Ġlapt":3495,"Ġrum":3496,"Ġunw":3497,"apid":3498,"Ġwheel":3499,"Ġstudio":3500,"Ġchallenge":3501,"Ġterrif":3502,"Ġshoulder":3503,"Ġperspective":3504,"Ġempath":3505,"Ġlaptop":3506,"dling":3507,"hic":3508,"ung":3509,"Ġvide":3510,"Ġclubs":3511,"Ġnost":3512,"Ġhomemade":3513,"Ġresort":3514,"Ġflower":3515,"Ġchatted":3516,"Ġcrunching":3517,"aft":3518,"Ġgave":3519,"Ġwashed":3520,"Ġforgot":3521,"ument":3522,"Ġdeath":3523,"Ġsupp":3524,"Ġexperienced":3525,"Ġstrolled":3526,"Ġconsumed":3527,"Ġmessages":3528,"Ġorchestra":3529,"Ġclinic":3530,"Ġstat":3531,"Ġrej":3532,"Ġshone":3533,"cious":3534,"Ġremod":3535,"ffic":3536,"Ġrealize":3537,"Ġbrush":3538,"anced":3539,"Ġsearching":3540,"Ġthrill":3541,"Ġenthusiast":3542,"Ġcompletely":3543,"Ġremodeling":3544,"Ġopp":3545,"Ġgazed":3546,"Ġgranted":3547,"Ġenough":3548,"Ġreally":3549,"Ġperformances":3550,"Ġglimp":3551,"Ġcreak":3552,"Ġuncover":3553,"Ġrecognize":3554,"Ġshimmering":3555,"abit":3556,"Ġseating":3557,"Ġbrighter":3558,"Ġbeckoning":3559,"Ġescaped":3560,"Ġemanating":3561,"uven":3562,"yle":3563,"Ġest":3564,"rib":3565,"Ġcobwebs":3566,"Ġnewsp":3567,"Ġknit":3568,"Ġdanced":3569,"Ġexpress":3570,"Ġstormy":3571,"Ġspotted":3572,"Ġrejuven":3573,"ny":3574,"oust":3575,"ising":3576,"Ġadd":3577,"Ġunex":3578,"Ġdestin":3579,"Ġdisplay":3580,"Ġmouth":3581,"Ġbud":3582,"Ġdive":3583,"Ġinj":3584,"rils":3585,"Ġexotic":3586,"Ġspa":3587,"Ġblind":3588,"Ġacoust":3589,"Ġsuff":3590,"Ġvision":3591,"Ġcrept":3592,"Ġhappened":3593,"Ġmistake":3594,"Ġnutr":3595,"fits":3596,"zen":3597,"ences":3598,"Ġstation":3599,"ifted":3600,"brush":3601,"Ġentertain":3602,"Ġmenu":3603,"Ġadventures":3604,"Ġcaus":3605,"Ġmoonlight":3606,"Ġmotorc":3607,"ucing":3608,"Ġcelebrate":3609,"Ġrolling":3610,"Ġsnowboard":3611,"Ġblanket":3612,"Ġmirr":3613,"Ġartifacts":3614,"Ġmotorcyc":3615,"met":3616,"Ġsush":3617,"Ġwave":3618,"Ġluck":3619,"elling":3620,"Ġcliff":3621,"anging":3622,"Ġrespect":3623,"Ġfinding":3624,"ulls":3625,"Ġlurked":3626,"Ġgrill":3627,"Ġlessons":3628,"Ġfeatures":3629,"Ġacoustics":3630,"Ġsushi":3631,"Ġpale":3632,"Ġsmiled":3633,"Ġdry":3634,"ĠEng":3635,"Ġgoods":3636,"Ġmovement":3637,"Ġinvestigate":3638,"Ġempathy":3639,",\"":3640,"ef":3641,"elet":3642,"Ġneg":3643,"ainst":3644,"Ġunderbrush":3645,"Ġenvironmental":3646,"Ġpolit":3647,"Ġrepairs":3648,"Ġgrasp":3649,"Ġunpredict":3650,"Ġbony":3651,"Ġshiver":3652,"Ġkay":3653,"Ġseek":3654,"Ġhaircut":3655,"uba":3656,"Ġmiddle":3657,"Ġlifted":3658,"ĠcafÃ©":3659,"Ġintricate":3660,"Ġvideo":3661,"Ġwit":3662,"ator":3663,"owed":3664,"Ġstir":3665,"Ġspee":3666,"Ġscuba":3667,"Ġdeer":3668,"Ġcarried":3669,"Ġskysc":3670,"Ġmetal":3671,"Ġgroceries":3672,"Ġlarger":3673,"Ġtomb":3674,"ĠPe":3675,"Ġrocks":3676,"sharp":3677,"Ġseason":3678,"Ġripp":3679,"Ġauthor":3680,"Ġpizza":3681,"Ġskyscrap":3682,"And":3683,"hip":3684,"Ġsink":3685,"Ġmis":3686,"Ġbag":3687,"Ġharsh":3688,"Ġnur":3689,"Ġfrag":3690,"Ġthemselves":3691,"Ġpractices":3692,"Ġrises":3693,"Ġspecializes":3694,"Ġphysical":3695,"Ġmultip":3696,"aun":3697,"Ġter":3698,"Ġblow":3699,"ĠHer":3700,"Ġalread":3701,"Ġhumanity":3702,"Ġaccomplished":3703,"alyz":3704,"Ġaltar":3705,"ĠEnglish":3706,"Ġalready":3707,"Ġbands":3708,"Ġtor":3709,"Ġunse":3710,"Ġyoung":3711,"Ġpreserve":3712,"Ġinterc":3713,"Ġsnap":3714,"Ġvarious":3715,"Ġhallway":3716,"Ġcent":3717,"icated":3718,"Ġate":3719,"Ġseeing":3720,"icked":3721,"Ġemail":3722,"Ġcollect":3723,"Ġgrowling":3724,"Ġsatisfied":3725,"Ġincredible":3726,"Ġrelationships":3727,"Ġmultiple":3728,"Ġbound":3729,"Ġdun":3730,"Ġpassion":3731,"Ġfrozen":3732,"Ġsleeping":3733,"Ġencoun":3734,"Ġscratch":3735,"Ġmajest":3736,"aim":3737,"aust":3738,"ew":3739,"Ġoat":3740,"Ġcakes":3741,"Ġpreci":3742,"utes":3743,"ants":3744,"Ġtrem":3745,"Ġhairst":3746,"meal":3747,"Ġoatmeal":3748,"Ġfate":3749,"Ġfact":3750,"Ġtoes":3751,"Ġdirt":3752,"ident":3753,"uments":3754,"osystem":3755,"Ġcarry":3756,"Ġbird":3757,"Ġreducing":3758,"Ġinviting":3759,"Ġcultural":3760,"Ġtravelers":3761,"Ġcalming":3762,"Ġpulling":3763,"Ġparents":3764,"Ġtwigs":3765,"Ġecosystem":3766,"Ġobstacles":3767,"Ġdestinations":3768,"Ġinterconnected":3769,"Ġty":3770,"Ġtank":3771,"Ġcoach":3772,"opes":3773,"Ġcraft":3774,"Ġskyline":3775,"Ġinstead":3776,"Ġattention":3777,"Ġcountries":3778,"Ġtraffic":3779,"Ġshapes":3780,"Ġprepared":3781,"'ll":3782,"ps":3783,"Ġtattered":3784,"anical":3785,"Ġgaze":3786,"Ġname":3787,"Ġshares":3788,"Ġank":3789,"Ġskelet":3790,"Ġnote":3791,"Ġslam":3792,"Ġclothing":3793,"Ġdeveloper":3794,"Ġstretching":3795,"Ġcompetes":3796,"rops":3797,"Ġinvigorated":3798,"Ġlevels":3799,"Ġrecipes":3800,"Ġestate":3801,"uals":3802,"Ġtourn":3803,"iless":3804,"Ġflo":3805,"Ġgardens":3806,"Ġsumm":3807,"Ġperspectives":3808,"Ġhistorical":3809,"Ġnewspaper":3810,"Ġprecious":3811,"Ġtournam":3812,"ks":3813,"Ġsipped":3814,"Ġass":3815,"ackle":3816,"Ġentrance":3817,"Ġcommer":3818,"Ġbelong":3819,"Ġconcerts":3820,"Ġsoup":3821,"Ġcustomers":3822,"Ġoverwhelmed":3823,"Ġpaused":3824,"Ġelectrician":3825,"Ġmerciless":3826,"ĠPeople":3827,"eing":3828,"flow":3829,"hine":3830,"inary":3831,"ese":3832,"Ġsunshine":3833,"Ġprovides":3834,"Ġfilms":3835,"Ġobsc":3836,"Ġconversation":3837,"aled":3838,"omach":3839,"Ġstomach":3840,"Ġcock":3841,"kered":3842,"Ġspaces":3843,"Ġreality":3844,"Ġturns":3845,"vely":3846,"ency":3847,"Ġroutine":3848,"ĠSomething":3849,"Ġsells":3850,"Ġspeech":3851,"look":3852,"Ġthreat":3853,"ickered":3854,"Ġrays":3855,"Ġshivers":3856,"ability":3857,"aps":3858,"alking":3859,"Ġflickered":3860,"Ġcontro":3861,"Ġapproach":3862,"Ġwilling":3863,"Ġpursu":3864,"Ġcollapsed":3865,"Nature":3866,"Ġast":3867,"Ġfaster":3868,"ato":3869,"Ġhur":3870,"Ġlying":3871,"Ġlined":3872,"Ġareas":3873,"Ġbutter":3874,"Ġensure":3875,"fully":3876,"Ġapplic":3877,"Ġdesolate":3878,"Ġbrushed":3879,"Ġmanage":3880,"Ġpassport":3881,"Ġexhaust":3882,"Ġspeaker":3883,"Ġoutdoors":3884,"Ġphotography":3885,"Ġminutes":3886,"Ġmercilessly":3887,"You":3888,"cur":3889,"time":3890,"Ġfund":3891,"Ġpost":3892,"Ġtreas":3893,"Ġfinal":3894,"erris":3895,"Ġcleaning":3896,"ificant":3897,"Ġflying":3898,"Ġvictim":3899,"Ġcommercial":3900,"Ġcockt":3901,"Ġcow":3902,"Ġlush":3903,"Ġdoors":3904,"Ġsounded":3905,"Ġbox":3906,"Ġbotanical":3907,"Ġconscious":3908,"Ġtransportation":3909,"Ġtricks":3910,"Ġunseen":3911,"Ġtired":3912,"Ġprou":3913,"Ġpets":3914,"Ġpushing":3915,"Ġgour":3916,"immer":3917,"Ġcry":3918,"Ġcraw":3919,"Ġstarts":3920,"Ġswings":3921,"Ġvisiting":3922,"Ġpasta":3923,"Ġexplored":3924,"Ġmagical":3925,"Ġtowered":3926,"Ġflights":3927,"000":3928,"Ġmeaningful":3929,"Ġinteresting":3930,"Ġchanting":3931,"Ġglimpse":3932,"Ġunexpected":3933,"Ġgrilled":3934,"Ġunpredictable":3935,"Ġencounter":3936,"Ġproud":3937,"gy":3938,"Ġmur":3939,"Ġthank":3940,"Ġge":3941,"ĠSt":3942,"Ġgrin":3943,"orted":3944,"Ġarm":3945,"Ġdelicate":3946,"Ġfootball":3947,"Ġjoin":3948,"Ġawa":3949,"ervation":3950,"Ġattractions":3951,"Ġholid":3952,"uff":3953,"Ġmeat":3954,"agulls":3955,"Ġimpos":3956,"Ġpiercing":3957,"Ġdriving":3958,"Ġtourists":3959,"Ġdonating":3960,"Ġballet":3961,"grown":3962,"Ġcircle":3963,"Ġfulfilling":3964,"Ġpeered":3965,"cri":3966,"Ġsip":3967,"erving":3968,"There":3969,"Ġseat":3970,"Ġgreater":3971,"Ġmarath":3972,"Ġleads":3973,"Ġfarmers":3974,"Ġsearched":3975,"Ġtaste":3976,"Ġcontrol":3977,"curdling":3978,"Ġgourmet":3979,"corn":3980,"iqu":3981,"Ġbol":3982,"Ġstairs":3983,"ista":3984,"Ġupd":3985,"Ġjud":3986,"Ġability":3987,"ender":3988,"Ġrose":3989,"ived":3990,"Ġtext":3991,"Ġcarrying":3992,"anges":3993,"Ġpopcorn":3994,"Ġroller":3995,"Ġreports":3996,"Ġpaddle":3997,"Ġrumors":3998,"Ġcocktails":3999,"giving":4000,"Ġplun":4001,"Ġunable":4002,"Ġovergrown":4003,"Ġdoc":4004,"Ġpreparing":4005,"Ġparched":4006,"ĠSometimes":4007,"uddled":4008,"bon":4009,"omed":4010,"uth":4011,"Ġclut":4012,"Ġtracks":4013,"Ġfrantic":4014,"Ġagent":4015,"Ġdragged":4016,"Ġcolder":4017,"Ġpriv":4018,"Ġspirit":4019,"Ġkey":4020,"Ġinf":4021,"lls":4022,"Ġvines":4023,"Ġlose":4024,"Ġquest":4025,"Ġsettle":4026,"ĠEven":4027,"Ġwooden":4028,"Ġvegetable":4029,"Ġhumans":4030,"Ġcomplete":4031,"Ġcroiss":4032,"Ġmodels":4033,"alyzed":4034,"Ġicy":4035,"Ġwake":4036,"Ġpress":4037,"Ġhumbling":4038,"Ġdil":4039,"Ġgiving":4040,"stones":4041,"ĠSh":4042,"Ġunf":4043,"Ġproduction":4044,"Ġslopes":4045,"Ġimm":4046,"Ġshowc":4047,"Ġdeadlines":4048,"Ġswaying":4049,"Ġgraphic":4050,"flowers":4051,"set":4052,"iny":4053,"elled":4054,"Ġstench":4055,"Ġshaking":4056,"Ġtruth":4057,"Ġhelping":4058,"Ġstruct":4059,"Ġamong":4060,"Ġspec":4061,"Ġfootpr":4062,"repit":4063,"Ġequitable":4064,"Ġclimate":4065,"Ġtransform":4066,"Ġcausing":4067,"Ġankle":4068,"Ġglo":4069,"Ġfloorboard":4070,"Ġthinking":4071,"Ġchanges":4072,"Ġpacked":4073,"Ġhooded":4074,"Ġunwind":4075,"Ġastron":4076,"Ġapplications":4077,"do":4078,"pack":4079,"uge":4080,"ern":4081,"Ġnest":4082,"Ġstaff":4083,"amed":4084,"ĠHowever":4085,"Ġseems":4086,"Ġlocked":4087,"Ġhowled":4088,"Ġcarbon":4089,"ressive":4090,"medi":4091,"Ġrelent":4092,"Ġdecrepit":4093,"rowing":4094,"Ġmonster":4095,"Ġpictures":4096,"Ġarcade":4097,"Ġignore":4098,"Ġstatue":4099,"het":4100,"Ġcertain":4101,"Ġfallen":4102,"Ġhon":4103,"Ġgate":4104,"Ġele":4105,"ution":4106,"Ġreview":4107,"Ġword":4108,"Ġtrad":4109,"Ġunsure":4110,"Ġairpl":4111,"Ġhowling":4112,"ickets":4113,"Ġadorn":4114,"Ġtwink":4115,"Ġstrike":4116,"Ġaccount":4117,"Ġclimbed":4118,"Ġobject":4119,"Ġlandscapes":4120,"Ġilluminated":4121,"Ġsavoring":4122,"Ġadorned":4123,"Ġbark":4124,"Ġlone":4125,"Ġgust":4126,"Ġchur":4127,"Ġcoaster":4128,"Ġnotes":4129,"Ġapps":4130,"Ġstra":4131,"Ġsimplic":4132,"Ġhob":4133,"iction":4134,"Ġmarine":4135,"Ġdepos":4136,"Ġmysteries":4137,"Ġdirect":4138,"ĠYet":4139,"Ġlimbs":4140,"Ġhairstyles":4141,"Ġsimplicity":4142,"bers":4143,"ges":4144,"ma":4145,"Ġcyc":4146,"Ġstar":4147,"Ġrows":4148,"Ġrealm":4149,"Ġquite":4150,"Ġpaths":4151,"Ġwaft":4152,"Ġmeans":4153,"ventually":4154,"Ġcreeping":4155,"Ġdeposit":4156,"Ġgir":4157,"Ġclaim":4158,"oph":4159,"renched":4160,"place":4161,"ĠBefore":4162,"Ġtranquil":4163,"Ġprepare":4164,"Ġoptions":4165,"Ġstraight":4166,"Ġsave":4167,"inging":4168,"Ġhig":4169,"Ġgathered":4170,"Ġrequ":4171,"verall":4172,"Ġund":4173,"Ġsnapping":4174,"Ġwildflowers":4175,"Ġimmedi":4176,"Ġmatters":4177,"Ġhaunt":4178,"Ġsenses":4179,"Ġenveloped":4180,"Ġnostrils":4181,"Ġlucky":4182,"foot":4183,"Ġbas":4184,"aned":4185,"ĠThese":4186,"Ġrather":4187,"Ġintense":4188,"Ġbackpack":4189,"Ġdev":4190,"Ġperformance":4191,"Ġcorrid":4192,"Ġstayed":4193,"Ġcomforting":4194,"Ġweekends":4195,"Ġparalyzed":4196,"Ġsystems":4197,"Ġskyscrapers":4198,"ials":4199,"ky":4200,"Ġwings":4201,"Ġinner":4202,"uries":4203,"irds":4204,"Ġsnacks":4205,"Ġpromise":4206,"Ġcrowded":4207,"Ġbowling":4208,"Ġrooted":4209,"Ġnutrition":4210,"bre":4211,"Ġmater":4212,"Ġfol":4213,"Ġhuddled":4214,"ider":4215,"Ġcanc":4216,"ieved":4217,"Ġdowns":4218,"Ġused":4219,"Ġstrate":4220,"Ġstores":4221,"Ġsnar":4222,"Ġcooks":4223,"Ġscreams":4224,"Ġbaker":4225,"Ġmyster":4226,"Ġleading":4227,"Ġkayaking":4228,"Ġmarathon":4229,"Ġthous":4230,"Ġeating":4231,"eting":4232,"Ġreward":4233,"aks":4234,"Ġorder":4235,"ems":4236,"Ġattack":4237,"Ġburning":4238,"Ġmenacing":4239,"Ġlandscaper":4240,"Ġarrange":4241,"Ġdemon":4242,"Ġlingered":4243,"cended":4244,"Ġfootprint":4245,"tling":4246,"Ġtackle":4247,"Ġwon":4248,"arity":4249,"Ġgut":4250,"Ġstyles":4251,"Ġbeating":4252,"Ġfears":4253,"ilar":4254,"Ġjump":4255,"Ġunfor":4256,"Ġoranges":4257,"Ġneeds":4258,"Ġsmoot":4259,"Ġcryst":4260,"Ġcompre":4261,"Ġtwo":4262,"Ġunderfoot":4263,"Ġglimmer":4264,"Ġfollowers":4265,"Ġcardio":4266,"Ġterrifying":4267,"Ġchurch":4268,"Ġi":4269,"Ġfit":4270,"atory":4271,"Ġpush":4272,"Ġdrenched":4273,"ically":4274,"Ġrit":4275,"aming":4276,"essert":4277,"Ġups":4278,"iling":4279,"Ġamb":4280,"ĠInst":4281,"Ġmedical":4282,"Ġmagaz":4283,"Ġcandles":4284,"Ġfilm":4285,"Ġenthusiasts":4286,"Ġcowork":4287,"Ġsmooth":4288,"under":4289,"Ġpave":4290,"Ġdrove":4291,"Ġdessert":4292,"isher":4293,"ades":4294,"char":4295,"Ġexcept":4296,"Ġlog":4297,"Ġevil":4298,"Ġbrands":4299,"Ġmusicals":4300,"ĠInside":4301,"Ġcourage":4302,"Ġshowing":4303,"Ġdancing":4304,"Ġcompassionate":4305,"Ġmassive":4306,"Ġanticip":4307,"apidated":4308,"Ġfloorboards":4309,"Ġmysterious":4310,"Th":4311,"cue":4312,"Ġten":4313,"Ġhal":4314,"Ġnar":4315,"Ġrechar":4316,"Ġshift":4317,"rible":4318,"Ġparks":4319,"Ġstranger":4320,"ftop":4321,"Ġmanager":4322,"Ġspeaking":4323,"Ġcommunities":4324,"Ġpeacefulness":4325,"Ġwander":4326,"Ġfamiliar":4327,"Ġpurple":4328,"Ġcompetitions":4329,"Ġmotorcycles":4330,"Ġdilapidated":4331,"Ġnutritionist":4332,"fit":4333,"hou":4334,"mall":4335,"heme":4336,"Ġnice":4337,"Ġnecess":4338,"Ġworst":4339,"Ġlively":4340,"Ġscheme":4341,"Ġdiscovered":4342,"ĠOverall":4343,"Ġsilhou":4344,"Ġlanguages":4345,"Ġthrive":4346,"Ġmotivational":4347,"Ġattended":4348,"Ġrooftop":4349,"Ġdedicated":4350,"Ġdunes":4351,"Ġfrantically":4352,"Ġpavement":4353,"Ġsilhouet":4354,"ek":4355,"gers":4356,"hile":4357,"lf":4358,"Ġsan":4359,"Ġoper":4360,"Ġbart":4361,"owing":4362,"owned":4363,"ĠAfterwards":4364,"Ġpoet":4365,"Ġcompanies":4366,"Ġfascinating":4367,"Ġairplanes":4368,"Ġsipping":4369,"Ġcalls":4370,"Ġfled":4371,"Ġinform":4372,"Ġbeings":4373,"imate":4374,"ppings":4375,"Ġleg":4376,"Ġjum":4377,"Ġbacked":4378,"Ġhelped":4379,"Ġjustice":4380,"Ġadult":4381,"Ġwaterf":4382,"Ġweights":4383,"Ġpiece":4384,"Ġharmony":4385,"Ġbartender":4386,"ole":4387,"Ġtiny":4388,"Ġdiv":4389,"ision":4390,"omb":4391,"Ġstudent":4392,"Ġhappen":4393,"Ġvisited":4394,"Ġinspire":4395,"Ġpod":4396,"Ġprofound":4397,"Ġghosts":4398,"Ġcrowd":4399,"Ġblew":4400,"Ġpublished":4401,"Ġrotting":4402,"Ġarrangements":4403,"Ġaf":4404,"Ġsay":4405,"Ġcot":4406,"Ġreleas":4407,"ĠAll":4408,"Ġchair":4409,"Ġspark":4410,"Ġbrown":4411,"Ġbrainst":4412,"Ġwrap":4413,"azz":4414,"Ġapproaching":4415,"ĠBirds":4416,"Ġfiref":4417,"Ġchoices":4418,"Ġbackgrounds":4419,"Ġroof":4420,"Ġcrystal":4421,"Ġce":4422,"Ġcross":4423,"ison":4424,"iration":4425,"Ġclarity":4426,"Ġkno":4427,"izations":4428,"Ġseaf":4429,"ertaint":4430,"Ġcountless":4431,"Ġboarded":4432,"Ġsupporting":4433,"Ġpools":4434,"Ġcandle":4435,"Ġaccessories":4436,"Ġskeletal":4437,"Ġslammed":4438,"Ġfirefight":4439,"iage":4440,"ĠV":4441,"Ġwore":4442,"Ġcam":4443,"Ġbad":4444,"Ġpaper":4445,"Ġstared":4446,"rig":4447,"ctu":4448,"Ġcouples":4449,"Ġspin":4450,"Ġseagulls":4451,"Ġdarker":4452,"Ġboating":4453,"Ġrefused":4454,"Ġcultiv":4455,"Ġbestsel":4456,"ĠThat":4457,"Ġwandering":4458,"Ġilluminating":4459,"Ġexams":4460,"Ġservice":4461,"Ġtrembling":4462,"Ġspecies":4463,"Ġnestled":4464,"Ġwafted":4465,"Ġimmediately":4466,"Ġcancer":4467,"iance":4468,"Ġfisher":4469,"Ġstyle":4470,"Ġfort":4471,"Ġclassical":4472,"Ġgoodby":4473,"Ġvend":4474,"Ġtwists":4475,"sible":4476,"Ġadvanced":4477,"Ġbringing":4478,"Ġtomato":4479,"Ġexists":4480,"Ġcandy":4481,"Ġdesperate":4482,"Ġportra":4483,"Ġmachines":4484,"Ġfoliage":4485,"Ġrecharge":4486,"Ġcott":4487,"Of":4488,"Ġtables":4489,"Ġfair":4490,"Ġlift":4491,"Ġthrowing":4492,"road":4493,"ards":4494,"Ġflor":4495,"Ġfixt":4496,"Ġappreciation":4497,"Ġsoftly":4498,"Ġhopes":4499,"Ġtraveling":4500,"Ġelectr":4501,"Ġmirror":4502,"Ġfixtures":4503,"lers":4504,"not":4505,"zes":4506,"Ġmiles":4507,"Ġfade":4508,"acity":4509,"Ġasked":4510,"aining":4511,"Ġoutfits":4512,"Ġseeking":4513,"Ġcreative":4514,"ively":4515,"Ġdesign":4516,"angers":4517,"Ġlightning":4518,"Ġmusc":4519,"umber":4520,"Ġpoll":4521,"Ġfireplace":4522,"raid":4523,"Ġsolace":4524,"Ġdrawing":4525,"Ġawoke":4526,"Ġtightly":4527,"Ġindividual":4528,"Ġindividuals":4529,"Ġcrucial":4530,"Ġsinking":4531,"Ġseafood":4532,"Ġfirefighter":4533,"Ġtax":4534,"Ġtelling":4535,"Ġsoak":4536,"Ġprocess":4537,"Ġappar":4538,"Ġcontrib":4539,"Ġnoises":4540,"Ġperse":4541,"Ġhandmade":4542,"Ġstead":4543,"Ġsurfer":4544,"Ġshelves":4545,"Ġfully":4546,"Ġcuisines":4547,"Ġpalm":4548,"Ġcounsel":4549,"However":4550,"cl":4551,"ĠâĢ":4552,"Ġtoppings":4553,"Ġpu":4554,"Ġpor":4555,"Ġthr":4556,"Ġnon":4557,"tery":4558,"ĠWhat":4559,"Ġdeal":4560,"Ġsomewhere":4561,"iven":4562,"Ġtouched":4563,"Ġuncertaint":4564,"Ġcommunication":4565,"ses":4566,"ux":4567,"Ġsle":4568,"Ġcine":4569,"Ġgates":4570,"Ġragged":4571,"Ġrushing":4572,"Ġsharing":4573,"anding":4574,"Ġgoes":4575,"Ġenjoyable":4576,"Ġrespite":4577,"Ġmuseums":4578,"Ġorganic":4579,"Ġdecaying":4580,"Ġtreats":4581,"Ġfleeting":4582,"Ġcapacity":4583,"Ġskilled":4584,"Ġforgotten":4585,"Ġterrible":4586,"Ġupdate":4587,"Ġnarrow":4588,"Ġafraid":4589,"Ġaff":4590,"Ġmad":4591,"Ġmine":4592,"asy":4593,"Ġshattered":4594,"Ġtrack":4595,"usion":4596,"Ġfris":4597,"ended":4598,"Ġchildhood":4599,"Ġbarista":4600,"Ġprizes":4601,"Ġchoosing":4602,"Ġordinary":4603,"Ġurge":4604,"Ġcoworkers":4605,"back":4606,"Ġ5":4607,"Ġtap":4608,"ino":4609,"Ġmaint":4610,"Ġlux":4611,"rous":4612,"Ġgolf":4613,"agging":4614,"Ġinstinct":4615,"Ġcampa":4616,"Ġwondering":4617,"ĠWithout":4618,"ĠPanic":4619,"Ġclimb":4620,"ĠJapan":4621,"Ġphotographer":4622,"Ġtrendy":4623,"Ġblowing":4624,"..":4625,"haps":4626,"men":4627,"sy":4628,"Ġsail":4629,"Ġfacing":4630,"Ġgle":4631,"ado":4632,"Ġmere":4633,"sect":4634,"Ġshark":4635,"Ġcrab":4636,"Ġended":4637,"Ġacts":4638,"Ġexciting":4639,"Ġbeginners":4640,"Ġcleaned":4641,"Ġprovide":4642,"Ġscratching":4643,"Ġblend":4644,"Ġsurvive":4645,"Ġlazy":4646,"Ġessential":4647,"Ġobscured":4648,"Ġanticipation":4649,"Ġcinema":4650,"bust":4651,"land":4652,"lifting":4653,"Ġmaster":4654,"Ġgives":4655,"Ġshook":4656,"key":4657,"Ġtruck":4658,"astic":4659,"Ġspl":4660,"away":4661,"Ġroots":4662,"Ġhorse":4663,"Ġtwisting":4664,"Ġterrain":4665,"Ġbecause":4666,"Ġexploration":4667,"Ġominously":4668,"Ġcrunch":4669,"Ġcreaky":4670,"ai":4671,"lt":4672,"oon":4673,"Ġbone":4674,"Ġtoys":4675,"ashed":4676,"Ġpour":4677,"anch":4678,"Ġupgr":4679,"Ġallows":4680,"ĠAsia":4681,"Ġrole":4682,"Ġowns":4683,"Ġminds":4684,"Ġguest":4685,"Ġwonderful":4686,"Ġloun":4687,"Ġengage":4688,"Ġbarren":4689,"Ġinspired":4690,"Ġinspiration":4691,"Ġfixed":4692,"Ġvalues":4693,"Ġlabor":4694,"Ġdangerous":4695,"Ġinsign":4696,"Ġantique":4697,"Ġmajor":4698,"Ġcapable":4699,"Ġemerging":4700,"Ġwitch":4701,"Ġripple":4702,"iques":4703,"Ġpaddleboard":4704,"Ġcorridors":4705,"Ġunforgiving":4706,"Ġelectrical":4707,"iel":4708,"ti":4709,"Ġsac":4710,"Ġoil":4711,"Ġmil":4712,"ester":4713,"Ġthunder":4714,"Ġgiant":4715,"vering":4716,"Ġvill":4717,"Ġtrap":4718,"Ġunnatural":4719,"Ġoverlook":4720,"Ġmanages":4721,"umble":4722,"Ġsimpl":4723,"Ġtheme":4724,"Ġsurfing":4725,"Ġimagined":4726,"Ġblockbust":4727,"Ġsickly":4728,"Ġplunged":4729,"Ġambiance":4730,"Ġpodcast":4731,"ĠâĢĵ":4732,"oid":4733,"Ġ2":4734,"Ġfaced":4735,"usole":4736,"Ġseeming":4737,"Ġfinances":4738,"Ġadvises":4739,"Ġmausole":4740,"Ġoccur":4741,"Ġchoice":4742,"Ġloudly":4743,"Ġimpossible":4744,"Ġmausoleum":4745,"balls":4746,"Ġsigns":4747,"Ġbared":4748,"Ġrushed":4749,"amm":4750,"Ġlikes":4751,"aws":4752,"cking":4753,"Ġbraced":4754,"Ġstartup":4755,"Ġsheer":4756,"Ġdeli":4757,"Ġcatches":4758,"Ġbedroom":4759,"Ġsales":4760,"Ġexcell":4761,"Ġpresentation":4762,"Ġpattern":4763,"Ġgenres":4764,"Ġpossibility":4765,"formed":4766,"Ġinequ":4767,"Ġentertainment":4768,"Ġholidays":4769,"Ġflorist":4770,"Ġupgrade":4771,"bee":4772,"sess":4773,"Ġfou":4774,"ormed":4775,"Ġoffe":4776,"Ġgiven":4777,"ĠHis":4778,"Ġexact":4779,"Ġgrazing":4780,"Ġspect":4781,"Ġspag":4782,"Ġtripping":4783,"Ġgetaway":4784,"Ġboat":4785,"Ġboats":4786,"Ġbrief":4787,"Ġpossess":4788,"Ġeventually":4789,"Ġwondered":4790,"Ġavoc":4791,"Ġinvigorating":4792,"Ġresponded":4793,"Ġsquirrels":4794,"Ġbudget":4795,"Ġcroissant":4796,"hetti":4797,"Ġadults":4798,"Ġporch":4799,"Ġluxur":4800,"sych":4801,"Ġoffered":4802,"Ġspaghetti":4803,"ex":4804,"pan":4805,"Ġ1":4806,"hest":4807,"Ġsau":4808,"Ġburn":4809,"Ġdiving":4810,"Then":4811,"ether":4812,"Ġround":4813,"antly":4814,"allow":4815,"Ġexpect":4816,"Ġjazz":4817,"Ġabs":4818,"Ġdescended":4819,"Ġdiss":4820,"Ġwrong":4821,"ĠFerris":4822,"Ġreflecting":4823,"Ġtasting":4824,"Ġhistoric":4825,"Ġemotional":4826,"Ġroasted":4827,"Ġaccomplishment":4828,"cript":4829,"Ġfortun":4830,"Ġuncertainty":4831,"Ġavocado":4832,"Ġtrou":4833,"aline":4834,"Ġbeats":4835,"Ġunset":4836,"renaline":4837,"Ġremained":4838,"Ġbreaking":4839,"Ġdistur":4840,"inese":4841,"Ġskiing":4842,"Ġmarketing":4843,"Ġweeks":4844,"Ġpottery":4845,"Ġeducation":4846,"ĠChinese":4847,"Ġcrypt":4848,"Ġvendors":4849,"Ġfrisbee":4850,"That":4851,"lies":4852,"nel":4853,"ront":4854,"yss":4855,"Ġer":4856,"Ġtool":4857,"Ġpan":4858,"Ġpsych":4859,"Ġdig":4860,"Ġgar":4861,"Ġrece":4862,"Ġbear":4863,"Ġheels":4864,"arded":4865,"Ġintens":4866,"Ġsunny":4867,"Ġabyss":4868,"rench":4869,"Ġbuzz":4870,"Ġbranch":4871,"Ġpray":4872,"hension":4873,"Ġchirp":4874,"Ġliter":4875,"Ġmovements":4876,"Ġstock":4877,"Ġbarbe":4878,"Ġidea":4879,"Ġactivity":4880,"Ġsprinted":4881,"Ġadmire":4882,"Ġreplied":4883,"Ġinclud":4884,"Ġhigher":4885,"Ġritual":4886,"Ġmagazines":4887,"book":4888,"fire":4889,"fric":4890,"how":4891,"Ġerr":4892,"ina":4893,"Ġpine":4894,"ified":4895,"Ġwearing":4896,"ĠSome":4897,"ĠAfric":4898,"aved":4899,"ivals":4900,"Ġcrash":4901,"Ġdecor":4902,"Ġdeeply":4903,"Ġknown":4904,"Ġheading":4905,"Ġperformers":4906,"Ġfoods":4907,"Ġexhilar":4908,"Ġguides":4909,"Ġsince":4910,"Ġweightlifting":4911,"ularly":4912,"Ġprey":4913,"Ġconnections":4914,"Ġencour":4915,"Ġbouqu":4916,"Ġroutines":4917,"Ġvenue":4918,"Ġrelentlessly":4919,"Ġsanctu":4920,"Ġcounselor":4921,"Ġexcellent":4922,"Ġunsettling":4923,"Ġsanctuary":4924,"ho":4925,"ration":4926,"Ġsaving":4927,"Ġmal":4928,"Ġinsect":4929,"Ġgest":4930,"adow":4931,"Ġitems":4932,"Ġexit":4933,"Ġgrows":4934,"Ġconv":4935,"Ġconferen":4936,"aped":4937,"Ġbless":4938,"Ġbegun":4939,"Ġspeed":4940,"Ġpersist":4941,"Ġlunchtime":4942,"Ġvolunteers":4943,"Ġstruggling":4944,"Ġpositivity":4945,"Ġsupernatural":4946,"Ġcurrently":4947,"Ġcrafts":4948,"Ġhalf":4949,"Ġinsignificant":4950,"bl":4951,"Ġmarsh":4952,"Ġhabit":4953,"ism":4954,"Ġgather":4955,"Ġforth":4956,"akable":4957,"anth":4958,"Ġtrust":4959,"Ġgraves":4960,"ogether":4961,"Ġartis":4962,"Ġago":4963,"Ġadded":4964,"Ġknife":4965,"Ġuneasy":4966,"Ġcheckup":4967,"Ġpinks":4968,"Ġreflected":4969,"Ġsolitude":4970,"Ġrocky":4971,"Ġadmiring":4972,"Ġdarting":4973,"Ġlazily":4974,"Ġmajestic":4975,"Ġrewarding":4976,"Ġmuscles":4977,"Ġsauce":4978,"Ġmarshmall":4979,"iences":4980,"lor":4981,"Ġver":4982,"inting":4983,"erves":4984,"ishes":4985,"Ġanal":4986,"ulation":4987,"Ġchairs":4988,"umph":4989,"Ġwhy":4990,"Ġrob":4991,"Ġtriumph":4992,"Ġblur":4993,"Ġadrenaline":4994,"Ġwherever":4995,"Ġwrote":4996,"Ġenter":4997,"Ġparties":4998,"Ġselling":4999,"Ġtravels":5000,"Ġincre":5001,"Ġstruggle":5002,"Ġretreat":5003,"Ġsatisfying":5004,"Ġemotions":5005,"Ġwelcome":5006,"Ġsuffoc":5007,"Ġnurse":5008,"Ġtreasure":5009,"Ġgirl":5010,"Ġlogos":5011,"Ġnecessary":5012,"Ġinformation":5013,"Ġexactly":5014,"rup":5015,"omy":5016,"Ġlived":5017,"Ġcost":5018,"Ġjol":5019,"ably":5020,"Ġsold":5021,"Ġbreaths":5022,"Ġdrank":5023,"Ġslowed":5024,"Ġcurious":5025,"Ġtraveler":5026,"Ġbott":5027,"Ġconservation":5028,"Ġmagn":5029,"Ġpatio":5030,"Ġhardsh":5031,"Ġmelod":5032,"Ġmonths":5033,"Ġsensation":5034,"Ġaudience":5035,"Ġsquirrel":5036,"Ġsummit":5037,"Ġmeatballs":5038,"Ġpollution":5039,"esterday":5040,"Ġartisan":5041,"She":5042,"water":5043,"Ġ3":5044,"Ġtend":5045,"Ġsister":5046,"asing":5047,"Ġlanes":5048,"utions":5049,"iches":5050,"unting":5051,"Ġshot":5052,"uman":5053,"Ġintent":5054,"Ġhowl":5055,"Ġsew":5056,"Ġmusical":5057,"Ġpreserving":5058,"Ġease":5059,"ĠOur":5060,"Ġsouls":5061,"Ġfestivals":5062,"Ġtours":5063,"Ġchatter":5064,"Ġgeese":5065,"Ġshowcases":5066,"Ġmarshmallows":5067,"tural":5068,"Ġage":5069,"Ġisn":5070,"Ġadapt":5071,"Ġopening":5072,"Ġpartic":5073,"Ġchirped":5074,"Ġslight":5075,"Ġrememb":5076,"Ġbottle":5077,"Ġmarried":5078,"Ġdaunting":5079,"Ġputting":5080,"Ġgasped":5081,"Ġpromotes":5082,"Ġchatting":5083,"Ġsecret":5084,"Ġchased":5085,"Ġtransported":5086,"Ġpolitics":5087,"Ġfactory":5088,"Ġfundra":5089,"Ġguttural":5090,"Ġfishermen":5091,"ĠAfrica":5092,"dies":5093,"ker":5094,"ns":5095,"Ġsigh":5096,"ithing":5097,"Ġneare":5098,"ume":5099,"Ġoutline":5100,"osaur":5101,"Ġscan":5102,"Ġagony":5103,"Ġwrithing":5104,"Ġdinosaur":5105,"Ġbrill":5106,"Ġflowing":5107,"Ġslipping":5108,"Ġexperiment":5109,"Without":5110,"Ġaudiences":5111,"Ġinhabit":5112,"Ġcloaked":5113,"Ġguests":5114,"case":5115,"friend":5116,"wr":5117,"orient":5118,"Ġanx":5119,"Ġcoat":5120,"Ġgrav":5121,"Ġscur":5122,"Ġgoal":5123,"Ġsomehow":5124,"Ġherbs":5125,"Ġbodies":5126,"Ġdrifted":5127,"ĠFrench":5128,"Ġinstalls":5129,"ancy":5130,"afting":5131,"Ġpounded":5132,"Ġcollege":5133,"Ġbigger":5134,"Ġdepart":5135,"ĠGr":5136,"Ġpicture":5137,"Ġfascinated":5138,"Ġprivile":5139,"Ġcoasters":5140,"Ġsteady":5141,"Ġlaboratory":5142,"Ġtiles":5143,"Ġches":5144,"edom":5145,"Ġdi":5146,"Ġnet":5147,"Ġstair":5148,"Ġum":5149,"Ġships":5150,"Ġshaken":5151,"Ġang":5152,"ĠSat":5153,"Ġboots":5154,"Ġcommute":5155,"Ġmarkings":5156,"Ġefforts":5157,"Ġhunger":5158,"Ġvalu":5159,"Ġflew":5160,"Ġfading":5161,"Ġeffects":5162,"Ġsavored":5163,"Ġcenturies":5164,"Ġtournament":5165,"Ġanalyst":5166,"Ġbrilliant":5167,"Ġchess":5168,"like":5169,"now":5170,"inal":5171,"oured":5172,"Ġhat":5173,"urday":5174,"Ġmeadow":5175,"imately":5176,"right":5177,"Ġjew":5178,"Ġcreativity":5179,"Ġdoomed":5180,"Ġdarkest":5181,"Ġdisorient":5182,"Ġveins":5183,"Ġoceans":5184,"Ġeerily":5185,"Ġholds":5186,"Ġyourself":5187,"Ġphoto":5188,"Ġsandwiches":5189,"Ġcrashed":5190,"Ġspring":5191,"Ġfulfillment":5192,"Ġbiologist":5193,"Ġreplaced":5194,"Ġvenues":5195,"Ġtune":5196,"Ġfreedom":5197,"Ġtyp":5198,"Ġbolted":5199,"Ġhobby":5200,"brell":5201,"Ġcultivate":5202,"Ġbarbecue":5203,"friendly":5204,"Ġumbrell":5205,"ĠSaturday":5206,"For":5207,"One":5208,"pie":5209,"val":5210,"Ġod":5211,"Ġcities":5212,"itting":5213,"Ġhy":5214,"iser":5215,"ading":5216,"Ġshifting":5217,"Ġscree":5218,"Ġcreated":5219,"cially":5220,"aging":5221,"Ġsealed":5222,"Ġcorners":5223,"Ġletting":5224,"Ġreco":5225,"Ġdeadline":5226,"Ġsustainability":5227,"Ġflee":5228,"Ġalleyway":5229,"Ġdefend":5230,"Ġbaseball":5231,"Ġdocument":5232,"Ġportraits":5233,"Ġconference":5234,"bles":5235,"ucc":5236,"Ġpred":5237,"Ġhanging":5238,"Ġbecoming":5239,"Ġworn":5240,"Ġpeeling":5241,"Ġcanop":5242,"Ġwrapped":5243,"Ġparticip":5244,"ĠCl":5245,"Ġsandy":5246,"Ġpleasure":5247,"Ġplanetarium":5248,"Ġtough":5249,"Ġnightmares":5250,"Ġparlor":5251,"Ġprovided":5252,"Ġresponsibilities":5253,"Ġmassages":5254,"Ġcaptures":5255,"orders":5256,"Ġarray":5257,"Ġlineup":5258,"Ġoppressive":5259,"Ġrejuvenated":5260,"Ġinterconnectedness":5261,"Ġsilhouette":5262,"Ġgoodbye":5263,"ltimately":5264,"Yet":5265,"Ġbes":5266,"Ġraces":5267,"Ġherself":5268,"Ġplayer":5269,"Ġcrickets":5270,"Ġplanner":5271,"Ġadvers":5272,"Ġhollow":5273,"spiring":5274,"Ġespe":5275,"Ġsmells":5276,"Ġwebsite":5277,"Ġpeek":5278,"Ġsurvival":5279,"Ġlawy":5280,"Ġbasement":5281,"Ġsupplies":5282,"Ġtombstones":5283,"Ġawaited":5284,"Ġjudge":5285,"Ġstructure":5286,"Ġmaterial":5287,"This":5288,"Ġapparition":5289,"Ġartisanal":5290,"Ġvaluable":5291,"Ġespecially":5292,"backs":5293,"fly":5294,"yr":5295,"Ġack":5296,"Ġpanic":5297,"aries":5298,"Ġhing":5299,"Ġdue":5300,"acy":5301,"Ġreact":5302,"Ġrice":5303,"Ġweap":5304,"Ġshudd":5305,"Ġshifted":5306,"aven":5307,"icking":5308,"Ġcontr":5309,"ression":5310,"Ġdish":5311,"Ġdistract":5312,"spe":5313,"ugged":5314,"Ġshoots":5315,"Ġwritten":5316,"Ġtwinkle":5317,"Ġthousands":5318,"Ġwaterfall":5319,"Ġsacr":5320,"Ġvillage":5321,"Ġinsects":5322,"Ġblessings":5323,"Ġsuffocating":5324,"Ġcanopy":5325,"Ġacknow":5326,"een":5327,"gu":5328,"Ġbon":5329,"ither":5330,"alian":5331,"Ġforces":5332,"usive":5333,"Ġwaters":5334,"Ġskate":5335,"Ġcloset":5336,"Ġdata":5337,"Ġinterview":5338,"Ġperforming":5339,"Ġcampus":5340,"ĠOne":5341,"Ġadvance":5342,"Ġdrive":5343,"Ġinstruments":5344,"Ġcharac":5345,"Ġmisty":5346,"Ġfinger":5347,"Ġarchitecture":5348,"Ġathlet":5349,"chet":5350,"Ġhungry":5351,"Ġcomplexity":5352,"Ġarticle":5353,"Ġadvocate":5354,"Ġtrends":5355,"Ġjumped":5356,"Ġbouquets":5357,"Ġadversity":5358,"Ġhinges":5359,"?\"":5360,"mon":5361,"Ġcack":5362,"erly":5363,"Ġetern":5364,"ective":5365,"Ġflavor":5366,"Ġaccept":5367,"Ġknows":5368,"Ġpassions":5369,"Ġpharm":5370,"Ġbelief":5371,"Ġanyone":5372,"Ġnearly":5373,"Ġdriven":5374,"Ġgripped":5375,"sharing":5376,"Ġflicker":5377,"Ġanswer":5378,"Ġblindly":5379,"Ġstrategy":5380,"Ġrobes":5381,"Ġjewel":5382,"Ġeternity":5383,"gest":5384,"Ġow":5385,"Ġban":5386,"oring":5387,"Ġpage":5388,"aches":5389,"Ġrad":5390,"Ġchap":5391,"ĠItalian":5392,"Ġjack":5393,"Ġdod":5394,"Ġsetbacks":5395,"Ġhappening":5396,"Ġwaited":5397,"Ġsolutions":5398,"Ġraised":5399,"Ġinvestig":5400,"Ġoccasions":5401,"Ġtreatments":5402,"Ġnavig":5403,"Ġblocking":5404,"Ġwitnessed":5405,"Ġpulse":5406,"Ġtunnel":5407,"Ġcracked":5408,"Ġbutterfly":5409,"Ġsnarling":5410,"ĠInstead":5411,"Ġdesserts":5412,"Ġfought":5413,"Ġlawyer":5414,"earing":5415,"pting":5416,"Ġcell":5417,"Ġcries":5418,"ashing":5419,"Ġlull":5420,"Ġeld":5421,"Ġstones":5422,"Ġstained":5423,"icate":5424,"Ġcham":5425,"Ġchamp":5426,"Ġleapt":5427,"ils":5428,"Ġscattered":5429,"Ġroar":5430,"Ġflut":5431,"Ġcompose":5432,"Ġdistorted":5433,"Ġcats":5434,"Ġcurt":5435,"comm":5436,"Ġsalon":5437,"Ġexperiencing":5438,"Ġbegins":5439,"Ġmotion":5440,"Ġmelted":5441,"Ġpaints":5442,"Ġoccasion":5443,"Ġinhuman":5444,"Ġmilk":5445,"Ġinequality":5446,"Ġerrands":5447,"Ġremembered":5448,"Ġgravest":5449,"Ġbeside":5450,"covered":5451,"Ġtail":5452,"ased":5453,"Ġstark":5454,"Ġreas":5455,"aky":5456,"amil":5457,"Ġlips":5458,"osing":5459,"oses":5460,"Ġoverall":5461,"Ġdew":5462,"Ġappl":5463,"Ġtrek":5464,"Ġcrumbling":5465,"Ġsmallest":5466,"Ġpassen":5467,"Ġdisconnect":5468,"Ġgardener":5469,"ĠDJ":5470,"Ġthicker":5471,"Ġpopulation":5472,"Ġemerge":5473,"Ġwindowsill":5474,"Ġneighbors":5475,"ĠYou":5476,"Ġcollab":5477,"ĠChina":5478,"Ġclowns":5479,"Ġrental":5480,"Ġpublishes":5481,"Ġbrainstormed":5482,"Ġmasterpie":5483,"Ġpouring":5484,"Ġlounge":5485,"Ġfortunate":5486,"Ġliterature":5487,"Ġrecoiled":5488,"Ġshuddered":5489,"found":5490,"hs":5491,"pair":5492,"ĠU":5493,"inspiring":5494,"Ġmoss":5495,"Ġfail":5496,"esmer":5497,"Ġgazing":5498,"stone":5499,"Ġrecomm":5500,"icies":5501,"Ġru":5502,"ppucc":5503,"Ġleather":5504,"awn":5505,"Ġappear":5506,"Ġsmoke":5507,"anged":5508,"ountered":5509,"Ġcommut":5510,"Ġphil":5511,"Ġcounts":5512,"Ġcappucc":5513,"Ġsouven":5514,"Ġuncertain":5515,"Ġlifeless":5516,"Ġtransl":5517,"Ġencountered":5518,"Ġmotivated":5519,"Ġpitch":5520,"Ġsnowboarding":5521,"Ġtournaments":5522,"Ġpursuing":5523,"Ġexhausted":5524,"Ġengagement":5525,"Ġsimplest":5526,"Ġseemingly":5527,"Ġoccurren":5528,"writ":5529,"Ġcontrast":5530,"Ġjewelry":5531,"Ġsouvenir":5532,"sm":5533,"Ġmut":5534,"Ġbite":5535,"Ġped":5536,"Ġdip":5537,"Ġwaste":5538,"sequ":5539,"ctic":5540,"ept":5541,"Ġdespair":5542,"Ġbeautifully":5543,"Ġcurse":5544,"Ġmedic":5545,"Ġconsult":5546,"Ġshoulders":5547,"Ġjokes":5548,"Ġjogging":5549,"Ġprotecting":5550,"market":5551,"Ġpolicies":5552,"Ġmagician":5553,"Ġmessage":5554,"Ġresilient":5555,"Ġbowl":5556,"Ġdetails":5557,"Ġsupermarket":5558,"ophone":5559,"Ġbestsellers":5560,"Ġcrabbing":5561,"Ġpatterns":5562,"Ġslightly":5563,"Ġfundraiser":5564,"'d":5565,"To":5566,"overy":5567,"ral":5568,"Ġaware":5569,"Ġsax":5570,"isor":5571,"amic":5572,"Ġexch":5573,"Ġwhipped":5574,"aping":5575,"Ġnewfound":5576,"Ġhelpless":5577,"Ġflames":5578,"Ġfloors":5579,"arming":5580,"Ġhiked":5581,"ĠEventually":5582,"Ġcommit":5583,"Ġinstrument":5584,"Ġshowered":5585,"ĠNo":5586,"Ġgreenery":5587,"Ġchilling":5588,"Ġadopt":5589,"Ġdisappear":5590,"Ġcloudy":5591,"Ġecon":5592,"Ġpursue":5593,"Ġsubway":5594,"Ġmixes":5595,"Ġdarted":5596,"Ġentirely":5597,"Ġposts":5598,"Ġclaimed":5599,"Ġcottage":5600,"Ġrounded":5601,"Ġincluding":5602,"Ġdisoriented":5603,"Ġsacrif":5604,"Ġelderly":5605,"Ġoccurrences":5606,"jar":5607,"inth":5608,"Ġsings":5609,"Ġok":5610,"Ġpoun":5611,"Ġdro":5612,"Ġplastic":5613,"Ġconsequ":5614,"never":5615,"Ġdism":5616,"Ġquality":5617,"Ġswir":5618,"Ġrelieved":5619,"akespe":5620,"ucked":5621,"Ġsandcast":5622,"Ġgardening":5623,"Ġbarri":5624,"Ġmarg":5625,"Ġsidewalk":5626,"Ġrepres":5627,"Ġcrowds":5628,"Ġcaptiv":5629,"Ġdisplays":5630,"Ġdoesn":5631,"Ġsaved":5632,"Ġinjust":5633,"Ġbags":5634,"Ġunfamil":5635,"Ġbackpacking":5636,"Ġstaircase":5637,"Ġconsultant":5638,"akespeare":5639,"Ġunfamiliar":5640,"Somet":5641,"pro":5642,"Ġaim":5643,"Ġmesmer":5644,"Ġcore":5645,"Ġfans":5646,"Ġbomb":5647,"Ġstalking":5648,"Ġbeam":5649,"verance":5650,"Ġshout":5651,"Ġcontorted":5652,"Ġnose":5653,"Ġartwork":5654,"Ġunderg":5655,"Ġsnapped":5656,"Ġactress":5657,"Ġlayer":5658,"Ġpoint":5659,"Ġshaped":5660,"Ġembracing":5661,"Ġdonate":5662,"Ġraind":5663,"Ġfluff":5664,"Ġconsume":5665,"Ġurg":5666,"Ġdesperation":5667,"Ġecosystems":5668,"ĠShakespeare":5669,"Ġceiling":5670,"class":5671,"Ġreceived":5672,"ĠClimate":5673,"Ġjudgement":5674,"Ġpassengers":5675,"Ġsaxophone":5676,"Before":5677,"just":5678,"Ġajar":5679,"Ġpen":5680,"ara":5681,"Ġhar":5682,"Ġhectic":5683,"ament":5684,"ulf":5685,"Ġvine":5686,"Ġhadn":5687,"Ġleaned":5688,"Ġunspe":5689,"Ġremain":5690,"Ġremains":5691,"Ġforehead":5692,"Ġoffering":5693,"Ġrusty":5694,"Ġcarefree":5695,"Ġgrounding":5696,"Ġstepping":5697,"Ġveil":5698,"Ġfunction":5699,"Ġindust":5700,"Ġhitting":5701,"Ġunlo":5702,"Ġcrochet":5703,"Ġaddress":5704,"uffling":5705,"Ġcomprehension":5706,"Ġperseverance":5707,"Ġblockbuster":5708,"Ġburned":5709,"fry":5710,"Ġfumbled":5711,"Ġbars":5712,"Ġhuge":5713,"Ġloo":5714,"Ġlapping":5715,"Ġringing":5716,"ĠAn":5717,"ĠAr":5718,"anting":5719,"Ġvint":5720,"Ġchil":5721,"Ġkne":5722,"Ġlifegu":5723,"Ġtriath":5724,"Ġdisorders":5725,"Ġcompelled":5726,"Ġcheese":5727,"Ġhearts":5728,"Ġsilver":5729,"Ġpurples":5730,"rowth":5731,"Ġorganize":5732,"Ġachie":5733,"Ġlifting":5734,"Ġexistence":5735,"Ġinvestments":5736,"Ġturkey":5737,"Ġavid":5738,"Ġconfident":5739,"Ġmonstrous":5740,"Ġpoetry":5741,"Ġ50":5742,"Ġmalice":5743,"Ġmagnific":5744,"Ġweapon":5745,"Ġchampions":5746,"Ġcurtains":5747,"Ġfluffy":5748,"Ġunspeakable":5749,"Ġtriathl":5750,"Ġtag":5751,"Ġsaves":5752,"Ġfa":5753,"Ġpoured":5754,"Ġlines":5755,"Ġforms":5756,"ores":5757,"Ġtrun":5758,"osed":5759,"Ġallow":5760,"Ġovert":5761,"renowned":5762,"Ġwheat":5763,"Ġembers":5764,"Ġfiery":5765,"Ġcastle":5766,"ĠTogether":5767,"Ġserve":5768,"body":5769,"Ġrisks":5770,"Ġhallways":5771,"Ġteams":5772,"Ġresearching":5773,"Ġgalleries":5774,"Ġlifest":5775,"Ġchoir":5776,"Ġadmired":5777,"Ġcounter":5778,"Ġinjured":5779,"Ġhaircuts":5780,"Ġmajesty":5781,"Ġquestions":5782,"Ġrequires":5783,"Ġluxury":5784,"Ġdissip":5785,"Ġconvin":5786,"Ġokay":5787,"Ġconsequences":5788,"Ġraindrops":5789,"Ġchilly":5790,"na":5791,"uing":5792,"Ġtrop":5793,"retched":5794,"iti":5795,"Ġdou":5796,"Ġdaring":5797,"Ġgig":5798,"Ġnerves":5799,"lease":5800,"ician":5801,"ceed":5802,"ĠHaw":5803,"ession":5804,"ilt":5805,"Ġspell":5806,"olve":5807,"Ġdolls":5808,"Ġplane":5809,"Ġcarved":5810,"Ġnoon":5811,"Ġadjust":5812,"Ġresc":5813,"Ġrefuge":5814,"Ġhandle":5815,"Ġcabinets":5816,"Ġadvisor":5817,"Ġstaying":5818,"Ġshouldn":5819,"beat":5820,"Ġpatient":5821,"Ġheavily":5822,"ĠNature":5823,"Ġfunny":5824,"Ġlanded":5825,"Ġpromised":5826,"Ġlabyr":5827,"Ġcutting":5828,"Ġdirections":5829,"Ġdetective":5830,"Ġcruise":5831,"Ġservices":5832,"Ġbridges":5833,"Ġcommunicate":5834,"Ġblinding":5835,"Ġastronaut":5836,"aii":5837,"Ġscurrying":5838,"Ġchamber":5839,"Ġreason":5840,"ĠHawaii":5841,"Ġlabyrinth":5842,"Eventually":5843,"home":5844,"rict":5845,"tes":5846,"Ġmill":5847,"Ġfountain":5848,"atching":5849,"Ġdw":5850,"omer":5851,"Ġisland":5852,"Ġhell":5853,"ify":5854,"Ġshr":5855,"Ġworse":5856,"Ġchor":5857,"Ġupl":5858,"Ġgrown":5859,"Ġju":5860,"Ġcomb":5861,"ĠWalking":5862,"ibly":5863,"ĠMay":5864,"Ġgrey":5865,"Ġsnack":5866,"Ġmatted":5867,"Ġlaund":5868,"Ġrecyc":5869,"Ġtechniques":5870,"Ġtopics":5871,"Ġorganizations":5872,"Ġsignaling":5873,"Ġtransformed":5874,"Ġseashe":5875,"Ġbridal":5876,"Ġfacilities":5877,"Ġtransforms":5878,"Ġmadness":5879,"Ġ2000":5880,"Ġbottom":5881,"Ġtypes":5882,"Ġathletes":5883,"Ġgravestones":5884,"Ġcommuters":5885,"Ġundergrowth":5886,"Ġvintage":5887,"des":5888,"fiction":5889,"nds":5890,"Ġwines":5891,"Ġbout":5892,"erce":5893,"eds":5894,"Ġhab":5895,"Ġhoney":5896,"aning":5897,"Ġreun":5898,"Ġrab":5899,"Ġrough":5900,"Ġriding":5901,"Ġweathered":5902,"Ġchips":5903,"Ġchoc":5904,"Ġlies":5905,"Ġcoding":5906,"ternal":5907,"Ġjagged":5908,"Ġscrap":5909,"Ġcano":5910,"Ġproper":5911,"Ġrealizing":5912,"Ġsuit":5913,"Ġsheets":5914,"Ġhappily":5915,"Ġcookies":5916,"Ġbenefits":5917,"Ġspeaks":5918,"Ġimages":5919,"Ġkeeps":5920,"phones":5921,"Ġsafely":5922,"Ġvalue":5923,"Ġdisappearing":5924,"Ġclock":5925,"Ġinev":5926,"Ġanswers":5927,"âĢĻ":5928,"Ġfeedback":5929,"Ġsupply":5930,"Ġexhaustion":5931,"Ġimmers":5932,"Ġreleases":5933,"Ġbombarded":5934,"Ġlaundry":5935,"Ġseashells":5936,"Ġhabits":5937,"Every":5938,"ring":5939,"while":5940,"Ġsang":5941,"Ġtheat":5942,"Ġmother":5943,"Ġdam":5944,"stretched":5945,"Ġstands":5946,"Ġsteep":5947,"aker":5948,"Ġshri":5949,"amanth":5950,"Ġaside":5951,"istent":5952,"Ġplumber":5953,"Ġcoast":5954,"Ġtrim":5955,"Ġoutstretched":5956,"astly":5957,"Ġwhir":5958,"Ġmob":5959,"olved":5960,"Ġprop":5961,"Ġquaint":5962,"Ġswall":5963,"Ġswept":5964,"Ġfierce":5965,"Ġglinting":5966,"Inside":5967,"Ġrecently":5968,"Ġsaun":5969,"Ġconditions":5970,"Ġdoctors":5971,"Ġbabbling":5972,"Ġconfront":5973,"Ġtempt":5974,"Ġcloak":5975,"Ġinclusive":5976,"Ġbudge":5977,"Ġmirrors":5978,"Ġneglect":5979,"Ġcrawl":5980,"Ġdocuments":5981,"Ġhonking":5982,"Ġobjects":5983,"Ġencourage":5984,"Ġinhabitants":5985,"Ġbeliefs":5986,"Ġowl":5987,"Ġjacket":5988,"Ġrabb":5989,"amantha":5990,"Let":5991,"gment":5992,"sk":5993,"Ġwaved":5994,"Ġmort":5995,"Ġfiction":5996,"any":5997,"Ġstare":5998,"Ġstuck":5999,"Ġisol":6000,"Ġrapid":6001,"vern":6002,"ifts":6003,"Ġaspect":6004,"ĠSamantha":6005,"Ġscar":6006,"Ġcanv":6007,"agram":6008,"Ġwhenever":6009,"Ġcrit":6010,"Ġcheer":6011,"Ġdraped":6012,"Ġbreaks":6013,"Ġparts":6014,"Ġhoot":6015,"Ġfinishing":6016,"Ġglist":6017,"Ġsalt":6018,"ĠDuring":6019,"Ġconsider":6020,"Ġengulf":6021,"Ġsurprises":6022,"Ġbroad":6023,"Ġballets":6024,"Ġsearch":6025,"Ġswayed":6026,"ĠOnce":6027,"Ġdetail":6028,"Ġadvocating":6029,"Ġbridge":6030,"Ġdedication":6031,"aunt":6032,"Ġtapest":6033,"Ġdepartment":6034,"writer":6035,"Ġachieving":6036,"oken":6037,"rim":6038,"Ġtaught":6039,"Ġwet":6040,"Ġoven":6041,"Ġmud":6042,"Ġfoss":6043,"Ġbaking":6044,"itional":6045,"ousel":6046,"isure":6047,"Ġlaun":6048,"aded":6049,"Ġbend":6050,"otted":6051,"Ġweb":6052,"ĠSund":6053,"Ġvital":6054,"Ġleisure":6055,"Ġcover":6056,"ooking":6057,"Ġunre":6058,"Ġmold":6059,"Ġcannot":6060,"Ġappet":6061,"Ġplayers":6062,"Ġcarousel":6063,"Ġsurge":6064,"Ġdesire":6065,"Ġsug":6066,"Ġdrum":6067,"Ġolder":6068,"Ġdelight":6069,"Ġdiscovery":6070,"Ġslide":6071,"Ġblocked":6072,"Ġequality":6073,"Ġdeveloping":6074,"Ġsolves":6075,"Ġcontempl":6076,"Ġcompetition":6077,"Ġtangled":6078,"Ġfulfilled":6079,"Ġblankets":6080,"Ġmarveled":6081,"Ġincredibly":6082,"Ġobstacle":6083,"Ġterrified":6084,"Ġsparkling":6085,"Ġtools":6086,"Ġpsychologist":6087,"Ġgarlic":6088,"Ġdistractions":6089,"Ġcappuccino":6090,"Ġmarginal":6091,"Ġvineyard":6092,"Ġtropical":6093,"Ġgigg":6094,"bal":6095,"mother":6096,"py":6097,"Ġtips":6098,"hent":6099,"Ġmain":6100,"Ġmask":6101,"Ġcere":6102,"erman":6103,"atives":6104,"Ġdie":6105,"Ġdug":6106,"isible":6107,"Ġet":6108,"irts":6109,"Ġvivid":6110,"Ġplat":6111,"uded":6112,"Ġpeaks":6113,"Ġdock":6114,"Ġbliss":6115,"ellig":6116,"Ġdistrict":6117,"Ġreconnect":6118,"Ġperfectly":6119,"Ġinspiring":6120,"Ġpatch":6121,"Ġghastly":6122,"Ġsites":6123,"Ġshoreline":6124,"Ġauthent":6125,"Ġprec":6126,"Ġexisted":6127,"Ġactively":6128,"Ġsignificant":6129,"Ġtransf":6130,"Ġmassage":6131,"Ġmirage":6132,"Ġsubject":6133,"Ġfeaturing":6134,"Ġwelcoming":6135,"Ġexpression":6136,"Ġthankful":6137,"Ġbolt":6138,"Ġclutched":6139,"Ġstructures":6140,"Ġundead":6141,"Ġpuzz":6142,"Ġaffect":6143,"Sometimes":6144,"Ġuplift":6145,"Ġreunion":6146,"par":6147,"Ġsank":6148,"Ġwest":6149,"Ġming":6150,"Ġfancy":6151,"ators":6152,"Ġtoward":6153,"Ġgaunt":6154,"Ġeth":6155,"acon":6156,"Ġvowed":6157,"Ġlege":6158,"Ġoutfit":6159,"Ġsoaking":6160,"izers":6161,"Ġabroad":6162,"Ġusual":6163,"Ġplanned":6164,"angs":6165,"Ġeasily":6166,"Ġpastry":6167,"Ġvoid":6168,"Ġglinted":6169,"Ġinvisible":6170,"Ġcontented":6171,"Ġgroaned":6172,"Ġtechnolog":6173,"Ġsolve":6174,"Ġorganization":6175,"Ġpolice":6176,"Ġsettling":6177,"Ġcloud":6178,"Ġrecognizing":6179,"Ġdressing":6180,"Ġrentals":6181,"Ġmodel":6182,"Ġpulsing":6183,"Ġroasting":6184,"Ġcontribute":6185,"Ġbuzzing":6186,"Ġjolt":6187,"Ġchorus":6188,"Ġmobile":6189,"Ġsauna":6190,"Ġcanvas":6191,"co":6192,"Ġtickets":6193,"Ġsite":6194,"Ġfu":6195,"Ġpits":6196,"Ġhide":6197,"alg":6198,"Ġrev":6199,"Ġras":6200,"Ġshines":6201,"ership":6202,"olving":6203,"Ġtripped":6204,"Ġemb":6205,"ormal":6206,"Ġdoorway":6207,"Ġheadstones":6208,"Ġjogged":6209,"Ġzones":6210,"Ġspecialty":6211,"Ġimagine":6212,"Ġphotos":6213,"Ġproviding":6214,"Ġballoon":6215,"Ġelectron":6216,"Ġspraw":6217,"Ġregard":6218,"Ġavail":6219,"Ġeducational":6220,"Ġportal":6221,"Ġadvocates":6222,"Ġthrilling":6223,"Ġnegative":6224,"Ġcollective":6225,"Ġflock":6226,"Ġbelonging":6227,"Ġcampaign":6228,"Ġ10":6229,"Ġexpecting":6230,"Ġhardships":6231,"Ġprivilege":6232,"Ġleisurely":6233,"Ġmarginalized":6234,"mit":6235,"Ġsus":6236,"itage":6237,"Ġgain":6238,"ache":6239,"Ġforced":6240,"Ġmeets":6241,"ifying":6242,"ulner":6243,"Ġvulner":6244,"Ġchills":6245,"Ġcoex":6246,"Ġcodes":6247,"Ġgray":6248,"orting":6249,"Ġmoves":6250,"Ġenh":6251,"ivered":6252,"Ġapply":6253,"Ġheritage":6254,"Ġflood":6255,"Ġamaze":6256,"Ġgets":6257,"Ġlighting":6258,"Ġmuff":6259,"Ġdram":6260,"ĠFear":6261,"ĠOr":6262,"Ġslick":6263,"merse":6264,"Ġimmerse":6265,"ĠBroad":6266,"Ġtrapping":6267,"Ġjobs":6268,"Ġuncovered":6269,"Ġclawing":6270,"Ġcircus":6271,"Ġreveal":6272,"Ġcircled":6273,"Ġeco":6274,"Ġemergency":6275,"Ġgracefully":6276,"Ġhurried":6277,"Ġjudgment":6278,"Ġtriumphs":6279,"Ġnearer":6280,"Ġscanned":6281,"Ġadoption":6282,"Ġpounce":6283,"Ġbarriers":6284,"Ġindustry":6285,"Ġfossils":6286,"Ġcoexist":6287,"ĠBroadway":6288,"nis":6289,"hend":6290,"rew":6291,"Ġwound":6292,"Ġwished":6293,"Ġferris":6294,"erhaps":6295,"Ġpow":6296,"ouched":6297,"Ġdawn":6298,"Ġgal":6299,"stairs":6300,"Ġstick":6301,"Ġmeas":6302,"irm":6303,"pper":6304,"Ġliqu":6305,"Ġatop":6306,"Ġallowing":6307,"Ġens":6308,"Ġdoll":6309,"Ġusually":6310,"Ġrunners":6311,"Ġbub":6312,"Ġcrust":6313,"Ġstrangers":6314,"action":6315,"Ġlibrarian":6316,"Ġincant":6317,"Ġworthwhile":6318,"Ġmotivates":6319,"ecause":6320,"Ġrhythmic":6321,"Ġpuls":6322,"Ġfacials":6323,"Ġtreasures":6324,"Ġinfect":6325,"Ġpressing":6326,"Ġglobal":6327,"Ġcomprehend":6328,"Ġtennis":6329,"Ġinstincts":6330,"Ġpanor":6331,"Ġintensity":6332,"Ġbonfire":6333,"Ġtapestry":6334,"Ġappetizers":6335,"Ġplatform":6336,"Ġauthentic":6337,"Ġelectronics":6338,"Whether":6339,"cent":6340,"wise":6341,"Ġsad":6342,"Ġsides":6343,"Ġpanting":6344,"Ġdangers":6345,"ales":6346,"Ġthirst":6347,"Ġeast":6348,"Ġstale":6349,"lear":6350,"Ġlie":6351,"Ġkill":6352,"igious":6353,"Ġskies":6354,"Ġhowls":6355,"Ġimpressive":6356,"arily":6357,"Ġperhaps":6358,"iances":6359,"Ġgrounded":6360,"Ġcoursing":6361,"Ġrainy":6362,"Ġserving":6363,"Ġactors":6364,"Ġbusinessman":6365,"Ġmistakes":6366,"ĠEverything":6367,"Ġdrinking":6368,"Ġobl":6369,"Ġgrandmother":6370,"Ġsculpture":6371,"Ġcuts":6372,"Ġcivilizations":6373,"Ġfighting":6374,"Ġtemper":6375,"Ġspreading":6376,"Ġbathed":6377,"Ġnostalg":6378,"Ġquestion":6379,"Ġdirectly":6380,"Ġbasic":6381,"Ġcamer":6382,"Ġpupp":6383,"Ġmelodies":6384,"Ġacknowledge":6385,"Ġappliances":6386,"Ġurgent":6387,"Ġmagnificent":6388,"Ġlifestyle":6389,"Ġchocolate":6390,"rimination":6391,"From":6392,"gainst":6393,"xpl":6394,"Ġiron":6395,"Ġsend":6396,"Ġwiring":6397,"Ġfright":6398,"Ġfangs":6399,"itious":6400,"acist":6401,"Ġnerv":6402,"Ġbeard":6403,"Ġrivers":6404,"Ġask":6405,"Ġspices":6406,"ously":6407,"Ġbrand":6408,"Ġbrook":6409,"Ġowner":6410,"Ġotherwise":6411,"Ġswam":6412,"Ġflowed":6413,"Ġgrounds":6414,"Ġlocals":6415,"Ġcurled":6416,"Ġslip":6417,"Ġshock":6418,"Ġuntouched":6419,"Ġpride":6420,"Ġmemor":6421,"Ġexpand":6422,"Ġtales":6423,"Ġputs":6424,"Ġcomputers":6425,"Ġsatisfaction":6426,"Ġinsistent":6427,"Ġrecipe":6428,"Ġextra":6429,"Ġfloating":6430,"Ġmurm":6431,"Ġimmense":6432,"Ġstrateg":6433,"Ġmaintain":6434,"...":6435,"Ġgleaming":6436,"Ġpersisted":6437,"ĠMaybe":6438,"Ġswallowed":6439,"Ġsprawling":6440,"Ġpanoramic":6441,"cceed":6442,"dr":6443,"lit":6444,"mp":6445,"wol":6446,"Ġsort":6447,"ret":6448,"Ġmer":6449,"Ġcase":6450,"Ġfant":6451,"Ġfusion":6452,"alities":6453,"Ġthrew":6454,"acles":6455,"uriosity":6456,"Ġrat":6457,"Ġraged":6458,"Ġshivered":6459,"eeping":6460,"Ġchase":6461,"Ġleast":6462,"Ġapple":6463,"Ġdarkened":6464,"Ġarts":6465,"iber":6466,"Ġsucceed":6467,"Ġdrag":6468,"Ġdecision":6469,"Ġslowing":6470,"Ġcarefully":6471,"Ġvisible":6472,"Ġflows":6473,"Ġmatch":6474,"Ġmattered":6475,"Ġshoot":6476,"ĠBecause":6477,"Ġbusyness":6478,"Ġmelting":6479,"Ġputrid":6480,"Ġpromising":6481,"Ġaccompan":6482,"Ġeducate":6483,"Ġattracts":6484,"Ġvictory":6485,"Ġdesperately":6486,"Ġmachine":6487,"Ġsuffering":6488,"Ġmotorcycle":6489,"Ġenvironmentalist":6490,"Ġcrawled":6491,"Ġtroubles":6492,"Ġexhilarating":6493,"Ġumbrella":6494,"Ġskateboard":6495,"Ġruins":6496,"Ġmedicine":6497,"go":6498,"hop":6499,"hatever":6500,"nate":6501,"pass":6502,"Ġvers":6503,"Ġtub":6504,"Ġtucked":6505,"Ġwish":6506,"Ġfool":6507,"Ġbell":6508,"atic":6509,"Ġlicked":6510,"Ġeternal":6511,"Ġrid":6512,"seeing":6513,"idence":6514,"Ġcosm":6515,"Ġoutsk":6516,"erson":6517,"Ġwhipping":6518,"Ġsoil":6519,"Ġscary":6520,"cket":6521,"Ġwerewol":6522,"Ġrode":6523,"Ġnobody":6524,"Ġforests":6525,"Ġswung":6526,"Ġfile":6527,"ĠCar":6528,"Ġhealthier":6529,"Ġwindowp":6530,"Ġmaybe":6531,"Ġeffic":6532,"Ġhunted":6533,"ĠThough":6534,"Ġmelt":6535,"Ġfocusing":6536,"Ġtasty":6537,"Ġcapture":6538,"Ġbikes":6539,"Ġtestament":6540,"Ġoppos":6541,"Ġmission":6542,"Ġfragrance":6543,"Ġcentered":6544,"Ġpassionate":6545,"Ġthreatening":6546,"Ġinfin":6547,"Ġdemonic":6548,"Ġcrossed":6549,"Ġdealership":6550,"Ġcampaigns":6551,"Ġgesture":6552,"Ġpharmacist":6553,"ĠArab":6554,"Ġinevitable":6555,"Ġtemptation":6556,"Ġinfectious":6557,"Ġfoolish":6558,"Ġoutskirts":6559,"Fi":6560,"arents":6561,"bid":6562,"iety":6563,"sive":6564,"vious":6565,"wood":6566,"ĠK":6567,"Ġtire":6568,"Ġcac":6569,"Ġtoy":6570,"Ġdrops":6571,"Ġdotted":6572,"eled":6573,"Ġwashing":6574,"Ġforming":6575,"Ġmeats":6576,"Ġwears":6577,"Ġfeather":6578,"Ġcovers":6579,"Ġclamm":6580,"ooked":6581,"apers":6582,"Ġoverp":6583,"ĠWi":6584,"Ġintention":6585,"ague":6586,"Ġsmelled":6587,"Ġnod":6588,"Ġnights":6589,"Ġdragging":6590,"ĠTom":6591,"Ġgrowls":6592,"Ġunderwater":6593,"Ġheadlines":6594,"Ġlocally":6595,"Ġcorpor":6596,"Ġhumming":6597,"Ġguided":6598,"Ġserved":6599,"Ġsightseeing":6600,"Ġunearth":6601,"lights":6602,"Ġdapp":6603,"Ġburied":6604,"Ġfiltered":6605,"Ġsystemic":6606,"Ġregularly":6607,"Ġstylish":6608,"Ġannual":6609,"Ġseasons":6610,"cipher":6611,"Ġnegat":6612,"Ġholiday":6613,"Ġhobb":6614,"Ġthousand":6615,"Ġreleased":6616,"ield":6617,"Ġdisturbed":6618,"Ġincreasing":6619,"Ġanxiety":6620,"Ġcollabor":6621,"arah":6622,"Ġtrunk":6623,"Ġdoub":6624,"Ġethere":6625,"Ġembark":6626,"Ġsusp":6627,"Ġliquid":6628,"Ġclammy":6629,"pse":6630,"ravel":6631,"Ġsomed":6632,"Ġwaking":6633,"Ġwarp":6634,"Ġcake":6635,"Ġfirm":6636,"Ġbill":6637,"itive":6638,"Ġhaven":6639,"Ġdom":6640,"Ġdol":6641,"Ġdiet":6642,"isions":6643,"Ġgifts":6644,"Ġstalk":6645,"Ġren":6646,"Ġrub":6647,"idation":6648,"umed":6649,"umst":6650,"Ġintro":6651,"Ġintrig":6652,"Ġskating":6653,"Ġsepar":6654,"Ġsmart":6655,"Ġflame":6656,"angered":6657,"Ġskyd":6658,"Ġcheering":6659,"Ġprick":6660,"inking":6661,"Ġhorns":6662,"Ġboot":6663,"Ġendangered":6664,"Ġappreciating":6665,"Ġbehav":6666,"Ġcareer":6667,"Ġguard":6668,"Ġexhibition":6669,"Ġrecover":6670,"Ġjoined":6671,"Ġprogrammer":6672,"Ġwellbeing":6673,"Ġharder":6674,"Ġgrassy":6675,"Ġbloodcurdling":6676,"Ġchilled":6677,"Ġgrandp":6678,"Ġclawed":6679,"ĠYesterday":6680,"Ġcircumst":6681,"Ġschedul":6682,"ĠGerman":6683,"Ġeducates":6684,"Ġinexpl":6685,"Ġmixed":6686,"Ġnutritious":6687,"Ġtraditional":6688,"Ġopera":6689,"Ġslept":6690,"Ġparticularly":6691,"Ġpredator":6692,"Ġsacrifice":6693,"Ġfaith":6694,"ĠSunday":6695,"ĠArabic":6696,"Ġcacoph":6697,"Ġhobbies":6698,"Ġethereal":6699,"Ġsomeday":6700,"Ġdolph":6701,"Ġinexplic":6702,"ban":6703,"let":6704,"mo":6705,"oking":6706,"rate":6707,"Ġident":6708,"inee":6709,"ints":6710,"Ġsen":6711,"Ġfet":6712,"Ġbic":6713,"Ġpm":6714,"Ġpand":6715,"Ġdied":6716,"Ġthud":6717,"elf":6718,"Ġreus":6719,"ĠSarah":6720,"Ġplot":6721,"Ġjaws":6722,"Ġunner":6723,"Ġworlds":6724,"Ġscor":6725,"Ġgovern":6726,"Ġworkday":6727,"Ġdoom":6728,"selling":6729,"agers":6730,"Ġtearing":6731,"epend":6732,"ibility":6733,"forest":6734,"Ġowners":6735,"ipe":6736,"Ġbuses":6737,"owering":6738,"Ġexplain":6739,"Ġbehold":6740,"Ġhaird":6741,"Ġcorpse":6742,"Ġmatinee":6743,"berries":6744,"Ġconcern":6745,"Ġrecl":6746,"Ġconsist":6747,"Ġpresented":6748,"Ġmembers":6749,"encies":6750,"Ġprepares":6751,"Ġarrival":6752,"Ġpicnics":6753,"Ġrolled":6754,"Ġfoggy":6755,"Ġflex":6756,"Ġinnovation":6757,"Ġproblem":6758,"Ġobserve":6759,"Ġmarveling":6760,"Ġsubmit":6761,"Ġtemple":6762,"Ġemergencies":6763,"Ġgraceful":6764,"Ġtraditions":6765,"Ġtaxes":6766,"Ġmasterpiece":6767,"Ġfunctional":6768,"Ġengulfed":6769,"Ġavailable":6770,"Ġopposite":6771,"Ġfeathers":6772,"Ġgrandparents":6773,"Ġcacophony":6774,"Ġbicyc":6775,"Ġreusable":6776,"\".":6777,"What":6778,"dom":6779,"gn":6780,"ock":6781,"person":6782,"Ġwafting":6783,"Ġoak":6784,"Ġmouse":6785,"Ġpile":6786,"Ġlots":6787,"Ġgaping":6788,"Ġformer":6789,"Ġshuffling":6790,"ĠSpan":6791,"antage":6792,"antern":6793,"ĠHallow":6794,"Ġgrind":6795,"Ġunity":6796,"Ġloaf":6797,"Ġdecipher":6798,"Ġhelpful":6799,"Ġcontact":6800,"ibbe":6801,"Ġreaders":6802,"Ġrestless":6803,"Ġdistinct":6804,"bris":6805,"Ġdecide":6806,"Ġdecorating":6807,"Ġgotten":6808,"Ġinstant":6809,"Ġinstall":6810,"Ġsteaming":6811,"Ġdiscrimination":6812,"Ġpeacefully":6813,"Ġexplores":6814,"Ġtraveled":6815,"Ġseries":6816,"Ġdrives":6817,"Ġforgetting":6818,"Ġsecl":6819,"Ġcalmness":6820,"Ġproductivity":6821,"Ġrenewable":6822,"Ġretire":6823,"Ġgenet":6824,"Ġpicking":6825,"Ġclimbing":6826,"Ġprest":6827,"Ġprevent":6828,"Ġprofessor":6829,"Ġhimself":6830,"Ġurban":6831,"Ġfights":6832,"Ġpalp":6833,"Ġpolitical":6834,"Ġbelonged":6835,"Ġwillingness":6836,"Ġknocked":6837,"Ġhabitats":6838,"Ġtendrils":6839,"Ġbanan":6840,"Ġtranslator":6841,"Ġtriathlon":6842,"Ġcanoeing":6843,"Ġrapidly":6844,"Ġcamera":6845,"ĠCaribbe":6846,"Ġunearthly":6847,"ĠSpanish":6848,"ĠHalloween":6849,"ĠCaribbean":6850,"Panic":6851,"Ultimately":6852,"clear":6853,"laze":6854,"pidation":6855,"uate":6856,"uzz":6857,"Ġsizes":6858,"Ġmood":6859,"Ġber":6860,"Ġbore":6861,"Ġtong":6862,"Ġpill":6863,"arison":6864,"Ġdared":6865,"Ġlantern":6866,"adows":6867,"Ġrever":6868,"Ġrevel":6869,"urity":6870,"unch":6871,"akers":6872,"Ġtrump":6873,"umping":6874,"Ġalike":6875,"Ġpeering":6876,"Ġintently":6877,"Ġablaze":6878,"Ġdebris":6879,"Ġtrepidation":6880,"Ġbuilt":6881,"Ġcrim":6882,"Ġhomework":6883,"Ġcomparison":6884,"Ġswing":6885,"Ġtrainers":6886,"Ġgreatest":6887,"Ġveg":6888,"Ġsnork":6889,"ĠOut":6890,"Ġsecurity":6891,"Ġpointed":6892,"Ġzomb":6893,"Ġstriving":6894,"Ġdestruction":6895,"Ġhighway":6896,"Ġraising":6897,"Ġballroom":6898,"Ġtasted":6899,"Ġdiscovering":6900,"Ġcolleague":6901,"ĠSoon":6902,"Ġoptim":6903,"Ġtentacles":6904,"Ġthanked":6905,"Ġclutching":6906,"Ġtwinkling":6907,"Ġcycling":6908,"Ġbrainstorm":6909,"Ġpossessions":6910,"Ġphilos":6911,"Ġaimlessly":6912,"Ġadjusted":6913,"Ġscraping":6914,"Ġtechnologies":6915,"Ġregardless":6916,"Ġvulnerable":6917,"Ġnostalgia":6918,"Ġmurmur":6919,"ĠTomorrow":6920,"Ġnegativity":6921,"Ġbehavior":6922,"Ġsecluded":6923,"Ġprestigious":6924,"Ġpalpable":6925,"face":6926,"iac":6927,"mist":6928,"Ġhors":6929,"Ġdrop":6930,"Ġlosing":6931,"Ġnour":6932,"Ġreds":6933,"Ġreef":6934,"Ġshirt":6935,"changing":6936,"Ġvirt":6937,"Ġupstairs":6938,"Ġkeeping":6939,"ights":6940,"Ġallowed":6941,"Ġovernight":6942,"ĠWas":6943,"Ġintellig":6944,"resser":6945,"Ġheartbeat":6946,"Ġdrift":6947,"Ġexpert":6948,"Ġgreens":6949,"Ġclassics":6950,"Ġdining":6951,"Ġgoodness":6952,"Ġcoral":6953,"Ġteaching":6954,"Ġclearance":6955,"Ġsitu":6956,"Ġtome":6957,"Ġtower":6958,"Ġindul":6959,"Ġparan":6960,"Ġpromote":6961,"Ġcandl":6962,"Ġkeys":6963,"Ġhesitation":6964,"Ġexercises":6965,"Ġsentin":6966,"Ġviolently":6967,"Ġlimits":6968,"ĠOnly":6969,"Ġgrasping":6970,"Ġanswered":6971,"Ġtombstone":6972,"Ġtorment":6973,"Ġtyping":6974,"Ġconsciousness":6975,"Ġprivate":6976,"Ġcroissants":6977,"Ġamongst":6978,"Ġdevices":6979,"Ġmaterials":6980,"Ġcotton":6981,"ielding":6982,"Ġhabitat":6983,"Ġchapter":6984,"Ġrecommend":6985,"Ġknees":6986,"Ġtheaters":6987,"Ġwindowpane":6988,"Ġhairdresser":6989,"Ġgenetics":6990,"Ġtrumpet":6991,"aid":6992,"Ġsne":6993,"inge":6994,"Ġcact":6995,"esc":6996,"Ġdipped":6997,"Ġlid":6998,"Ġstumble":6999,"otion":7000,"vey":7001,"rily":7002,"Ġasp":7003,"Ġclung":7004,"Ġtrace":7005,"Ġuns":7006,"Ġunison":7007,"Ġoverse":7008,"ĠWhile":7009,"Ġlovers":7010,"Ġeverywhere":7011,"Ġevolving":7012,"Ġagency":7013,"Ġmaniac":7014,"Ġreserve":7015,"Ġdeliber":7016,"ancing":7017,"Ġvisions":7018,"Ġslipped":7019,"Ġscreaming":7020,"Ġdreary":7021,"Ġclearly":7022,"Ġrisk":7023,"Ġhunched":7024,"Ġstressful":7025,"Ġsources":7026,"Ġrichness":7027,"Ġrepair":7028,"Ġdiscoveries":7029,"Ġharmon":7030,"Ġlawn":7031,"Ġlingering":7032,"Ġfreel":7033,"Ġrejuvenating":7034,"Ġfragrant":7035,"Ġboundaries":7036,"Ġobscuring":7037,"ĠStr":7038,"Ġrelentless":7039,"Ġreviews":7040,"Ġcycl":7041,"Ġjumping":7042,"Ġspinach":7043,"Ġsharks":7044,"Ġabsolutely":7045,"rupt":7046,"Ġodd":7047,"Ġlullab":7048,"Ġmesmerizing":7049,"Ġrecycling":7050,"Ġpulsating":7051,"Ġtemperature":7052,"Ġwerewolf":7053,"Ġberries":7054,"Ġphilosop":7055,"cher":7056,"dant":7057,"tles":7058,"Ġaur":7059,"Ġtents":7060,"Ġobe":7061,"Ġmap":7062,"Ġmail":7063,"Ġfab":7064,"Ġfalls":7065,"Ġboy":7066,"atter":7067,"Ġthree":7068,"acuzz":7069,"enting":7070,"urning":7071,"Ġring":7072,"vere":7073,"Ġweak":7074,"Ġneon":7075,"amond":7076,"Ġfeature":7077,"Ġfrust":7078,"Ġwhist":7079,"Ġfeelings":7080,"Ġsock":7081,"ĠWhatever":7082,"lowly":7083,"Ġdefe":7084,"ildren":7085,"Ġornate":7086,"Ġherd":7087,"Ġplayful":7088,"oyer":7089,"Ġimpressed":7090,"Ġbrows":7091,"Ġresult":7092,"Ġends":7093,"Ġsnugg":7094,"Ġglint":7095,"Ġafterwards":7096,"ĠLooking":7097,"Ġquicken":7098,"Ġactive":7099,"Ġimage":7100,"ugging":7101,"Ġtourist":7102,"Ġhunting":7103,"ĠThrough":7104,"Ġskiers":7105,"Ġdiscussing":7106,"Ġresponse":7107,"Ġawak":7108,"Ġsongwriter":7109,"Ġtaller":7110,"ĠYes":7111,"Ġdesigning":7112,"Ġbiology":7113,"Ġbiases":7114,"Ġpursued":7115,"Ġextend":7116,"Ġbattle":7117,"Ġthriller":7118,"Ġmissing":7119,"ĠStanding":7120,"Ġaccountant":7121,"Ġtaxi":7122,"Ġdigging":7123,"Ġverdant":7124,"Ġretreated":7125,"Ġdinosaurs":7126,"Ġdiamond":7127,"Ġcharacter":7128,"Ġcackling":7129,"Ġtrekked":7130,"Ġovertook":7131,"Ġrabbit":7132,"Ġdappled":7133,"Ġcircumstances":7134,"Ġhorses":7135,"Ġfreelance":7136,"Ġlullaby":7137,"Ġobey":7138,"acuzzi":7139,"Even":7140,"run":7141,"vation":7142,"Ġtick":7143,"Ġtaun":7144,"Ġsig":7145,"Ġcer":7146,"Ġcul":7147,"Ġcrops":7148,"erved":7149,"eded":7150,"Ġduck":7151,"Ġinno":7152,"alth":7153,"Ġthresh":7154,"Ġgown":7155,"enty":7156,"Ġnic":7157,"vert":7158,"verty":7159,"imy":7160,"Ġneared":7161,"ĠSe":7162,"ĠAround":7163,"ĠAgainst":7164,"anded":7165,"usions":7166,"Ġspare":7167,"Ġsod":7168,"Ġyard":7169,"Ġloving":7170,"Ġsmiling":7171,"Ġteen":7172,"Ġplanets":7173,"Ġdise":7174,"Ġrescue":7175,"Ġdecades":7176,"Ġdecisions":7177,"Ġhikes":7178,"Ġhopeless":7179,"Ġpassage":7180,"Ġdiscount":7181,"Ġpracticed":7182,"Ġrecent":7183,"Ġhopeful":7184,"Ġpatter":7185,"Ġpoverty":7186,"Ġsunsets":7187,"Ġlasting":7188,"Ġrenewal":7189,"Ġenvironmentally":7190,"olution":7191,"Ġlanding":7192,"Ġprofession":7193,"Ġawake":7194,"Ġfiltering":7195,"Ġwarned":7196,"undred":7197,"Ġavoid":7198,"Ġworkouts":7199,"Ġtempting":7200,"Ġescaping":7201,"Ġextended":7202,"Ġnurt":7203,"Ġgeologist":7204,"Ġunfold":7205,"Ġoverlooking":7206,"Ġsalesperson":7207,"Ġprayed":7208,"Ġparticipating":7209,"Ġpedest":7210,"Ġinjustice":7211,"Ġdamage":7212,"Ġmortal":7213,"Ġcheerful":7214,"Ġglistening":7215,"Ġmingling":7216,"Ġoblig":7217,"Ġinfinite":7218,"Ġseparate":7219,"Ġdolphins":7220,"Ġsituations":7221,"Ġthreshold":7222,"He":7223,"drop":7224,"lenting":7225,"pm":7226,"rack":7227,"Ġid":7228,"Ġsands":7229,"Ġmiss":7230,"Ġcoo":7231,"Ġcried":7232,"Ġfoyer":7233,"Ġbattered":7234,"edge":7235,"ittle":7236,"Ġhip":7237,"Ġhundred":7238,"Ġeb":7239,"Ġnap":7240,"Ġrelease":7241,"lymp":7242,"Ġonward":7243,"Ġarena":7244,"respass":7245,"acked":7246,"Ġhaze":7247,"Ġhowever":7248,"Ġflaky":7249,"ploy":7250,"Ġampl":7251,"Ġbrave":7252,"Ġdeepen":7253,"Ġmush":7254,"Ġprim":7255,"Ġprice":7256,"ption":7257,"Ġcoffin":7258,"Ġwrist":7259,"Ġwrapping":7260,"Ġattem":7261,"Ġcampfire":7262,"Ġhealthcare":7263,"ĠOlymp":7264,"Ġslimy":7265,"Ġechoes":7266,"Ġhumanoid":7267,"Ġdevelopment":7268,"Ġlattes":7269,"Ġsituation":7270,"ĠToky":7271,"Ġvalued":7272,"Ġpetals":7273,"Ġdonates":7274,"Ġcompleted":7275,"Ġtalking":7276,"Ġvacu":7277,"Ġroute":7278,"Ġbiking":7279,"Ġlimit":7280,"Ġphysically":7281,"Ġcafes":7282,"Ġinterests":7283,"Ġskyscraper":7284,"Ġcrawling":7285,"Ġastronomer":7286,"Ġsaying":7287,"Ġafford":7288,"ĠGrand":7289,"Ġcharacters":7290,"Ġaccepted":7291,"Ġsandcastles":7292,"Ġlifeguards":7293,"Ġdissipated":7294,"Ġdwind":7295,"Ġunrelenting":7296,"Ġinexplicable":7297,"Ġflexibility":7298,"Ġtongue":7299,"Ġintelligence":7300,"Ġsentinels":7301,"ĠTokyo":7302,"IP":7303,"kers":7304,"mers":7305,"paper":7306,"rons":7307,"vings":7308,"zing":7309,"Ġtide":7310,"Ġsim":7311,"Ġfive":7312,"Ġfence":7313,"itor":7314,"itch":7315,"stract":7316,"Ġforbid":7317,"Ġrugged":7318,"Ġplaced":7319,"Ġlemon":7320,"Ġcovering":7321,"umes":7322,"Ġsoaked":7323,"Ġpeak":7324,"iest":7325,"Ġabund":7326,"Ġabstract":7327,"reness":7328,"Ġdeb":7329,"Ġwants":7330,"Ġcarvings":7331,"Ġrealization":7332,"Ġreader":7333,"Ġcleared":7334,"Ġspeck":7335,"ĠCo":7336,"ĠCuriosity":7337,"Ġfullest":7338,"Ġconcent":7339,"Ġbenefit":7340,"Ġgroan":7341,"Ġwrithe":7342,"Ġcharged":7343,"Ġtreehouse":7344,"Ġgrabbing":7345,"flies":7346,"Ġsolid":7347,"Ġroads":7348,"ĠPar":7349,"Ġrocking":7350,"Ġkitten":7351,"Ġillusions":7352,"Ġturmo":7353,"Ġrevealed":7354,"Ġurging":7355,"Ġformal":7356,"Ġcomplexities":7357,"Ġminute":7358,"Ġneighborhoods":7359,"Ġscreens":7360,"Ġattraction":7361,"Ġsurvived":7362,"Ġemotion":7363,"Ġelectricity":7364,"Ġwelcom":7365,"Ġvalleys":7366,"Ġrelationship":7367,"Ġfeeding":7368,"Ġmercy":7369,"Ġholes":7370,"Ġinjuries":7371,"Ġmurky":7372,"Ġpicturesque":7373,"Ġaccountable":7374,"Ġrequire":7375,"ĠVIP":7376,"Ġnarrowly":7377,"Ġscreech":7378,"Ġfluttering":7379,"Ġappearance":7380,"Ġeconomy":7381,"Ġmillions":7382,"Ġboutique":7383,"Ġwhirled":7384,"Ġraspy":7385,"Ġefficient":7386,"ependent":7387,"Ġcandlel":7388,"Ġaura":7389,"Ġsoda":7390,"Ġmushroom":7391,"Ġturmoil":7392,"MV":7393,"SL":7394,"fall":7395,"jud":7396,"mbling":7397,"table":7398,"Ġtar":7399,"Ġtel":7400,"Ġtrespass":7401,"Ġsake":7402,"Ġwis":7403,"Ġcave":7404,"Ġcash":7405,"Ġcasc":7406,"Ġtot":7407,"ords":7408,"Ġpun":7409,"Ġlap":7410,"Ġloss":7411,"Ġlapped":7412,"Ġiniti":7413,"Ġgam":7414,"Ġep":7415,"ayed":7416,"Ġrate":7417,"Ġrink":7418,"Ġultimately":7419,"amics":7420,"Ġworry":7421,"Ġgravel":7422,"Ġconven":7423,"Ġsoared":7424,"Ġmoans":7425,"Ġenorm":7426,"Ġyards":7427,"Ġbackdrop":7428,"Ġappre":7429,"Ġseize":7430,"Ġtread":7431,"Ġtear":7432,"Ġteach":7433,"Ġcrime":7434,"Ġwinds":7435,"Ġperched":7436,"Ġmund":7437,"Ġcontinues":7438,"Ġunderground":7439,"ĠCany":7440,"Ġhanded":7441,"Ġhealing":7442,"Ġperformer":7443,"Ġjoyful":7444,"Ġselves":7445,"ĠDMV":7446,"Ġactor":7447,"Ġsurfers":7448,"Ġequal":7449,"Ġswimmers":7450,"Ġpatrons":7451,"Ġorganizes":7452,"Ġthriving":7453,"Ġdental":7454,"Ġconsumption":7455,"Ġappointments":7456,"Ġlesson":7457,"ĠChildren":7458,"Ġextr":7459,"Ġripples":7460,"Ġfragility":7461,"looking":7462,"Ġpursuit":7463,"Ġfunds":7464,"Ġawareness":7465,"Ġplunging":7466,"Ġcycle":7467,"Ġhighest":7468,"Ġera":7469,"Ġdecorations":7470,"Ġhyp":7471,"Ġdocumentaries":7472,"Ġadvancements":7473,"Ġradio":7474,"Ġconvince":7475,"Ġjuice":7476,"Ġaspects":7477,"Ġdrums":7478,"Ġincreasingly":7479,"ĠParis":7480,"ĠCanyon":7481,"On":7482,"gard":7483,"warming":7484,"ĠĠ":7485,"Ġsession":7486,"Ġmath":7487,"Ġborrow":7488,"ittering":7489,"Ġhue":7490,"Ġlaid":7491,"Ġeither":7492,"utter":7493,"Ġstages":7494,"Ġstumbling":7495,"Ġreeling":7496,"Ġbees":7497,"Ġbeers":7498,"ica":7499}