#version: 0.2
Ġ t
h e
Ġ a
i n
Ġt he
o n
e r
r e
Ġ s
e n
a t
i s
č Ċ
Ġ o
e s
Ġ w
Ġ c
a n
i t
Ġa n
o r
Ġ p
Ġ f
in g
e d
Ġ b
a l
Ġ in
a r
o u
Ġ m
Ġt o
Ġo f
Ġan d
i on
i c
Ġ d
a s
l e
Ġ h
en t
o m
Ġt h
Ġ is
Ġ n
Ġ re
Ġ l
i l
Ġ T
r o
c t
Ġ e
s t
v e
Ġ g
o t
c e
l y
i d
Ġb e
o l
o w
Ġ A
Ġ I
Ġ S
i m
u t
e t
at ion
a m
u s
Ġ on
Ġs t
u r
i r
Ġf or
a d
i g
es t
Ġ C
he r
Ġth at
e l
a y
v er
c h
u n
ĠT he
Ġ "
Ġa s
Ġ it
it h
Ġc on
Ġ y
Ġw ith
Ġ M
Ġw h
o s
i f
' s
u l
Ġ B
t er
at e
r a
q u
r i
Ġo r
Ġ 1
Ġ he
er s
Ġp ro
Ġ Ġ
Ġ H
an d
Ġw as
Ġ -
a g
Ġa l
Ġ P
ou n
Ġa re
Ġ W
Ġ (
t h
k e
l d
e p
u m
i v
il l
o p
s e
r om
is t
Ġc om
Ġm o
es s
a c
Ġb y
e m
Ġ R
Ġy ou
en ce
i ve
Ġ D
p e
a in
re s
i e
Ġe x
Ġ E
Ġs u
a b
an t
ig h
Ġa t
Ġn e
it y
Ġ v
Ġs e
w er
Ġ F
Ġd e
Ġf rom
Ġth is
Ġn ot
o d
m ent
Ġ N
Ġ 2
Ġ G
Ġh a
Ġc h
Ġ L
s wer
p p
Ġ qu
ar t
or t
al l
i es
o c
Ġ r
Ġh is
Ġp l
Ġa b
Ġ un
Ġ le
ou t
en d
est ion
Ġs h
u d
ic h
p t
ou ld
Ġ J
igh t
Ġw or
Ġc an
i al
a k
l ow
Ġs ent
an s
Ġ k
g h
ion s
ar d
e ct
u st
Ġw e
Ġt r
Ġthe ir
T he
Ġha ve
Ġ us
as t
or m
Ġcon t
ĠI n
Ġ O
t her
at ed
om e
Ġa r
Ġan swer
â Ģ
u re
d er
Ġd o
id e
Ġqu estion
el l
g e
ic al
in e
o re
Ġ en
Ġh as
Ġ j
on g
Ġw he
ou r
ag e
i a
Ġm e
ou gh
Ġ U
am e
is h
ou s
Ġ her
p er
Ġwh ich
a re
Ġthe y
oun d
Ġab out
a ct
p l
c l
f orm
Ġin t
Ġ čĊ
ĠT h
Ġsent ence
u e
ac k
i re
0 0
o k
Ġcom p
Ġ im
ic e
Ġg o
f f
u p
Ġt e
i z
x t
b er
. "
Ġ1 9
ar y
Ġ K
c c
as s
Ġb ut
Ġ '
as e
in d
Ġa d
v ie
Ġwh o
r it
Ġf ol
i an
i p
i b
o g
ĠI t
er e
on e
Ġc l
a p
r y
Ġfol low
Ġo ut
ab le
Ġp re
i ke
e ar
Ġw ill
ul t
Ġm an
a ke
oun t
al ly
ow n
ĠS t
iv en
Ġo ther
a v
s o
d u
f er
Ġre s
c es
i le
an g
Ġmo re
Ġon e
a ce
Ġt w
S t
r u
at es
an ce
Ġs a
im e
ĠC h
at er
Ġs p
os e
Ġd is
Ġp art
er m
ation s
Ġit s
a ch
k s
u b
a il
Ġp os
ig n
Ġ ro
f ter
ir st
m er
Ġ Y
Ġp e
or d
Ġyou r
Ġint o
Ġbe c
Ġ up
a us
Ġe v
res s
Ġh ad
Ġal so
he s
St ep
Ġfollow ing
re n
o od
ĠTh is
Ġl ike
Ġk n
on d
Ġc o
Ġw ould
Ġs pe
is e
) .
as ed
Ġim p
op le
Ġs o
Ġw ere
Ġpro v
Ġ 3
ĠA n
form ation
or y
' t
Ġp er
Ġg r
Ġo ver
Ġa ct
Ġs he
ĠH e
it ion
Ġf e
Ġf irst
Ġs c
ent s
cl ud
Ġal l
Ġthe m
o ok
ve l
Ġd es
Ġs ome
Ġtw o
ĠĠ čĊ
Ġpe ople
Ġa g
Ġn o
Ġof f
t s
Ġin formation
ver y
p h
ic k
ĠW h
t e
Ġg iven
Ġre l
Ġre c
at ing
Ġ .
Ġin d
ĠĠ ĠĠ
Ġ ,
c k
en s
ay s
at ive
ĠU n
Ġ V
Ġwhe n
if ic
re e
Ġh im
il d
w e
i ous
ver s
Ġa pp
ot h
ers on
Ġtr ans
y p
n e
Ġbe t
o y
Ġt ime
o st
it e
l and
ing s
I n
j ect
le ct
Ġthe re
Ġwor k
Ġ if
aus e
Ġne w
Ġy ear
Ġbe en
w n
ri b
ic t
ĠE n
Ġar t
or s
Ġsa id
Ġcom m
ol d
ar k
Ġp h
Ġpl ay
Ġin ter
Ġa fter
l l
Ġs er
Ġun der
ib le
Ġcon s
Ġa cc
Ġst ate
Ġmo st
Ġ2 0
Ġdo es
r ough
Ġspe c
Ġan y
) ,
o b
on s
A n
vie w
ur ing
à ¤
Ġm y
il y
c ess
Ġat t
Ġin clud
id ent
ur n
âĢ Ļ
al s
. .
it ed
Ġthe se
Ġth an
Ġp r
re at
Ġwh at
Ġe m
Ġhe l
Ġc ount
ad e
e w
Ġpro du
Ġ =
Ġ ent
g l
Ġa m
Ġsu b
Ġd if
Ġ 4
o ve
he n
f ul
f ore
he d
Ġc ould
Ġse c
t ing
Ġne ed
Ġin v
Ġp ol
Ġhel p
o in
Ġsu ch
ic le
Ġt ra
Ġb l
v ed
ak ing
Ġp erson
Ġin c
en er
Ġm ay
Ġl oc
ĠA s
l es
if e
Ġf il
Ġre p
am p
Ġd et
Ġg et
Ġ âĢ
ri end
Ġc or
Ġwhe re
Ġh ow
i ed
Ġwor d
at h
c ed
Ġth rough
ation al
in k
Ġc ol
pe ct
we en
Ġ ra
, "
it ies
n ing
ĠR e
v ing
Ġp op
Ġ 5
An swer
Ġbec ause
Ġre g
ou p
Ġre m
Ġc re
ct ion
Ġbet ween
is s
Q u
Ġprov id
Ġde c
ot hes
f t
l ic
Ġwh ile
Ġn um
Ġbe ing
mer ic
Ġad d
Ġ Ð
ment s
Ġon ly
ar g
if y
Ġb oth
Ġs m
Ġm ake
Ġc all
i o
Ġfor m
Ġ ke
e xt
ot her
Ġre view
Ġl a
Ġf am
Ġ20 1
en ces
Ġm us
Ġb ack
it ive
pt ion
Ġf ind
Ġj ust
t en
Ġp res
ar s
Ġfil m
Ġdif fer
as k
ent ion
Ġd id
Ġpop ul
t ain
yp othes
u al
Ġle ad
ro w
ypothes is
at her
Ġpos s
ĠA meric
Ġb u
Ġ2 00
Ġm ain
pt ions
in ce
w ard
g an
Ġs y
y s
W h
r an
' ,
h ip
ĠThe y
in al
m ise
e ver
Ġst ep
o ol
v es
Ġp ass
Ġst ud
ĠA l
Ġs ur
gl ish
re d
Ġtrans l
Ġf l
Ġcont ext
Ġex per
r ic
Ġa c
Ġas s
Ġsu pp
ire ct
Ġkn ow
h ing
Ð ¾
an y
Ġc ar
Ġh igh
Ġw ant
ical ly
re ct
Qu estion
d ay
Ġe ff
as on
le ase
Ġte xt
i ence
g r
Ġe ach
Ġw ell
Ġd own
Ġyear s
u res
Ġthe n
el f
Ġs ame
id er
p ut
b le
Ġus e
g g
Ġwor ld
" .
ĠEn glish
Ġo b
ou th
Ġart icle
Ġf riend
Ġus ed
Ġsh ow
Ġman y
st and
Ġmo vie
Ġs ign
Ġd uring
Ġc ity
in s
ou se
t le
Ġex p
Ġin st
or n
" ,
Ġch ar
Ġ end
ic es
ĠH ow
Ġw ater
ut ion
Ġsh ould
u es
us s
ar ly
ent ial
Ġa p
i ent
ĠA r
Ġh ypothesis
il ity
Ġpro cess
Ġw rit
ra ct
Ġp ar
Ġdis c
Ð µ
or th
on t
ub lic
Ġt ell
Ġg u
Ġdes c
it s
Ã ©
Ġl ong
ĠN ew
ang u
c er
k ing
Ġpre mise
Ġv ar
ol og
Ġpl ace
Ġf ound
Ġgr oup
Ġag ain
om et
u c
Ġc ent
ow er
o h
ra ph
Ġme an
ru ct
it al
Ġn ame
u ally
Ġde f
a h
an ge
g et
in es
e c
Ġm ade
Ġbe fore
ak es
Ġs im
Ġne g
ic s
Ġkn own
Ġse e
Ġl angu
l ed
w ay
t ed
Ġsec ond
ar ch
ĠC om
ĠUn ited
Ġl ife
Ġpos itive
Ġl ook
Ġcor rect
Ġg ener
u ro
Ġch ild
Ġs et
en se
i el
ch ool
Ġs ay
Ġm em
Ġd irect
i er
Ġdiffer ent
Ġs it
z e
Ð °
Ġcount ry
Ġst r
Ġposs ible
ter n
Ġm et
Ġle t
Ã ¤
iv es
Ġf act
as es
ĠWh at
ur al
a ir
is ion
ĠS he
c ial
i x
Ġre t
Ġch o
Ġex pl
Ġd ay
t on
Ġt ask
T h
ar n
Ġcall ed
Ġare a
st em
a u
ar m
ĠI f
om an
Ġev en
or k
Ġgo od
Ġfam ily
u ch
iz e
Ġb ased
Ġ very
vel op
ver n
Ġe very
Ġimp ort
v en
Ġ à
o ot
Ġnum ber
Ġf un
i et
Ġm ight
c y
t y
Ġ 6
Ġmus ic
Ġbe l
Ġf ood
ro p
Ġo ur
Ġin s
Ġc are
it le
is m
Ġh ome
am es
r al
Ġw ay
Ġprovid ed
Ġha pp
n ess
Ġc le
Ġex t
Ġb r
Ġl ist
Ð ¸
ant s
Ġar ound
ĠS p
Ġst art
Ġword s
Ġper form
Ġb est
m an
Ġneg ative
ĠL e
Ġ1 8
Ġfe el
Ġo wn
Ġd ist
ĠIn d
Wh at
Ñ Ĥ
at ch
al th
u g
od y
Ġte am
at ure
Ġt erm
Ġt al
i k
Ġprodu ct
Ġre f
Ġ Ø
Ġs k
Ġchar act
im ent
oc k
Ġcomp le
Ġcont in
Ġsm all
Ġlangu age
t he
Ġstate ment
Ġcons ider
Ġin f
a ve
iz ed
os s
Ġo p
Ġc he
Ġm in
Ġst ory
ro s
n er
Ġs ol
Ġunder stand
Ġd ep
a j
ĠAmeric an
a z
Ġcon f
ate ly
Ġh um
Ġre st
Ġm on
ã ģ
Ġres p
ĠD e
Ġth ree
Ġl ast
i vers
Ġre ad
iv id
ĠE uro
a x
Ġde velop
en e
Ġm ention
et s
o v
Ġdesc rib
Ġres ult
al e
g y
im es
Ġoff ic
Ġb ro
Ġc ap
ĠT r
Ġ est
Ġth ink
Ġs omet
b y
Ġh and
Ġre le
al y
Ġa ut
ĠI s
Ġr ight
in a
ion al
Ġm ed
Ġs chool
ain s
Ġv al
Ġn ow
Ġor ig
en g
Ġt ake
ĠThe re
ist s
Ġb re
ĠY ou
âĢ Ŀ
Ġe qu
Ġs ing
ĠA d
Ġa ir
ĠĠĠĠ ĠĠĠĠ
Ġp ot
i ver
um m
Ġsy stem
Ġl it
ort s
r is
ĠSt ates
Ġinclud ing
ul l
Ġb ook
ĠW e
Ġap pe
Ġp oin
Ġtr ue
are d
Ġprov ide
b ers
ter s
ir d
Ġpart ic
iel d
Ġth ough
Ġinc re
ĠS h
ble m
Ġgo vern
Ġr un
ĠS e
Ġm uch
Ġ 7
Ġe le
ce pt
erm ine
ĠEuro pe
Ġl ess
ĠC on
ĠâĢ ľ
e k
ri es
Ġh ist
Ġs oc
Ġsub ject
a w
b all
ill ion
Ġinv ol
ĠHow ever
Ð ½
ag es
Ġeff ect
ut e
Ġus ing
Ġwith in
Ġb o
Ġpl an
Ġe lect
Ġg l
ĠA t
cl us
Ġv is
oh n
Ġf in
oun g
y ing
as h
ĠĠ Ġ
Ġse ver
Ġimport ant
e x
Ġor gan
Ġm aking
i qu
Ġ19 9
ire d
ar l
in ess
Ġc ur
Ġo ld
iv ing
en n
o ver
Ġ ed
ir l
Ñ ģ
Ġan other
um p
Ġd on
Ġcl ass
Ġc ase
ent ence
T o
t o
c on
Ġke y
c om
Ġne xt
an k
Ġvar ious
Ġre qu
Ġhe ad
Ġspec ific
Ġg ame
Ġ 8
al ity
Ġsupp ort
00 0
Ġrec ord
ĠAn d
cc ess
Ġof ten
re t
Ġev ent
ĠB ut
Th is
er n
Ġb us
l ight
Ġsit u
ĠC l
Ġ1 0
ren t
Ġagain st
Ñ Ģ
Ġth ose
ar ing
am m
ĠI d
ĠS c
ul ar
Ġc r
Ġto p
Ġ $
ail ed
Ä ±
Ġpro blem
Ġp ur
Ġph r
r on
is hed
b um
Ġ es
Ġret urn
at a
Ġo ptions
ros s
ĠB e
Ġl and
est s
Ġm il
v ice
Ġsign ific
Ø §
Ġf our
s on
s elf
Ġcomm un
are n
Ġme ans
Ġ Question
Ġg row
Ġmean ing
b e
Ġind ivid
Ġst ill
Ġpot ential
Ð¾ Ð
Ġsu gg
Ġd r
a pt
ĠS o
Ġl arg
Ġa ff
em ent
Ġ Ã
n ect
Ġsent ences
à ¦
id es
Ġt ri
e ad
os ed
one y
Ġm ar
.. .
ar ge
ur y
Ġy oung
ĠW hen
Ġpro f
Ġa v
Ġrel ations
n ot
Ġbu ild
Ġbel ie
ne y
Ġre ason
Ġal bum
ĠP ro
ĠF or
ĠJ ohn
ĠO n
Ġpol it
Ġb ody
Ġs ince
Ġle g
Ġcomm on
get her
Ġto gether
Ġfriend s
p ort
Ġhe alth
Ġp rom
an n
Ġexper ience
am ed
Ġsu ccess
ĠB rit
he re
Ġt urn
ĠId ent
Ġst ates
ĠA fter
iv ed
Ġb ig
Ġl ater
in ed
t il
Ġsent iment
Ġ Z
Ġpre v
c ing
ch n
Ġ 9
Ġan im
Ġo cc
Ġab ove
Ġe l
Ġor der
re en
Ġst and
Ġbe h
ĠIdent ify
Ġh ouse
Ġto o
Ġy es
clus ion
Ġsever al
Ġchild ren
at s
Ġf r
Ġp ower
Ġsomet hing
Ġ +
Ġwith out
ir on
Ġd el
h or
Ġpro t
Ġgovern ment
Ġpopul ation
aj or
Ġob ject
r ist
Ġal low
Ġle ft
g en
re ad
Ġen g
Ġt itle
a ur
Ġd em
Ġoffic ial
Ġk ill
Ġb and
Ġ ident
oc us
ĠG erm
l u
Ġd ue
ar th
i am
a pp
Ġg reat
Ġs ong
Ġcomp any
ans l
Ġre ce
Ġt yp
Ġsignific ant
Ġl arge
p le
Ġop en
an ces
Ġis s
Ġla w
| |
Ġcon st
Ġpl ot
Ġse em
Ġrelations hip
Ġpres ent
ĠR ep
Ġ [
Ġwhe ther
ivers ity
Ġre al
ĠC an
ward s
ate g
l ess
Ġbet ter
à °
Ġcharact er
Ġbe g
Ġd ri
l ing
Ġ i
Ġp ublic
Ġo per
Ġ ide
el s
Ġw oman
if ied
ur ther
or ies
Ġne ar
er gy
Ġhum an
le y
Ġj ob
P lease
Ġm ust
Ġg irl
Ġlit tle
ord ing
ag raph
Ġas k
Ġf ocus
Ġad v
re am
Ġact iv
Ġm ark
à ®
ent ly
em ber
Ġc our
os p
y pe
à ¥
Ġ19 8
Ġcon nect
at ic
? "
Ġinv est
Ġp ut
in ing
Ġ ve
Ġgo ing
Ġke ep
c ent
oc i
a i
à ¸
Ġn ight
Ġa way
g er
Ġsh ort
Ġm ult
Ġpro per
Ġc rit
her n
Ġre fer
Ġorig inal
Ġth ings
s ide
au gh
Ġe as
or ld
a im
Ġw on
rit e
Ġind ic
end ing
Ġexp ress
ĠN orth
Ġmo ve
Ġm oney
ail s
Ġl ight
on y
Ġo pp
Ġcom e
a ut
Ġapp ro
w ays
ro du
Ġm ajor
Ġm illion
Ġde ath
Ġquestion s
er tain
Ġbre ak
is ter
' re
l ine
Ġdes ign
ren ch
Ġt em
Ġcap ital
om en
Ġpar agraph
Ġcont ro
1 9
Ġinclud e
ĠM ar
Ġs umm
amp le
Ġt er
Ġen s
st er
om m
olog y
Ġp ri
Ġm en
à ´
Ġch ang
Ġd ata
Ġo ption
Ġs ays
Ġmention ed
ust om
Ġ- -
Ġs ense
Ġle vel
Ġc ult
ĠB l
at ural
id d
Ġp o
Ġ1 2
it ions
Ġre se
Ġfe w
th ough
Ġlike ly
rib ut
Ä ĥ
Ġc aus
Ġw in
un g
Ġimp act
ĠN o
Ġen ergy
at or
b s
in ation
Ġcon clud
ac es
at ter
Ġen ough
Ġ ri
ĠThe se
Ġd ra
Ġ à¤
Ġpass age
v iron
Ġun til
Ġl ove
ĠC ol
Ġte chn
b r
Ġro le
ĠS outh
Ġto wn
am a
Ġinter n
i um
ĠP l
an e
I t
Ġs outh
Ġst ruct
Ġpr im
ĠY ork
Ġdet ermine
ĠA f
m in
ĠG r
ansl ate
ĠR uss
j oy
Ġg en
Ġ19 7
e e
Ġto ok
Ġspec ial
ĠT o
Ġact ion
Ġf oot
Ġal ong
Ġ1 5
G iven
ĠM r
ard s
on es
Ġf ield
Ġl o
m ed
ab l
u ck
un d
Ġrel ated
Ġstr ong
ĠP h
i od
Ġha ving
Ġother s
Ġaut hor
r ing
ĠW est
Ġe arly
Ġ z
Ġloc ated
ĠF r
i or
Ġ ver
t al
Ġmon th
iz ation
m ber
m e
i en
Ġsome one
Ġbec ome
Ġf ather
Ġs w
ĠA ust
ur b
B ased
2 0
Û Į
Ġen viron
à ª
Ġn orth
Ġwe ek
ot s
Ġc ustom
Ġb oy
ĠF rench
Ġn amed
Ġw al
Ġprof ess
Ġle arn
C h
con om
a pe
Ġsitu ation
ot e
Ġser ies
Ġplay ed
b o
Ġdoes n
Ġh ig
op e
Ġover all
Ġm iss
Ġs ide
it ing
Ġrele ased
un e
Ġen joy
Ġ Ù
ĠW orld
Ã ¼
Ġme et
ĠM o
Ġcon cer
aly ze
y n
A s
Ġw ar
p or
Ġdo g
Ġp at
Ġlarg est
le v
o ber
Ġbus iness
Ġcon d
c he
og raph
Ġem ot
Ġch ange
Ġinter est
w h
Ġnew s
Ġre ally
e f
T r
ition al
Ġt est
Ġg ot
Ġcan not
Ġrep res
Ġh ard
Ġro om
Ġm other
Ġh old
Ġmain tain
Ġ19 6
Ġro ck
Ġg ive
es e
Ġto ld
ĠK ing
y l
Ġhist ory
ĠC ity
Ġis land
ĠP res
s h
Ġcom b
c o
Ġcon clusion
H ow
g ed
Ġw est
Ġcur rent
ir th
Ġ ess
is on
Ġinf lu
Ġsoc ial
Ġloc al
Ġ1 7
in n
Ġf urther
end ed
iqu e
Ġc ell
Ġn atural
d om
Ġtr ad
le t
er v
il ar
ac ed
Ġne ver
Ġex ample
id s
ap an
Ġdisc uss
Ġm akes
m b
Ġph ys
c hes
ure d
re w
Ġf ore
Ġbec ame
Ġof fer
th ing
r ation
Ġp ain
Ġfor mer
ĠH is
w ers
Ġ er
Ġal ways
um ent
u ed
W rite
ĠCh rist
Ġe conom
Ġpol ice
Ġman ag
Ã Ń
Ġloc ation
ce an
an ish
Ġs ound
Ġpro gr
Ġatt ack
Ġm ent
ĠW ith
ot t
Ġstep s
Ġrep ort
Ġw ent
Ġenviron ment
Ġp ast
ive ly
ac her
Ġimp ro
n ow
is ed
ĠWh ile
it ary
c le
c i
Ġan n
iet y
m p
e et
Ġcl aim
Ġsa f
ĠM an
en ed
Ġam ong
Ġtransl ation
ĠRep ublic
p r
Ð »
i ans
al f
Ġh our
Ġreg ion
Ġperson al
1 0
Ġ1 6
Ġconclud e
ĠC al
Ġpolit ical
y ear
v al
Ġrest aur
Ġpopul ar
m y
ill s
av es
Ġper iod
Ġ *
as ter
ab ility
o es
ĠF ran
Ġmem bers
ĠC ar
ĠBrit ish
Ġf ive
Ġ 0
Ġplay ing
ĠM ay
Ġs l
ru g
Ġc ateg
Ġdef in
Ġcre ate
Ġd ays
ĠJ apan
Ġtra vel
m ost
Ġv ie
Ġto tal
Ã ¡
ep ar
Ġbl ood
Ġp aren
Ġele ments
p os
Ġb or
Ġs al
ag ue
Ġacc ur
Ġp ost
ĠE x
s c
Ġwork ing
Ġs at
a f
Ġstud ents
Ġed uc
ail able
Ø ±
Ġmo d
Ġl ive
ĠP r
ri ed
Ġl ab
Ġm ag
Ù Ĩ
Ġc amp
Ġl ine
Ġsu re
Ġbec om
in t
Ġp ress
Ġ Q
Ġdid n
Ġas pect
ad a
ore d
Ġest abl
Ġen c
Ġf inal
Ġaff ect
ĠW ar
Ġcount ries
Ġv ide
as ing
er t
Ġconsider ed
ĠEn g
Ġp ract
ro wn
Ġs our
Ġs un
ĠCom m
ĠU S
Ġt imes
Ġt ype
ĠD et
Ġf all
em pt
ur s
Ġus er
ĠP ol
ĠG e
Ġcomp et
Ġprot ect
Ġcare er
Ġsim ilar
Ġsing le
ĠG iven
Ġf ull
f ic
Ġex pect
Ġst op
Ġcomple te
' ll
Ġse ason
Ġt aking
Ġc ame
Ġsumm ary
og n
ĠAf ric
ĠS entence
Ġrem ain
Ġcle ar
Ġgo al
Ġde b
Ġf ree
i pp
Ġcl ose
Ġin it
ab ly
im ately
c ul
o f
Ġtransl ated
re et
Ġtw eet
Ġ1 1
Ġbuild ing
ak en
act ion
Ġm ot
N o
Ġpoin t
us h
Ġ1 4
Ġcho ose
Ġw omen
Y es
at t
Ġco st
Ġm om
Ġr is
Ġre d
Ġev ents
Ġthough t
er al
Ġind ust
is f
y le
Ġj oin
Ġs epar
Ġch all
ĠO ne
el t
gr ound
l er
it her
Ġ #
ĠY es
Ġs on
Ġin put
ĠB r
Ġl im
N ow
Ġac ross
Ġindivid ual
Ġw a
Ġm ater
Ġcont ain
ĠG u
- -
Ġth ird
O ptions
av or
Ġess ential
ĠPres ident
Ġpoin ts
Ġ )
c hed
Ġd iv
Ġim pl
Ġterm s
o ose
Ġne cess
Ġt re
Ġwrit ten
ific ation
ol ution
ĠEurope an
Ġp ort
Ġrestaur ant
W e
Ġb irth
Ġar ri
Ġco ver
Ġth ing
id ence
ĠO r
Ġhe re
ĠA m
ĠM c
Ġb orn
Ġphr ase
Ġl ot
Ġrese arch
Ġw atch
Ġass oci
Ġhe art
o e
Ġe y
ar ily
w ork
ĠH ar
Ġpart y
Ġph ot
vie wer
ful ly
ĠIn st
à ¨
Ġl ow
er ing
Ġf ace
st ep
re st
Ġcont ent
Ġt ou
5 0
ĠSp anish
ĠâĢ ĵ
Ġbe gan
ĠAd d
ĠY our
Ġk ind
e le
Ġser vice
Ġl ed
Ġe t
f ace
Ġn ational
ĠA ll
Ġp ie
ĠS ome
av ing
Ġre pl
ĠUn iversity
Ġre viewer
Ġan s
Ġp ay
Ġatt empt
f ort
a per
Ġrepres ent
Ġresp ons
Ġre du
ch ie
ã Ĥ
ond on
f or
Ġa ud
Ġbeh ind
Ġc apt
Ġequ ation
Ġwh y
lev ision
Ġf ut
Ġcontro l
ĠGerm an
Ġmater ial
Ġw ind
e an
at ures
g o
Ġask ed
ff ic
Ġdirect ly
ir m
ĠG o
ĠC ount
s el
ĠCh ina
Ġf low
on se
d d
art ment
' m
o id
Ġadd ress
S o
ol l
ĠCom p
Ġm ess
v ices
Ġdet ails
ĠĠĠĠĠĠĠĠ ĠĠĠĠĠĠĠĠ
ĠE l
Ġc ertain
Ġl iving
Ġans wers
ĠB y
ĠAmeric a
Ġoff ice
se qu
Ġpl ant
Ġp lease
w est
p ite
ub l
pl oy
Ġfoot ball
u ly
Ġcomp ut
Ġcol lect
Ġ vers
ĠW ill
ĠAr t
ĠEng land
Ġn on
Ġ3 0
ĠN ational
Ġstruct ure
ĠS w
Ġus ually
a ff
. ,
Ġunderstand ing
Ġ1 3
ĠS u
ĠTr ump
ĠB ar
Ġout put
ĠE arth
y ard
Ġbeg in
end s
Ġa ge
Ġtem per
led ge
ĠJ an
Ġb all
Ġwor ks
le x
ĠS y
ĠM y
Ġlook ing
Ġh ot
w are
Ġse en
Ġt akes
Ġout side
Ġsp ace
Ġdevelop ment
Ġt our
r ict
I I
Ġan t
d e
Ġr ul
l or
g es
Ġbe aut
Ġf re
Ġm or
ĠC ent
ist ic
Ġab le
Ġg ra
Ġmil itary
Ġj our
rop ri
a ul
Ġcharact ers
iz ing
Ġse lect
Ġtr ying
Ġsu per
ĠAust ral
Ġst ay
ĠL ondon
Ġvide o
Ġmem ber
Ġcle an
ak er
u als
Ġpres ident
' .
Ġacc ording
ut es
Ġcl im
Ġperform ance
Ġbl ack
Ġe at
Ġr ad
Ġfut ure
i ol
o le
Ġhist or
ĠTh at
um b
ĠT w
il le
Â ł
Ġh alf
Ġprogr am
ens ive
S entence
Ġprovid es
Ġmo der
Ġto wards
er ed
m a
i res
ur ity
du ct
Ġw ife
Ġc ause
ep t
i i
ac y
Tr anslate
ord s
Ġf ac
Ġref ers
Ġprev ious
ĠD av
ĠAn swer
an a
Ġparen ts
n o
iv al
ict ion
Ġc at
ĠInd ian
Ġsugg ests
Ġam ount
à º
al d
ar r
d own
Ġhim self
r ound
Ġ19 4
Ġmark et
Ġle ast
Ġde ep
Ġare as
Ġf ar
Ġcon vers
Ġsh op
Ġpos ition
v ant
Ã ³
Ġl og
Ã ¶
Ġinvest ig
r or
Ġent ity
Ġv ol
Ġinclud es
Ġe ast
Ġide a
ĠSe a
s u
Ġconcer n
Ġs ix
Ġinvol ved
Ġp un
Ġl ate
Ñ ĥ
ud e
Ġc al
Ġtell s
ib ility
Ġcent ury
Ġg e
Ð º
id ed
pe cial
ic a
Ġte levision
in c
Ġcont ribut
Ġpart s
Ġg ames
et h
Ġspec ies
Ġrec omm
Ġc ut
Ġphr ases
o ice
Ġlead ing
Ġresp onse
Ġfact ors
Ġdescrib ed
Ġgener al
Ġcon ve
o or
ĠM us
Ġstud y
ĠH ouse
Ġtr y
" )
idd le
er ous
ĠN e
b or
ĠP e
ĠGe or
Ġb ad
Ġvie w
Ġdec ision
Ġv ill
Ġhe ld
Ġpro ject
Ġab s
Ġgr ound
ar ter
Ġrec ogn
ur ch
Ġvis it
Ġcom es
ip le
Ġval ue
he l
Ġw ide
n y
le ep
Ġa chie
Ġ |
Ġav ailable
Ġr ange
Ġhigh light
Ġde al
ic ation
Ġt aken
Ġb ene
fic ult
an ation
ĠH ere
Ġd est
Ġtransl ate
Ġse x
Ġqu ick
ĠP erson
iss ion
The re
n a
Ġf ig
Ġhour s
st r
g ress
Ġappe ar
Ġbe low
i ences
ĠThere fore
Ġstart ed
Ġtyp ically
ow s
Ġget ting
Ġchang es
Ġiss ues
ropri ate
Ġpol ic
Ġres pect
Ġdif ficult
H e
f riend
Ġd i
3 0
Ġb ra
Ġon ce
ie f
le ge
c ks
Ġdo ing
Ñ ĭ
ad es
Ġc ir
Ġcustom er
Ġacc ess
Ġex am
Ġprofess ional
à ¯
ĠInd ia
Ġf ight
Ġtou ch
Ġneed s
Ġseem s
il t
Ġincre ase
Ġl ives
Ù Ī
I s
Ġs us
Ġp ark
Ġv ict
et er
ul arly
a el
Ġcl ub
Ġanim als
Ġf ire
il ities
Ġb as
Ġgrow th
a e
Ġchall eng
ro om
Ġinc or
op h
ĠH er
ĠA b
Ġd ate
Ġbor der
read y
Ġact ions
ud d
oss ible
Ġbro ther
U s
Ġar g
augh ter
ĠJ ack
ir t
Ġshow s
ell ing
ant ic
b ack
r ay
Ġtrans port
Ġag re
Ġintern ational
Ġhig her
Ġpre p
Ġem ploy
Ġc ru
Ġknow ledge
Ù Ħ
if t
ep end
Ġcommun ity
Y ou
Ġcol l
ĠR oman
' ve
Ġtal k
Ġst ar
e b
er c
Ñ ı
ĠE d
min ist
1 2
Ġinit ial
I f
ĠS un
Ġm at
Ġwant ed
en ing
Ġun ique
Ġins ide
Ø ¯
ĠD on
and s
am ent
id ge
en cy
Ġse arch
C on
ĠAs s
Ġphys ical
Ġsugg est
ĠN ow
ou d
ct or
ou ra
Ġp ict
ĠC o
iz es
Ġs old
Ġst at
, âĢĿ
ĠâĢ Ķ
Ġl ower
Ġl ack
ort hern
Ġst ore
Ġd am
ĠP ar
Ġmonth s
Ġt reat
ĠIn tern
Ġb ar
it ution
Ġh it
Ù ĩ
in o
Ġac cept
Ġacc ount
Ġe ver
Ġens ure
Ġrece ived
Ġneed ed
Ġgo es
h am
if ically
ĠT e
Ġcon cept
Ġwh ite
Ġfin an
ap s
Ġent ire
ĠDet ermine
h od
Ġwrit e
Å Ł
Ġindivid uals
if f
Ġp ubl
Ġal ready
Ġ ice
u ary
Ġplay er
H ere
pl es
Ġs out
Ġim m
. âĢĿ
Ġint rodu
ĠM ich
Ġto day
Ġe ither
ke y
Ġab ility
um mer
ĠO b
sel ves
ĠRe ad
ĠUn der
Ġcon v
Ġex c
Ġsur round
pl ay
Ġocc ur
it ar
Ġf avor
Ġgl ob
Ġfr ont
Ġr ather
iv il
ra b
f ect
Ġ /
te xt
olog ical
ĠS er
Ġmed ia
ly ing
Ġapp ropriate
Ġr ating
g el
as hing
Ġreg ard
ĠRuss ian
Ġd en
Ġcomm it
ĠE m
Ġes c
Ġme as
Ġpl ants
Ġw arm
Ġwrit ing
ĠD es
1 1
ĠT ur
Ġsc ient
Ġqu ality
Ġsur face
Ġcho ice
Ð ¼
Ġ X
ĠL et
Ġbecom es
Ġnum bers
Ġsh are
Ġcho ices
Ġbu y
Ġrele vant
ar a
ĠD r
am er
Ġv iol
Ġpartic ip
Ġactiv ities
Ð ²
Ġle ave
Ġm ind
at ors
u el
os ing
Ġper cent
Ġaspect s
Ġas king
Ġh or
ines e
Ġs elf
Ġd ig
Ġpr ice
oc r
p s
o x
c her
om b
ĠSt ate
Ġde ad
in ally
Ġmin utes
t t
Ġm ount
ĠM in
P art
um e
at tle
ã ĥ
ĠR es
l ike
ruct ions
Ġst e
Ġfor ce
Ġpri v
Ġsim ple
Ġhapp y
Ġbr ing
Ġkill ed
re g
ĠK e
Ġm ass
ĠCount y
Ġbro ad
Ġem b
i ents
re l
ĠJ ust
Ġh ost
Ġident ify
Ġcomple x
Ġthrough out
Ġ ×
à µ
Ġcre ated
ĠFr ance
ener ate
Ġun d
Ġit em
Ġimpro ve
p ose
Ġsu it
Ġcons ist
if orn
à ¬
is es
Ġar ch
Ġre ve
ac hed
as ons
Ġanim al
Ġl ost
Ġrel ig
A l
ort un
ĠS ec
ĠM ed
ition ally
Ġsay ing
land s
` `
al ian
Ġn ature
Ġdescrib es
Ġex ist
ur g
b on
ĠW al
fer ence
Ġex ce
Ġsa w
Ġn et
ĠO cean
av y
oin t
ĠJapan ese
Ġnecess ary
pecial ly
e g
oun ter
n own
Ġinst ead
Ġ2 5
ĠO ct
ĠMo vie
ĠE ast
1 8
Ġprodu ction
ish ing
Ġcont r
Ġgr amm
Ġspec ifically
] .
Ġexpl ain
Ġp ers
o res
O n
Ġbelie ve
od e
id ay
Ġan al
o ke
Ġreason ing
v ent
r b
Ġst ri
Ġ Â
iforn ia
Ġcour t
ug ust
ĠG ree
Ġ19 5
if ul
Ġfam il
Ġo x
m it
Ġbo x
Ġcomp on
ĠS ince
Ġindust ry
ic o
ut put
Ġmoder n
ill ed
Ġh ol
Ġs low
1 5
ed eral
Ġre ach
Ġpro b
osp ital
Ġment ions
Ġeng ag
i ber
Ġro ad
Ġb ird
Ġc ra
Ġco ast
Ġprim ary
ĠAn alyze
Ġche ck
Ġd aughter
Ġd er
ĠSt e
Ġter rit
g ar
l o
i j
à §
ĠS am
ĠCh inese
ept ember
Ġb ed
Ġche m
Ġ u
e ch
Ġfinan cial
Ġdirect or
Ġent ailed
Ġfe atures
Ġcomput er
Ġpopul ous
Ġser vices
Ġhelp s
Ġart ist
Ġre v
a id
Ù ħ
Ġass ist
âĢ Ķ
Ġassoci ated
ab or
ol ve
Ġin j
Ġcol or
Ġco ok
Ġr ate
a res
Ġon line
Ġmult iple
Ġfun d
Ġm ur
Ġex ec
Ġqu e
id ing
is ing
Ġt ax
t ime
m s
Ġsur v
Ġad minist
Ġevery one
Ø ª
Ġ _
Ġg re
Ġcont ains
Ġdisc over
rib ute
Ġp ick
Ġbook s
ĠK ore
i ation
Ġmet hod
à¤ ¾
Ġob s
Ġproblem s
ĠD em
Ġdra w
ough t
ist an
p ly
Ġd om
er y
ra p
Ġag o
Ġadd ed
Ġs leep
ĠA ir
ro te
y d
Ġt able
Ġthem selves
Ġc and
Ġb i
Us age
Ġ &
ĠWh ich
ĠS m
Ġeconom ic
Ġpress ure
Ġne igh
ĠCal ifornia
Ġph one
ĠUn ion
r ong
Ġrem ains
Ġ ult
ĠKing dom
Ġres our
ĠØ §
ĠWill iam
Ġs ize
ĠDav id
ĠH ol
ove mber
ys is
ĠP aul
ĠJ une
Ġcateg ory
Ġes pecially
ĠR iver
Ġlead er
Ġw ood
Ġd one
Ġha ir
Ġte acher
Ġde cl
Ġwal k
Ġre lease
ĠGerm any
Ġfun ction
Ġadd itional
k en
ĠS an
Ġaccur ate
Ġ2 4
er ia
u ff
Ġ( "
ph as
Ġb al
Ġcontin ue
Ġrun ning
Ġ ill
Ġrequ ire
ĠAl though
us ed
Ġdefin ition
Ġd ied
ĠM arch
Ġb ase
ol it
Ġconvers ation
ad em
eng th
Ġopp ortun
Ġc ele
ip s
Ġsol ution
ĠM on
ĠP art
Ġth reat
Ġup on
a ign
Ġleg al
Ġsec urity
am b
n d
un ch
Ġmor ning
Ġdec ided
ur t
Ġiss ue
Ġsc en
Ġso on
ver age
h ood
Ġm atch
ĠP re
c il
ĠArt icle
ĠRe c
ĠN ot
Ġqu arter
u ation
Ġd oc
Ġprev ent
Ġe arl
et ic
Ġgroup s
Ġl ay
Ġatt ention
ĠU K
Ġits elf
Ġimpl ies
m osp
cc ording
Ñ Į
y gen
Ġ1 00
he ad
ĠP er
Ġsub st
g ing
Ñģ ÑĤ
Ġal most
ce mber
he st
et y
O utput
ĠOct ober
Ġsomet imes
ut h
t a
Ġhow ever
Ġm ix
â ĺ
Ġ :
ag o
Ġev idence
ĠG reat
ĠT V
s y
Ġs ides
Ġvill age
Ġinclud ed
ĠIt alian
Ġind epend
Ġc oup
ĠJ ames
Ġs qu
Ġin form
Ð ´
Ġcour se
Ġwho le
b and
Ġc op
b re
w ood
ĠN ovember
Ġglob al
Ġso ft
Ġany thing
iver se
ar ning
ĠJ uly
ul f
Ġincre ased
Ġsmall er
ĠWh o
ĠS eptember
ĠAs ia
Ġwant s
ĠJan uary
ru ction
Ġrecomm end
Ġd rug
1 4
ĠÐ ¿
Ġmom ent
Ġb ab
Ġplay ers
pr il
Ġan alyze
Ġem phas
Ġat mosp
Ġb it
Ġ ?
Ġlong er
bo ard
Ġdet erm
Ġpl ays
ver t
Ġtop ic
Ġl oss
Ġg reen
à ²
à ±
u f
Ġy et
Ġwh ose
Ġcru cial
Ġbeh av
Ġver b
Ġsat isf
Ġbeaut iful
y m
ĠA ugust
Ġdescrib e
Ġread ing
o ices
med i
Ġacc om
Ġevent ually
re me
ab it
Ġback ground
Ġe p
Ġactiv ity
Ġe mer
Ġann oun
Ġcons um
ĠPh il
Ġbel ong
Ġw all
Ġsim ply
or ing
O N
end er
E x
is c
Ġse a
o ff
ĠR ed
el low
Ġprodu ced
ren g
ri ef
Ġquick ly
Ġsuccess ful
B C
Ġw rote
Ġvers ion
it er
1 7
Ġapp re
Ġf elt
Ġdem on
âĺ ħ
Ġpro p
Ġra in
Ġrel ation
i able
n t
ĠAfric a
ĠA lex
h ib
Ġle aves
Ġsc ene
Ġref lect
Ġcamp aign
i os
Ġcult ural
Ġgener ally
ĠD ep
ĠB ro
Ġ Qu
Ġm atter
Ġdis s
Ġprovid ing
Ġcent er
ĠLe ague
Ġform ed
Ġn ames
ĠP ort
Ġtemper ature
ff ee
Ġj ud
Ġmess age
Ġget s
Ġp en
Ġpartic ularly
Ġappe ars
Ġpartic ular
r ight
Ġrec ent
Ġsaf e
ĠT om
ashing ton
u k
he ast
Ġsp orts
Ġus es
Ġtal king
ul a
Ġg as
Ġlab el
Ġprim arily
." ?
Ġinflu ence
Ġg ain
ĠA pril
Ġcond itions
e y
Ġeduc ation
1 3
ĠO ptions
Ġ5 0
Ġmeet ing
b orn
Ġdesc ri
Ġst age
Ġwe ight
Ġindic ates
at ur
ĠAt l
Ġpol l
Ġfor ces
Ġdis e
ĠC he
Ġofficial ly
Ġbene f
Ġtechn ology
Ġris k
Ġcell s
Ġsh oot
Ġlevel s
Ġproduct s
1 6
m ore
Ġc ast
Ġt arg
Ġo il
ĠC or
ĠAn gel
Ġdevelop ed
ar ies
Ġsec ret
in ct
Ġf em
Ġhe at
Ġh op
air s
Ġw rong
Ġf it
Ġcom pl
Ġsour ce
Ġel se
Ġfe ature
ri an
m ing
ze ch
C an
Ġh arm
Ġele ment
Ġanal ysis
ĠP ark
Ġd ark
Ġconnect ion
qu e
ĠP at
Ġh om
it es
id ents
c ome
ĠWh ite
H ypothesis
Ġn ation
Ġwe aring
ic it
Ġcele br
Ġc y
ĠS im
Ġcomp an
ĠM ex
Ġpre d
á ŀ
in ated
Ġimport ance
p ed
Ġst ra
Ġs we
p ir
Ġst yle
Ġcrit ic
c ast
Ġal though
ĠCan ada
Ġav oid
p ing
Ġg un
ib r
ĠDe cember
us e
Ġas ks
ĠGeor ge
Ġresult s
p ro
ĠD o
Ġan c
ĠD uring
ab les
Ġcoup le
ĠMich ael
Ġwork ed
Ġv oc
ĠG l
ĠW ashington
uc le
Ġcent ral
Ġ201 3
Ġc ivil
Ġsp ok
Ġst reng
Ġw ays
Ġ2 1
Ġexper iences
T itle
Ġox ygen
ou ble
Ġlarg er
Ġm id
ĠI I
Ġra ce
rough t
Ġpur pose
ĠA pp
ĠA rab
e ks
Ġd in
ĠL a
Ġri ver
Ġrem ember
im s
Ġfam ous
n al
Ã §
h r
Ġh ope
Ġtyp es
Ġ' '
at ives
Ġ ``
Ġno vel
at ory
Ġmus ical
Ġl ik
Ġex act
ĠAustral ia
Ġk ids
se c
Ġappre ci
Ġlead ers
Ġ201 0
Ġco ffee
Ġd ie
ac hes
ou l
Ġh ospital
Ġfeel ing
et t
Ġsk ills
Ġdr ink
n es
Ġey es
ou b
ĠT ra
Ġ2 2
Ġmur der
Ġcontin ued
Ġper fect
ĠRe view
Ġhand s
Ġhapp ened
o on
in ks
Ġwe ather
Ġeng ine
Ġ201 1
an ks
res h
u le
ed y
Ġgener ate
Ġoff ers
Ġn arr
ĠC ons
Ġch arg
Ġbeg ins
u ate
Ġco ol
ĠI m
Ġfre qu
hen s
Ġatmosp here
Ġcar ry
Ġf ast
Ġd ed
A r
ĠM al
ĠUnder stand
Ġ19 3
ast ic
Ġtra in
ic ip
Ġcon duct
ain t
Ġcont act
um ents
Ch oose
Ġg ave
Ġappro ach
Ġspe ak
k y
Ġt one
ad y
Ġgr and
ran ge
ĠB oth
Ġop in
urb an
Ġh on
ed s
ĠM ary
Ġpur ch
Ġex erc
f ord
Ġrul es
Ġpres ence
Ġp aper
ri a
t ic
Ġwor th
Ġf arm
Ġdo or
Ġaud ience
Ġwe bs
l in
A T
Ġis n
ĠD an
Ġcl os
Ġresour ces
w rit
ĠIt s
m en
Ġsol ve
Ġam b
Ġearl ier
ru ary
Ġst ation
Ġimp ossible
ra ft
Ġlet ter
Ġser ved
Ġh us
Ġp ack
Ġcorrect ly
Ġfind s
iv ity
Ġdec re
i ers
Ġact ually
pp ed
Ġc ross
W hen
Ġd ang
Ġp an
Ġsu ff
Ġle aving
ĠB el
Ġd ial
ĠBrit ain
Ġim medi
Ġpotential ly
Ġ4 0
A fter
Ġsystem s
Ġext ra
Ġsaf ety
Ġexper ien
Ġgu itar
Ġbl ue
È Ľ
Ġfollow s
Ġ201 2
Ġenc oura
Ġgr ad
Ġdesign ed
Ġa th
Ġpo or
Ġfollow ed
Ġà ¦
Ġcompon ents
Ġhig hest
Ġle arning
Ġst reet
Ġmo ved
un t
Ġreport ed
Ġsong s
ĠM or
O P
2 5
Ġhighlight s
ĠP al
ct ions
it ude
Ġdec ide
ĠR ober
ĠC zech
amp ions
Ġg ives
Ġdet ailed
Ġemot ional
Ġn orm
Ġm ach
" :
ĠDem ocr
Ġa verage
Ġcre ating
Ġs il
Ġsing er
Ġdiffer ence
ĠF eb
Ġeff ic
Ġg iving
Ġt en
h a
Ġwe eks
Ġsk in
Ġinvol ve
Ġcaus ed
Ġcount y
P re
Ġatt ract
Ġachie ve
ĠSt ep
' d
Ġ201 4
Ġform s
Ġfilm s
Ġs n
Ġhigh ly
id a
Ġchalleng es
Ġre asons
an ced
Ġapp lic
Ġjour ney
Ġtra ck
it ch
ĠS en
Ġcomp ared
6 0
Ġin n
er ry
i us
Ġfig ure
as tern
Ġestabl ished
Ġrefer red
G enerate
Ġchem ical
Ġadd ition
Ã³ n
Ġpubl ished
ĠRuss ia
and er
ĠThe n
ĠM art
is ions
Ġpl aces
Ġto ol
Ġhus band
ĠTr anslate
ĠV al
z y
l a
Ġcult ure
Ġsc reen
Ġbu ilt
Ġpie ce
ĠM e
Ġnot hing
Ġc old
Ġdemon str
Ġcir c
Ġconve y
Ġtal ks
Ġsh ot
ĠR ich
o o
Ġmed ical
al ing
Ġstud ent
ograph y
Ġcre d
Ġincre asing
. '
og ue
Ġb rief
c an
e ed
Ġcol lege
E R
Ġstate ments
Ġcom ment
ĠOb ama
Ġeas y
Ġ ut
Ñ ĩ
ĠA ccording
Ġ2 3
ĠTh om
Ġlangu ages
Ġmet al
ĠR ob
Ġnum erous
Ġcomp os
ĠPe ople
Ġme ets
Ġc ases
Ġexpect ed
ib ly
Ġprom ot
ut ions
Ġpro gress
in ary
ĠS chool
Ġitem s
x imately
l am
c ious
Ġevery thing
Ġw at
Ġpr ison
Ġright s
it z
Ġimp ress
Ġad apt
R ead
Ġcar bon
e lect
ic ate
Ġeffect s
Ġl if
ic ro
g in
Ġtri ed
Ġ2 8
ism s
ic ian
Ġad ult
ĠÃ ®
n ers
ĠFran k
Ġpre fer
ĠB en
il es
Ġ201 5
ail y
Ġdis app
b ook
Ġl ength
Ġsp ent
Ġal tern
Ġf ederal
Ġm iddle
Ġe arth
Ġtarg et
Ġb rought
Ġrespons ible
à «
ĠRe g
re y
Ġc ities
Ġf ish
d ing
Ġsc ience
w here
ight s
ĠAdd itionally
Ġc reat
Ðµ Ð½
u x
Ġturn ed
Ġact or
Ġar rest
Ġmo ving
om s
Ġcom fort
Ġhe ard
Ġve h
Ġult imately
augh t
Ġbab y
Ġbegin ning
ĠS ch
Ġrequ ired
Ġhapp ens
ĠFeb ruary
an ia
Ġd ress
r ang
Ġst aff
Ġsour ces
Ġal le
Ġmiss ing
Ġgre ater
at in
le ment
in ent
us es
Ġval id
ĠT ex
u gh
Ġs ister
it or
Ġs ite
Ġtouch down
Ġk ing
Ġcaus es
Ú ©
ĠR o
u ge
Ġcom ing
ĠWest ern
k nown
Ġestabl ish
Ġincor rect
Ġfour th
Ġb ur
Ġteam s
T e
Ġsepar ate
y a
Ġinst r
È Ļ
Ġde v
Ġn ucle
Ġv ot
al ed
Ġpl ans
oun cil
ĠÐ ¸
Ġsp aces
Ġest im
Ġfore st
Ġc it
Ġp le
ĠÂ £
Ġso il
Ġlit er
ĠBl ack
Ġhistor ical
Ġf ear
ask et
Ġser ves
Ġreturn s
Ġtra ining
oy al
Ġclim ate
ĠF irst
Ġkn ew
Ġdri ve
ĠQ ue
Ġser ious
ĠH igh
Ġc ard
Ġfor ward
ĠB ill
ant ly
Ġs ens
Ġreg ul
Ġwrit er
Ġcurrent ly
Ġmil es
op s
Ġnot e
_ _
Ġprob ably
if ies
Ġmove ment
Ġrad io
Ġtransport ation
ut ive
v in
2 00
ad o
Ġmod el
w ise
Ġbehav ior
Ġsh ared
Ġtrad itional
og le
ar io
as c
ĠCh ar
Pre mise
Ġent ertain
Ġpe ace
Ġint e
Ġo cean
ĠL ou
ly mp
Ġj ump
ĠA c
Ġ2 7
ĠG ener
ic ations
Ġcompan ies
Ġp erm
ĠAfric an
Ġeff orts
ĠÐ ²
Ġ200 8
Ġn ut
Ġinvol ves
Ġallow s
Ġobject s
Ġgo als
Ġal one
st on
à¯ į
ĠM ad
ÑĢ Ð°
Ġb reat
Ġsuit able
Ġf resh
ĠThe ir
Ġelect ric
Ġfamil ies
olit an
Ġcon sequ
Ġval ues
Ġspe ed
Ġset ting
id el
Ġfe et
ound s
Ġ200 9
ĠâĢ ĺ
Ġvar iety
Ġpre t
ĠCon text
Ġ urban
ĠM ark
Ġorgan ization
ill ing
s p
Ġcond ition
s et
Ġn ice
Ġbo ard
am s
ĠIntern ational
z a
P ro
Ġb urn
Ġinst ance
Ġcent re
Ġfin ally
a ult
Ġsp ir
Ã ¢
t ies
e ff
ing u
er ve
Ġe th
ĠB o
est er
u ous
ĠM ore
Ġstand ing
Ġpriv ate
Ġim ag
ĠB ased
op er
Ġb ank
Ġmar ried
Ġcom mer
Ġr an
Ġsit ting
ĠF rom
ĠO ver
m on
Ġinter view
Ġd ream
k ish
Ġ Ñģ
Ġmaintain ing
Ġfeel ings
r ig
Ġhold ing
Ġd u
Ġwatch ing
Ġpri or
ĠA g
ĠAtl antic
Ġs light
Ġs ummer
Ġmult i
Ġs now
Ġe ight
Ġ2 6
Ġr out
Ġdes pite
et her
k i
Ġappro ximately
Ġsout hern
Ġofficial s
ond ay
ic ks
f l
en ced
ĠB ra
pl anation
Ġp air
iam ent
ĠB er
m ark
Ġs and
ol ic
Ġprodu ce
Ġg old
Ġdo ctor
Ġt ree
ĠA ct
k a
Ġse ven
ĠF inn
ĠO ther
u z
Ġsp read
à¥ į
Ġg ather
Ġe gg
ard en
Ġmaterial s
Ġwest ern
Ġst ress
Ġn oun
Ġt ast
an swer
Ġcont ribute
Ġb io
Ġk id
Ġqu ite
Ġlog ical
ro ll
Ġstart s
al se
ĠC ont
Ġre act
Ġacc ident
Ġtre es
c is
Ġwal king
Ġemot ions
Ġneigh bor
Ġrem o
Ġcaus ing
ĠV er
f ield
Ð ·
rop olitan
Ġst ream
ic les
un k
Ġin h
Ġregard ing
Ø ³
Ġn orthern
A S
ag n
ĠComp are
h ouse
ec ause
Ġgrow ing
Wh ich
ĠM iss
Ġv oice
Ġde g
Ġsc ore
Ġe ating
c ies
Ġold er
ĠF l
Ġwon der
Ġcommon ly
Ġ201 6
en a
um n
Ġb ag
Ġe c
Ġhelp ed
Ġb ound
Ġch ance
ĠØ ¨
Ġpract ice
Ġpie ces
ffic ient
ĠO lymp
N N
ĠS out
ĠTw o
ĠJ im
e es
Ġpr in
Ġem ail
Ġtri p
4 0
Ġconsider ing
Ġpolic y
Ġwh om
re land
Ġallow ed
c raft
sy ch
Ġà ª
ĠL os
ĠN or
Ġs ad
Ġst ars
Ġm is
e um
ĠÙ ħ
Ġst ories
Ġdisc o
se e
s pe
Ġpre c
Ġsoc iety
Ġdist inct
ues day
ĠG reen
Ġhe avy
ĠGree k
Ġsy mb
al k
Ġfl oor
Ġsp ort
ch ange
Ġide as
ĠIs land
R e
Ġ ing
Ġgl ass
ĠB rown
ĠJ os
âĢ ĵ
Ġresp ond
Ä Ł
Ġr ich
il ing
Ġreturn ed
Ġanc ient
Ġlim ited
ĠPar is
D et
b ed
Ġdoc ument
al es
Ġcand id
|| |
|| |||
Ġreg ions
Ġfem ale
Ġrelig ious
in i
he m
ĠI reland
Ġv ir
Ġp ath
à¤ °
Ġc amer
Ġk ick
i ant
ĠChrist ian
Ġcit iz
Ġex hib
ĠM any
ens us
Ġte ach
Ġro b
ĠG od
Ġon es
is l
Ġ |||||
w o
ĠJ oe
Ġens uring
n ed
B ut
Ġsupp osed
Ġgirl s
Ġcould n
ĠFr iday
wh ile
v ille
Ġro ll
Ġdam age
Ġappe ared
Ġne arly
res p
ĠR em
Ġri vers
Ġn av
Ġthink ing
Ġdescri ption
Ġad op
Ġh ous
Ġe arn
Ġsh ip
ian ce
Ġrec ently
J ust
it ect
ĠP eter
m as
! "
it ation
ify ing
j ust
Ġl es
ĠM onday
ch an
ĠC ong
Ġeff ort
ro y
Ġopp os
ol f
ic ated
Ġs em
Ġd ire
l arg
Ġa w
Ġpict ure
Ġd iverse
Ġs en
Ġd ry
Ġim age
Ġcle arly
ess ion
ĠD is
ampions hip
p an
it ter
ur ies
Ġus ers
Ġd ro
ver e
Ġconcern s
Ġlook s
Ġcont ract
Ġhapp en
ens ion
ĠG old
ĠM ount
Ġf at
Ġinf ect
ĠCent ral
Ġmount ain
ĠCh oose
Ġdirect ed
Ġexpl anation
ĠAn t
N A
Ġpower ful
ĠTex as
Ġeas ily
Ġany one
Ġà ¨
Ġser ve
Ġ200 7
or ter
S umm
d en
h old
Ġpun ct
Ġinst itution
Ġpl at
Ġlook ed
ĠMex ico
l ict
ra g
Ġrun s
Ġl ink
Ġf ru
ĠT itle
Ġtal ent
Ġac qu
h an
Ġ rom
ĠRober t
Ġcrit ical
Ġ200 6
ran ch
ell ig
ru pt
ri e
ist ics
Ġdeb ut
Ġpass ed
ĠB u
Ġpresent ed
at isf
Ġin fer
Ġhealth y
Ġde vice
ĠSc ott
Ġgu ess
Ġcontin ues
An d
à¥ ĩ
Ġident ified
ĠSun day
E n
Ġd ivid
Ġa ward
il ly
ĠD ay
Ġrecord ed
Ġoffic er
Ġchang ed
ad ian
Ġcommer cial
ri al
Ġcontin ent
ord ers
Ġlead s
Ġgen re
ce ed
Ġdis play
in em
ĠB ay
àµ į
Ġclaim s
Ġun iversity
Ġrequ ires
Ð¾Ð ²
Ġv ac
Te acher
Ġdiffer ences
answer able
Ġf air
urb ation
he rent
Ġfind ing
Ġwebs ite
ĠSw ed
Ġdise ase
Ġeffect ively
Ġ200 0
T I
ĠAngel es
ear ch
Ġelect ion
Ġm el
Ġch urch
Ġcomm and
rug gl
Ġcompet ition
g al
Ġ2 9
ĠPart y
à ©
Ġre ached
Ġtr uth
Ġdist rict
ri age
ĠIt aly
it ness
b ased
ĠT uesday
w ide
Ġte en
gen cy
ag er
Ġth r
2 7
z ing
Ġf ix
Ġdist ance
ra el
ĠFran cis
Ġrem ove
Ġstud io
ĠKore a
im in
vere ign
Ġisland s
Ġfound ed
Ġl ies
Ġeduc ational
Ñ ħ
Ġup d
Ġey e
Ġtr ade
Ġinc ident
Ġcon c
Ġre b
Ġrelationship s
Ġmy ster
Ġstr ateg
Ġan g
Ġm ist
a is
Ġp et
Ġext reme
ul ate
Ġwas n
Ġschool s
od ies
Ġmanag er
ic ed
) :
ĠS ar
row d
Ġl at
in y
ul ly
ol ate
uf act
c hen
Ġext ract
Ġread y
Ġre n
Ġhot el
ĠC our
Ġ ir
Ġsurround ing
Ġo pt
ĠÐ ½
Ġmost ly
Ġcommun ication
ĠTur kish
Ġbecom ing
Ġpro pos
ĠH all
ĠM ost
on ic
Ġf ans
Ġgramm ar
ĠDes pite
Ġinter p
Ġse qu
ĠFinn ish
asket ball
on a
Ġcomplete ly
ic ago
Ġexpl icit
il s
m ar
ĠAss oci
Ġadminist r
ĠA re
Ġfavor ite
ĠP ac
io x
Ġsus p
Ġallow ing
cl es
Ġsa ve
Ġst ruggl
Ġev al
Ġfe ed
ative ly
i ar
in der
Ġcomp ar
ag ed
Ġreason able
ann el
Ġcontr ast
Ġinvestig ation
Ġmajor ity
ĠWh y
Ġwide ly
Ġc ounter
Ġso vereign
Ġf ail
oc ks
Ġstreng th
Ġs ell
âĺħ âĺħ
Ġre pe
ĠW ed
Ġbelie f
ĠE mp
Ġconf irm
Ġc atch
Ġment al
ĠR om
ĠDep artment
gy pt
ĠI r
Ġr ound
ĠPerson X
it ute
aren t
Ġnet work
Ġ. ..
Ġapp l
Ġindepend ent
Ġexerc ise
Ġaccom pl
Ġwa it
ĠH en
Ġhum ans
Ġcare fully
Ġa im
Ġb illion
ber t
ĠS oc
Ġresult ing
Ġdri ving
im al
Ġme chan
Ġcr ime
8 0
it t
F or
y ond
2 3
Ġstat us
Ġp sych
Ġcateg ories
Ġfore ign
ĠP et
ĠÃ® n
ĠB ur
ĠLe e
p ris
t ra
Ġimmedi ately
D o
ill er
Ġact ive
er ved
Ġnear by
Ġexperien ced
In put
Ġà °
Ġsim pl
nes day
rel ated
Ġplat form
Ġd ance
ir ing
Ġd oll
Ġ x
st e
Ġl ived
y an
ĠHe ad
Ġsignificant ly
Ġter ror
Ġcomp re
le te
idel ines
Ġsex ual
ĠM et
Ġm er
larg est
Ex planation
I S
2 4
Ġadd ing
ĠMin ister
Ġbird s
v a
ict or
ĠCh oices
ĠSm ith
L et
Ġac id
Ġelect ron
' :
os en
b our
p art
Ġ6 0
Ġcall s
Ġperform ed
Ġannoun ced
Ġremain ing
Ġdem and
Ġbe ach
Ġdel iver
ri pt
Ġnews p
ĠM ac
Ġesc ape
Ġb attle
Ar t
ber g
ĠPro v
Ġd aily
Ġ ur
Ġb ond
Ġeconom y
oth ing
urs day
Ġopin ion
Ġwas te
Ġappear ance
Ġn om
ign ed
Ġset t
Ġconf lict
ĠB ob
Ġnucle ar
Ġreg ular
Ġinitial ly
Ð ¿
B y
Ġstart ing
ĠI ran
ĠA I
S elect
ĠW ind
Ġmo b
× Ļ
Ġcoll abor
Ġequ al
The y
low ing
Ġyour self
Ġf if
ck now
am il
ĠJ es
Ġsp ot
Ġdire ction
oin ted
Ġd iox
Ġa ware
Ġd iet
Ġmo v
Ġc rowd
ĠD ist
Ġbra in
y r
Ġshow c
ĠV ir
an cy
ĠRec ords
U n
Ġp ra
Ġsymb ol
as ion
Ġocc up
Ġsw im
Ġse at
ĠCh icago
Ġman ufact
ĠC up
Ġfact s
Ġ ;
y es
2 1
Ġtr ust
Ġdiox ide
Ġsh ares
Ġopportun ity
ĠÐ ¾
or ks
iqu es
Ġarch itect
Ġind eed
us ion
Ġinter act
ĠOn ce
Ġact ing
Ġmag az
Ġinterest ing
Ġinte gr
ĠW il
Ġun f
ĠGo ogle
at he
Ġy ards
Ġdef e
d o
ar i
Ġt ro
× ķ
ĠCom b
Ġt ries
ĠCh urch
Ġconst ruction
Ġb ul
Ġeffect ive
ĠF lor
ĠJ ul
Ġjour nal
ĠF orm
Ġbal ance
Ġmanag ement
w ords
Ġfl u
ĠSt reet
ĠT im
Ġbelie ved
ĠSu per
Ġor d
Ġr ule
Ġcan cer
Ġtreat ment
F irst
ĠJ ew
ĠThom as
Ġw ild
resp ond
Ġhe ar
Ġthough ts
Ġad m
at ically
Ġph il
Ġt it
Ġc ars
h y
Ä Ľ
w ater
Ġpat tern
Ġf le
Ġadv ent
Ġmov ies
Ġstand ard
h us
Ġrep orts
Ġint ended
Ġm ut
Ġ200 5
Ġc up
ĠP ri
Ġp al
Ġher self
! !
it a
Ġindic ate
. )
Ġan aly
Ġst ru
ĠAmeric ans
ĠCh arl
ad d
Ġdet ect
Ġth row
Ġper ce
Ġexp and
b it
ĠE gypt
Ġve get
Ġbenef its
Ġsp end
Ġauthor ities
ĠPort ug
ĠF in
Ġland sc
atur day
Ġsub sequ
for ce
S ince
Ġc ry
Ġro cks
Ġwe ap
ic ious
ĠB al
ÈĻ i
Ġco ach
ĠWed nesday
ĠO l
ĠRich ard
Ġwa iting
ol ute
ow l
Ġa cknow
ĠIn c
ĠS pe
Ġconcept s
Ġcons ists
E D
Ġdog s
e al
Ġrecord s
Ġth ous
Ù Ĭ
il ed
ĠĠĠĠĠĠĠĠĠĠĠĠĠĠĠĠ ĠĠĠĠĠĠĠĠĠĠĠĠĠĠĠĠ
im ate
ĠLou is
ub ject
Ġrepl aced
Ġchar ge
ĠAr my
ĠChar les
rib ution
com ing
Ġcitiz ens
Ġb an
O ne
ĠGener al
Ġprevious ly
Ġbe yond
ĠAustral ian
Ġmiss ion
ub e
ĠIs rael
Ġprov ince
Ġprodu cer
Ġth us
ÑĢ Ðµ
Ġper t
Ġopen ing
Ġspe aker
Ġem p
ĠN orthern
ĠS al
ock ed
ĠM el
Ġpr on
ĠCan adian
ud get
Ġsal es
Ġc ore
Ġsol id
ĠSc ot
ĠEmp ire
ĠPac ific
cher s
Ġdiscover ed
ĠB re
Ġc u
ch oice
ã Ģ
Ġd yn
Ġaccur ately
Ġeven ing
ĠG al
ĠM il
Ġk it
Ġperform ances
Ġac adem
ous ly
Ġpl aced
Ġwork ers
Ġspir it
u ing
Ġdin ner
Ã¤ n
O R
Ġra p
ĠS l
ĠD el
Ġfor ced
Ġdep ending
Ġb ott
Ġenvironment al
Ġm outh
Ġh ar
ĠTh ursday
ig r
un icip
Det ailed
Ð ¹
ĠIn formation
Ġscient ific
ĠD en
w ell
Ġsh own
p ass
2 9
ĠS k
Ġge ograph
Ġar rang
ĠInst ructions
ĠCon st
Ġterrit ory
est ed
ĠI ra
Ġopen ed
Ġorgan iz
r ont
Ġincor por
ĠPl ay
Ġaltern ative
ar ize
Ġro les
Ġsus pect
ak ed
Ġsoft ware
ent y
Ġdiss atisf
Ġother wise
Ġdiv ision
" ),
Ġ199 0
se mb
Ġp ow
te e
c ont
Ġinterest ed
b ody
Ġf a
Ġf illed
Ġcamer a
Ġmach ine
ash ion
2 8
Ġb ill
Ġp ull
Ġep is
ĠV ictor
Ġla ugh
7 0
Ġengag ing
Ġb ath
Ġ19 0
Ġke pt
Ġs ed
ĠL aw
idd en
und red
Ġinvol ving
ĠCour t
Ġcor respond
Ġphot os
Ġfall s
Ġplan et
Ġon to
v is
Ġeffic ient
ĠR ock
ĠG ra
ĠM ike
Ġro w
Ġpict ures
Ġmin or
Ġdial ogue
ol ved
ĠIs lam
Ġwind ow
ed er
ĠP ers
Ġres ist
ĠS aturday
c oh
ĠM ag
Ġqu al
ĠL atin
ĠGo vern
enn y
Ġ198 0
ac ing
ĠNew s
Ġcomple ted
How ever
ick et
Ġà ®
Ġspok en
Ġass um
Ġslight ly
ĠCong ress
ell a
ra w
Ġh abit
Ġm ill
ant a
Ġr ise
Ġhelp ing
Ġreview s
à ¹
Ġart ists
ul ation
A R
Ġmo le
w ith
Ġw ed
Ġcustom ers
S he
Ġl ung
Ġexpress ed
Ġnav ig
Ġrece ive
S T
Ä± n
erv ation
en ge
Ġh un
Ġperform ing
Ġprogram s
Ġm i
Ġoffer ing
go ing
Ġact ress
Ġjoin ed
ĠCar ol
an c
Ġabs or
Ġattack s
Ġmain ly
ĠRepublic an
ag on
ot a
ĠFlor ida
ĠCent er
Ġconsequ ences
Ġform ation
Ġturn s
n ic
Ġemot ion
ĠIra q
t r
Ġmar riage
Ġproper ty
at o
Ġestim ated
ĠB ecause
er em
Ġint ellig
Wh ile
Ġlearn ed
Ġcl othes
im inal
Ġle ague
Ġoper ations
Ġg ar
cul ate
Ġb ought
ĠM ake
Ġcontribut ed
ean while
ĠC r
Ġ197 0
ol a
b urg
ing er
Ġfocus ed
ĠÐ º
Ġorig inally
L e
writ er
Ġsy m
Ġpass eng
Ġintrodu ced
Ġind irect
Ġrese ar
Ġredu ce
Ġfl ight
Ġrepl ace
ĠU s
pp er
Ġcollect ion
Ġsh ape
Ġex change
Ġoffic ers
por ary
Ġcompre hens
ĠE U
Ġ200 4
Ġpert urbation
ĠMc C
Ġb orders
Ġf ully
Ġpers pect
Con clusion
Ġl os
Ġlo ved
i ated
Ġpain t
Ġpart ner
Ġag ent
Ġ200 1
Ġsee king
ust r
i Ã³n
Ġto y
o ly
k er
ĠL oc
ang ing
ĠH ill
ĠW ater
ĠF re
Ġeas ier
Ġcom edy
Ġf irm
Ġcomb ined
u ce
Ġpret ty
Ġconnect ed
ĠAn n
Ġass ess
u able
Ġs ch
oint ment
ĠW ould
Ġre action
Ġch ief
Ġnorm al
Ġm ale
ĠO ff
ĠDe f
Ġlaw y
i as
Ġdri ver
Ġs av
Ġplan e
Ã ¨
Ġc as
u ke
h i
ĠU p
ad ed
Ġleg isl
ĠMart in
Ġap artment
Ġorgan isms
Ġar m
ĠPol ice
ren d
ĠSt ud
ist ry
om a
P ick
Ġsepar ated
Ã© s
Ġob tain
k l
Ġcol umn
2 6
Ġspe ech
ĠW here
Ġcon cent
ĠGr oup
Ġsu st
Ġend ed
ing ly
Ġsitu ations
Ġh yd
um ber
Ġatt end
ric ult
ĠP lease
ic y
à¦ ¾
Ġposs ibly
Ġaffect ed
ra in
ĠM at
ic an
ĠF ace
Ġbelie ves
Ġown er
Ø ¨
ĠC le
Ġseem ed
is her
Ġc aught
all ed
Ġmeas ure
Ġbeaut y
or ial
est ic
Ġco vers
im um
ut ch
Ġch air
Ġadministr ative
on ed
Ġpr inc
Ġaut om
Ġtransl ates
Ġ ÈĻi
Ġtrans fer
Ġres idents
urther more
ĠF il
Ġmethod s
Ġd rop
Ġch art
est ival
Ġl iqu
ĠDon ald
ĠC ap
Ġc ris
ĠVir gin
Ġviol ence
Ġbro ken
Ġj a
Ġgr ass
Ġpunct uation
ĠInst ead
Ġing red
Ġn ort
3 9
ut ral
ĠIn ter
ep h
Ġf aced
Ġplan ning
ad s
az z
ĠT od
F L
Ġstud ies
Ġhe ight
Ġsu gar
h aps
Ġw itness
Ġs pl
ab et
h ire
Ġv ia
Ġap art
Ġag ree
Ġra ised
Ġimp lement
Ġcl ar
Ġsouth west
Ġpre m
ĠCol lege
Ġd ish
Ġrecord ing
4 5
g n
ĠC ouncil
Ġend s
A t
is hes
Ġswe et
en ly
ĠMr s
Ġsitu ated
y e
b ing
Ġp aid
ĠJ eff
Ġrel ax
Ġst ated
Ġa st
ĠL ake
Ã¼ r
Ġrepres ents
Ġmet ropolitan
Ġprogr amm
ĠO h
Ġoffer ed
ter m
Ġshe l
ap es
Ġant i
u an
ĠRoman ian
ill a
Ġset s
ĠIntern et
I N
ĠE r
Ġins p
Ġb asketball
Ð ±
Ġentertain ment
ĠM iddle
Ġun it
Ġmot or
ĠJack son
Ġadv ant
Ġm aster
Ġend ing
Ġf ile
ak istan
Ġsc ale
ĠC am
in ter
ĠF ind
Ġsk y
Ġal coh
Ġco al
Ġdecre ase
Ġstud ied
l rb
Ġkeep ing
Ġcost s
r rb
T wo
ĠAs h
Ġprocess es
Art icle
Ġinstr ument
ok ing
Ġdang erous
Ġw aves
Ġpract ices
Ġ3 1
ial ly
Ġwe alth
enn is
i pe
Ġen h
ph one
g u
Ġco herent
Ġfriend ly
ĠSar ah
Ġvict ory
ĠL uc
ĠScot land
Ġ- >
n el
wh at
ile y
z en
Ġdec ides
Ġadminist ration
Ġpart ies
er o
Ġboy s
Ġpro te
3 5
pl ace
Ġch osen
ĠGr and
ren ce
ĠO p
Ġhold s
Ġp ool
Ã ±
Ġc inem
Ġbu ying
o oth
Ġl ines
Ġh undred
Ġshow ed
Ġsur pris
gh an
Ġocc urs
ĠF ol
ĠS and
Ġp us
Ġexact ly
i est
Ġinn ov
on om
Ġagre ement
b l
ĠM ont
Ġlaw s
in ton
ĠC arl
pr ise
Ġf ine
ĠA v
ro l
D oes
Ġsh irt
Ġprofess ion
Ġg arden
ĠB us
ĠC re
z il
Ġdet ail
Ġconst ruct
sh ire
u a
Ġwin ter
Ġm ax
Ġattempt s
Ġmanag ed
Ġv ote
Ġb act
Ġstra ight
i ate
9 0
Ġident ity
ag ing
Ġexper t
Ġcover ed
y stem
Ġwe ak
7 5
Ġdeterm ined
Ġ Ú©
k ins
Ġarg ument
Ġincre ases
ant ed
Ġl ake
ĠR oyal
or ters
ĠE ach
ĠG ood
Ġport ray
Ġset tle
E S
udd y
a ud
Just ification
Ġv ast
Ġelect r
ĠS olve
or ation
Ġsubject s
Ġpolic ies
Ġmag n
Ġb udget
Ġequ ip
ic ts
Ġcol le
Ġlet ters
Ġkey words
ct ors
Ġcrit eria
B e
Ġoper ation
l ife
o ch
Ġcomp ris
ĠMus ic
Ġf ell
ĠF oot
Ġorig in
ut y
Ġl ots
ov iet
ĠCons ider
Ġar my
ak ers
ict ed
Ġse es
et te
Ð½ Ð¸
C om
Ġstr ing
Ġsever e
Ġsu dd
ĠChrist mas
ĠHen ry
Ġb odies
Ġk il
Ġent er
Ġsust ain
Ġv ary
Ġun ivers
Ġp our
Ġlat est
ð Ł
ĠE very
Ġres c
Ġath lete
Ġprop osed
friend ly
Ġsound s
Ġb omb
Â Ģ
k ay
Ġdest roy
Ġwin ning
, '
er g
Ġad vice
ĠE ven
Ġexplicit ly
Ġem pt
Ġk m
Ġwe b
Ġsp ending
Ġopportun ities
Ġg one
l ar
Ġf ashion
ĠH ind
Ġto ward
Ġcre am
ap pe
D on
Ġc a
ĠCh ris
ad ing
Ġhe av
Ġg ang
Ġcre w
ap hr
al i
Ġt im
Ġc art
Ġremain ed
Ġser ving
ÂĢ Â
Ġsh aring
ĠJ ones
A v
ĠRes earch
Ġrep ly
Ġhor se
Ġflow ers
Ġst ick
Ġcomb ination
M y
ĠH ot
Ġphil os
Ġcol on
Ġveh icle
Ġt all
l im
ar ian
Ġdig ital
el ess
Ġarri ved
Ġbas ic
ĠT ime
w in
Ġmeas ures
Ġsc ored
ĠB ig
am in
ĠAssoci ation
s en
Ġexec utive
Ġcr iminal
ot al
Ġal ph
Ġr ank
ĠC ath
2 2
Ġwe ar
ĠSp ain
Ġsuggest ed
Ġ200 2
Ġut il
a it
ĠU se
ĠDist rict
Ġdep end
Ġyoung er
ĠFace book
and a
ne w
Ġd oub
Ġenc ounter
od es
Ġme al
Ġent hus
ĠM ass
ars h
Ġatt ribut
Ġte le
Ġstand s
Ġh y
Ġworld wide
Ġrep rodu
ans ion
Ġre ality
Ġer a
un der
Ġch ain
Ġform at
Ġpass ion
T ype
ough ly
B A
em ents
ad ium
ot ic
Ġad just
Ġeas tern
Ġf ailed
Ġst re
Ġcontr ad
Ġair craft
Ġfeel s
Ġc ab
ĠÐ ´
wh ich
ĠTw itter
Ġprom pt
Ġcons cious
ar ry
ĠA ward
Ġnot able
à¤ ¿
Ġscen ario
Ġde vices
Ġpartic les
ĠSec ret
Ġvis ual
Ðµ ÑĤ
Ġmot iv
Ġmagaz ine
Ġ196 0
F rom
ĠCl ass
ĠSout hern
Ġarrest ed
Ġ200 3
Ġequip ment
Ġpron oun
Ġst orm
ĠPol ish
Ġshow ing
ĠAc adem
Ġsy nt
ĠS ing
Ð ³
Ġw arn
an cing
Ġcomp osed
ĠM ur
ĠW ood
ress ion
meric an
ur ance
ĠS oviet
ĠP akistan
Ġbuild ings
Ġsupport ing
u gg
Ġb ot
c ons
ĠN ick
Ġexper iment
ĠComb ine
Ġnorth west
Ġexpress es
Ġmot ion
×ķ ×
ĠH um
Ġconve ys
Ġn ine
Ġkill ing
Ġdeg ree
Ġsold iers
Ġprom inent
Ġp ul
Ġposs ess
el ly
S h
Ġh uge
Ġjob s
Ġa head
ens ity
Ġbirth day
Ġsign ed
Ġexce ption
ay lor
ins ula
Ġf uel
Ġal ign
Ġcl osed
it tle
ite ly
Ñ İ
Ð½ Ñĭ
Ġp il
Ġb ike
ear s
be ing
ve y
Ġdec isions
ap ed
ĠE ll
Ġegg s
ĠCl inton
Ġra re
Ġfocus es
ian o
Ġindic ating
ĠDemocr atic
ĠQue en
Ġm unicip
Ġd ouble
Ġpar l
Ġbr and
. ;
Ġfe wer
Ġun able
Ġsec ure
Ġproper ties
Ġcap ac
Ġtool s
Ġ ign
Ġmem ory
Ġs end
Ġfl at
Ġmat ches
Ġreve aled
TI ON
Ġfor t
ĠB C
Ġabs olute
m et
Ġb oss
t ion
Ġdiv ide
Ġcontro ll
Ġh all
Ġp age
Ġex cess
9 9
ãģ ®
ĠB est
Ġnewsp aper
ĠSen ate
Ġprotect ion
ĠT or
ran ean
ĠK im
Ġag ricult
Ġh at
ĠG re
Ġh urt
Ġloc ations
Ġanswer able
Ġout come
ĠN O
Ġfriends hip
Ġn ar
qu ar
Ġclos er
az ing
Ġoccur red
Ġborder ed
Ġrap id
Ġw el
or ney
Ġcomfort able
Ġs ort
O ption
àª ¾
Ġun ion
ak s
Ġs an
Ġtast e
Ġ3 5
Ġacknow led
p re
ĠA ut
Ġmy self
Ġlim it
Ġinter ests
Ġn ative
Ġsupport ed
erm an
Ġagre ed
Ġlarge ly
ibr ary
ĠS us
av a
ĠP en
Ġet c
Ġexpl ore
ÑĤ Ð¾
as ks
ord an
Ġun e
I F
Ġbo at
Ġexce ll
Ġch ances
ct ic
N ot
Ġse ction
Ġ iron
ĠG ulf
ĠO ld
Ġval uable
Ġpr ices
Ġqu iet
Å Ļ
iter ranean
Ġpat ients
Ġarri ve
as y
ĠJ ud
mit ted
Ġclose ly
ver se
Ġrep ut
Ġsqu are
Ġc e
Ġcirc um
ĠM ax
Ġcomprehens ive
Ġso le
Ġ8 0
Ġfight ing
ian a
ĠAf ghan
Ġredu ced
Ġf er
Ġpoll ution
ĠØ ¯
Ġse g
Ġad vert
Ġf ost
Ġf iction
Å ¾
Ġra il
ĠKore an
ĠSc ience
as ure
ĠPro f
Ġpar aphr
Ġrefer ence
ĠComm ission
ro gen
Ġre ven
Ġd ining
ĠPr ince
S p
ĠHar ry
yl v
Ġcompar ison
u ated
Ġapp arent
Ġà ´
Ġrecogn ized
Ġme ant
ĠComp any
A dd
Ġjust ice
ĠFoot ball
Ġjud ge
Ġdr ama
Ġshoot ing
Ġentire ly
r ich
Ġgener ated
Ġcol ors
Ġun s
Ø§ ÙĨ
Ġre form
Ġthem e
Ġdevelop ing
or a
Ġown ed
Ġhe ro
v ention
Ġ201 7
Ġsal t
Ġcor ner
Ġinh abit
Ġmix ed
ĠO ut
bo x
i h
Ġtra ffic
ly wood
ĠN ations
ĠT er
ir med
ĠE v
Ġbase ball
Ġs ick
so ft
e v
u it
un ning
Ġ199 9
Ġdef ense
fort un
ĠS ol
ĠW ell
ĠBra zil
Ġcommit ment
Ġinst it
Ġtell ing
Ġphot o
Ġcharg es
Ġnecess arily
or age
su it
ound ed
ony m
à Ń
ipp ed
ĠH el
c are
Ġbe at
ĠTh rough
ĠJ on
ĠComm un
Ġapp ly
Ġtechn iques
Ġdes ire
Ġinflu enced
St ud
Ġbut ter
ĠIr ish
Ġb atter
ed om
Ġorganiz ations
ĠBe fore
l ook
Ġrefer ring
Ġcontro vers
Ġnut ri
n ight
Ġcar ried
ĠGeor g
ĠE astern
Ġcommun ities
Ġmo ves
ĠD oes
b ur
Ġenjoy ed
Ð¾Ð ¼
ĠL ater
n ame
Ġl ose
Ġbr ight
ĠWind ows
ar ks
Ġe ld
Ġv an
Ġf ellow
Ġair port
ar p
stand ing
Ġj e
ĠC ur
Ġman ner
Ġtr uly
Ġtr uck
P h
os ystem
ĠPers ian
Av ailable
Ġstop ped
en cies
Ġhol der
ĠP ress
Ġshop ping
Ġalbum s
W ith
Ġlandsc ape
Ġr ates
ĠW all
Ġdep artment
ĠSte ve
Ġext ensive
Ġvoc al
ĠÃ ł
r ick
Ð¾Ð »
ĠArab ic
Ġ ic
im ents
Ġoper ating
Ġtw ice
ĠW rite
u i
Ġtri al
Ġneg ot
Ġtrans form
Ġmus eum
Ġf an
op her
iven ess
Ġknow ing
Ġmil k
N ew
Ġcont em
Ġpat ient
Ġcontain ing
ig an
Ġremo ved
Ġdis m
ĠS aint
Ġscient ists
à± į
Ġsatisf action
Ġpart ners
ab eth
st ream
Ġgu idelines
ĠAcadem y
à¥ Ģ
à¤ Ĥ
Ġdef ined
ĠS ur
Ġpain ting
Ġa id
.. ..
Ġsuccess fully
Ġchall enge
ro id
ĠJ o
Th at
g est
ĠM os
ste in
ĠB et
pp ing
×Ļ ×
Ġr ide
ĠB BC
Ø ´
Ġfig ures
s s
9 5
Ġmom ents
? ?
v est
bre v
es c
ĠM eanwhile
Con text
igh ter
Ġact ual
s hip
Ġdescrib ing
in er
C A
Ġempt y
ric s
Ġpow ers
The se
Ġassist ant
ĠIn t
Ġath let
Ġf aster
che ster
ĠL ong
ĠC NN
Ġnarr ator
ious ly
Ġmark ed
Ġemploy ees
Ġà¤ ķ
ic ide
ien cy
Ġrelig ion
ĠChe ck
O S
ain e
Ġdi pl
Ġec osystem
is a
ĠP arl
ÑĤ Ðµ
Ġarri ves
p ar
Ġsc he
ĠInd ones
Ġvict ims
Ġsm art
am ing
d y
ce l
w ord
Ġkit chen
y les
ig ration
Ġdeb ate
ĠApp le
ĠRe v
ĠFrancis co
Ġlab or
Ġg rew
Ġpre ced
Ġ4 5
Ġconst it
Ġfin ished
Ġag ency
ĠVirgin ia
ĠJohn son
S olution
Ġsm ooth
Ġfru it
Ġdiscuss es
Ġwed ding
Ġappl ied
Ġ3 6
ĠF ore
se ct
Ġspok es
ĠC a
ell ed
Ġim ages
Ġinterp ret
Ġchang ing
ĠIs lands
There fore
ut ed
Ġrequ est
P l
Ġvol can
Ġdivid ed
4 8
Ġslow ly
Ġknow s
Ġdis hes
Ġclass ify
Ġdep th
Ġexpl ains
ĠWal es
Ġsoc cer
Ġto ys
Ġe uro
Ġsee ing
Ġfeature d
Ġconst ant
Ġclass es
Ġingred ients
k in
Ġproper ly
Ġent ered
Ġreg ional
Ġto m
Ġstruct ures
Ġre tain
Ġconcer t
Ġpurch ase
r as
Ġalcoh ol
Ġfac ing
us ing
ĠM er
Ġl y
ĠR yan
athe red
3 3
Ġauthor ity
Ġweek end
Ġ â
ĠPr ime
Ġestablish ment
Ġann ual
Ġproject s
Ġcom ments
L E
Ø ²
ost on
Ġliqu id
r d
ĠD utch
Ġlong est
ĠE st
g a
Ġman age
Ġact ors
oy s
ĠTh us
ĠR ay
Ġele v
app y
Ġsing ing
i ations
ĠD iv
Ġn or
in ations
Ġf ly
Ġdis appe
Ġh idden
ĠR et
c a
ir ty
Ġcor por
Ġbott om
Ġrespons ibility
h ol
à ³
Ġbroad cast
ĠDan iel
am ily
Ġeng age
Ġdisco vers
ĠT aylor
Ġequ ival
Ġexpress ion
ĠGree ce
ĠH aw
à¤ ¤
Ġterrit ories
Ġr id
Ġcy cle
ate gy
Ġthe at
Ġthous ands
Ġresear chers
ĠÙ Ī
Ġcharacter istics
il it
r am
ĠS ir
Ġun like
Ġexp ensive
k es
Ġ Ã©
Ġpresident ial
] ,
Ġv ital
Ġcircum st
Ġorder ed
Ġnarr ative
Ġpropos al
he t
Ġintern al
f all
Ġdissatisf action
Ġalle ged
Ġbr idge
Ġa f
Ġ7 0
Ġfin ish
Ġcl othing
Ġintellig ence
Ġassist ance
ĠZ eal
Ġsen ior
Ġy ellow
ĠWilliam s
n am
Ġsub t
Ġgain ed
Ġthe ory
Ġs ac
ef in
og rap
z er
Ġn a
ĠM icro
Ġf ant
Ġt end
Ġsee k
b rew
Ġhe aring
Ġearth qu
Stud ent
um s
Ġanswer ed
ĠL ove
Ġnot es
Ġmusic ian
oc key
pect ed
ĠCol umb
Ġrec over
Ġar ms
ĠL ast
Ġrel atively
Ø ¹
Ġpolit ics
ĠMed iterranean
Ġ9 0
Ġpre gn
os ure
ons ider
Ġs elling
ĠZeal and
= =
ĠJ ordan
Ġgu y
Ġgirl friend
* *
ĠSp orts
Ġadv ance
Ġchalleng ing
Ġun cle
Ġf alse
n s
ĠĠĠĠ Ġ
Ġd ur
at ical
Ġuse ful
f rom
ĠM ic
iz abeth
Ġhom es
ĠR ad
Ġnot ice
t hen
Ġconsist ent
Ġh ur
ĠT ail
uck y
ĠV an
st ar
3 7
U R
Ġcarry ing
Ġcandid ate
al a
Ð» Ð¸
Ġon going
Ġcharg ed
Ġpro s
ĠSwed en
Ġt rib
Ġf ill
Ġst orage
Ġsy n
p a
ĠAl so
ot o
ĠC ast
ĠS il
t own
is p
Ġput ting
r id
Ġdec ades
Ġsc ript
ĠÐ ¼
Ġl ingu
r ad
Ġclaim ed
ig er
ĠO ption
Ġspe aking
cl aim
Ġbreat h
ic ine
ag ine
Ġleaders hip
ly n
Ġadvant age
Ġsurround ed
tern al
Ġlung s
Ġplan ned
Ġcl oud
3 6
ĠL ind
Ġeat Type
Ġprep ared
f ast
Ġm icro
ra ction
à¤ ¨
Ġintern et
Ġact s
Ġsun light
re m
Ġindust rial
or der
ĠBl ue
ĠÐ½ Ð°
ĠJ ane
Ġc ou
Ġcomp are
ĠBus iness
Ġm ath
pos es
cul es
Ġgu ard
ĠT imes
Ġacadem ic
Ġconf ront
b ut
TION S
os is
ic ing
Å ¡
ĠM a
ers ey
Ġneighbor hood
ĠC D
J ohn
er ly
Ġcon ver
olog ist
Ġexpect ations
ĠAt t
ĠTr ans
Ġsupp orts
an i
Ġth ick
Ġfrequ ently
Ġ3 2
Ġf oss
Ġbl ock
Ġinhabit ants
no on
Ġl unch
Ð¾Ð ´
ur a
Ġ199 8
Ġexc ited
at i
Ġme at
Ġst uff
I A
Ġbig gest
Ġbusiness es
Ġst ret
row s
ĠP enn
ens es
ĠK ong
Ġ ille
Ġconf ident
ĠT D
Ġfa ith
Ġt asks
ast s
Ġrivers ide
Ġbro wn
ĠN ether
l ines
Wh o
ris on
Ġc erem
Ġcall ing
Ġcon ference
uz z
Ġg ift
ĠB a
Ġaccompl ish
B I
ĠM att
Ġprefer ences
ues e
Ġl as
Ġsupp l
Ġdrug s
Ġs i
Ġcook ing
Ġelect ed
Ġal ter
p et
Ġcris is
Ġb uddy
Ġhous es
Ġp u
Ġfe at
Ġg athered
ĠT ony
Ġg rown
Ġprom ote
id i
re es
Ġsu c
er ving
ĠØ§ ÙĦ
Ġb ass
Ġhelp ful
à§ ĩ
l i
ann y
." ,
ĠAir port
ĠSt ar
Ġweap ons
Ġfr ame
I V
Ġwalk ed
br idge
ord in
w an
in ces
ang er
os ion
Ġextreme ly
le g
Ġfun ctions
Ġsupp ly
ĠL ab
Ġrem ark
Ġt ag
Ġdep art
Ġdiscuss ing
ĠTod ay
Ġnort heast
Ġparl iament
Ġtr ouble
Ġbre aking
Ġstr ategy
Ġl ady
Ġappreci ate
al so
ot ed
Ġtemper atures
-- --
Ä į
Ġadult s
ĠSy ria
is ters
Ġacc used
Ġhum or
Ġinc red
Ġengag ed
" ?
Ġexpress ing
ĠH ist
4 7
ĠCh ief
un ction
if er
c over
Ġpos itions
Ñ Ĩ
OP TIONS
Ġsch ol
Ġun w
Ġcapac ity
ro g
ĠP an
ĠF act
Ġ <
oph y
ick en
Ġcre ative
ang es
Ġmount ains
Ġinc ome
In formation
Ġsol o
Ġs or
ĠL ook
Ġwould n
Ġint ent
Ġc ode
Ġins pir
ĠCh annel
Ġperspect ive
gg le
Ġimpact ing
Ġexam ples
Ġst ating
Ġrep ublic
Ġinst all
ĠO s
Ġclub s
ce ption
ĠCl ub
Ġorgan ized
Ġdipl om
Ġab and
" ).
Ġselect ion
Ġlist en
ens ions
Ġgu ide
Ġturn ing
ent ed
ĠM od
Ġreach ing
Ġdr am
Ġmob ile
Ġconf irmed
à¦ °
Ġthere fore
Ġr ing
r im
Ġr iding
Ġreve als
Ġoppos ite
Ð ¶
Ġport ion
w orks
Ġwall s
ath an
à§ į
ol is
ĠC ub
In st
h and
oun der
Ġinj ury
Ġthem es
az i
8 5
Ġst ock
Ġs Äĥ
c ase
se m
ĠTur key
Ġre ject
ĠA p
Ġt un
Ġdom in
Ġsym pt
ĠHe brew
ri z
6 5
Ġdrink ing
Ġnot ed
ĠD irect
Ġcre ation
Ġne utral
omet imes
Ġfamil iar
ĠB oston
ri er
t i
Ġcontin uous
ĠNether lands
Ġl osing
Ġlik es
Ġpl ate
Ġapplic ation
Ġinstit utions
Ġafter noon
5 00
Ġcircumst ances
ĠO f
Ġin ner
j a
Ġre in
ĠF ar
ĠGold en
Ġbact eria
ĠS her
Ġclean ing
Ġelectron ic
Ġlik ed
g ent
Ġpl astic
ĠFor ce
m aking
Ġswim ming
ĠSy d
ĠE lect
A N
rib le
Ġdefin itive
En glish
B S
ĠN et
Ġgra v
ap ers
Ġsur f
Ġla un
Ġbr ings
Ġn ations
Ġl iber
Ġking dom
ĠE val
Ġent ities
Ġpur poses
Ġsupp ose
Ġbl ank
ĠJos eph
ac he
Ġgener ation
Ġfl ag
Ġaff ord
Ġstrong er
te en
Ġsh ut
m o
t Ã¤
Ġsuggest ing
n ament
Ġliter ature
Ġst ores
k ed
Ġc ul
Ġconscious ness
Ġvir us
xt ract
il a
S ome
Ġlawy er
ĠParl iament
Ġmin ister
Ġposs ibility
ĠAn other
Ġbro ke
Ġdyn am
ĠCath olic
Ġint ention
Ġrest rict
ipp ing
Ġadd s
Ġw ish
Ġincreasing ly
ad or
ce ll
he astern
e qu
Ġsk ill
Ġder ived
ĠHe alth
Ġprot est
ain ed
Ġin qu
ĠVal ley
Ġc ake
Ġg ender
Ġvol ume
Ġsignific ance
Ġinvest ment
ild ren
ist ed
Ġla unch
ab ilities
ĠB ush
Ġprinc ip
Ġpred ict
Ġcre ates
1 00
ĠR od
ĠU k
ad er
m ond
Ġsout heast
ĠC amer
Ð½ Ð¾
Ġelectric ity
Ġun ex
Ġimpro ved
Ġth inks
Ġtro ops
Ġd ense
Ġsign s
r ast
Ġfif th
ĠF ox
Ġra ise
Ġmean ings
Ġst range
l ong
Ġd ies
quar ters
Ġwat ched
T V
Ġsh oes
itz er
le ts
4 9
ĠEn ter
Ġfil ter
ĠPerson Y
Ġo l
Ġconnect ions
ĠSy stem
Ġb ranch
A C
Ġfocus ing
ĠSec ond
Ġc ensus
Ġg ro
ar ant
ĠPortug uese
Ġp hen
ar on
Ġkil omet
ab ul
ĠR ome
A P
Ġpass ing
Ġper haps
Ġbus y
Ġ199 6
ol ves
Ġb ir
ĠW at
ib ilities
Ġord ers
3 8
Ġstud ying
Ġsur prise
Ġw ave
ĠSt an
Ġth or
Ġparticip ants
Ġpr ime
Ġcred it
Ñ Ī
âĢ Į
R ange
Ġen force
ĠMicro soft
ĠAs ian
g i
ĠSyd ney
ĠR on
Ġcomput ers
ĠC ould
Ġmyster ious
Ġread ers
ĠC amp
ĠHol lywood
b u
semb ly
ans as
ĠEl izabeth
ational e
E l
Ġl ic
Ġt ight
Ġrepresent ed
Ð¾Ð ³
Ġcop y
Ġhapp iness
ĠEd ward
st ood
Ġbenef it
Ġf aces
Ġpass es
ĠC ro
Ġcharacter ized
ĠB ern
Ġconcern ed
Ġdeep er
ĠC at
Ġs um
e en
Ġded icated
Ġsugg estion
Ġfavor able
Ġfact or
ĠBel g
6 7
Ġgen etic
Ġrespect ively
Ġdist ribution
Ġexcell ent
Ġpur s
C onsider
Ġgreat est
A merican
Ġalong side
Ġr ub
ĠAr ch
Ġam azing
Ġcur ren
Ġinst ructions
Ġv on
ĠCh ampionship
à¤ ¯
Ġch ampionship
ĠKe ep
fortun ately
Ġfield s
ylv ania
Summ arize
ĠI S
se y
Ġed ge
Ġz one
Ġbelong s
Ġv ent
Ġang ry
Ġcapt ured
om er
Ġpl aus
ol i
ĠB eng
b a
ruct ure
Ġmed ium
Ġstru ggle
Ġcapt ure
Ġown ers
com pass
Ġpopul ated
Ġveh icles
ĠL ike
Ġeth nic
Ġpopular ity
Ġreact ions
Ġbe ar
Ġfun ny
ĠI ll
ast y
Ġsh all
Pro blem
Ġus age
Ġequival ent
og ether
Ġinsp ired
ĠB ang
um in
Ġco oper
Ġrece iving
ĠH ong
A ll
Ġspe ct
ÐµÐ½ Ð¸
Ġcom ic
Ġar ts
atter ing
ij ing
Ġvis ited
n ie
Ġemphas izes
ĠJ ac
an o
Ġmay be
un te
Ġcon ven
Ġreput ation
Ġpattern s
Ġview s
m m
M e
Ġcompos er
à® ¿
Ġselect ed
un answerable
Ġinj ured
A L
ĠA wards
Ġscen es
Ġrem ind
ĠCon f
Ġdes ired
ĠB ul
Ġj ack
ĠG enerate
hed ul
Ġcons ult
Ġbrother s
Ġachie ved
Ġhapp ening
it ting
ĠT ri
Ġqu ant
Ġband s
i pl
cer tain
Ġro ots
Ġexist ence
Ġexist ing
âĢ ľ
ÑĢ Ð¸
c ol
al le
Ġwill ing
ĠM em
Ġal t
Ġform al
ate ful
Ġparen t
Ġbre ad
ĠAnt ar
Ġide al
8 9
Ġtr ig
Ġcontribut ions
Ġex cept
Summ ary
Ġm ir
Ġstre ets
Ġparaphr ases
el le
riend ly
Ġ19 50
ĠAnd rew
Ġyou th
ĠB rian
Ġbroad er
Ġtop ics
ĠW ay
Ġm it
Ġattack ed
Ġmole cules
per or
Ġemer gency
Ġw id
Ġj u
E N
Ġpro ced
ag ues
Ð½ Ð°
Ġnegative ly
Ġfl ood
in et
S c
Ġleg s
Ġbound aries
Ġhon or
3 4
Ġvie wers
ĠG reg
s es
ĠM ah
ĠR el
Ġ199 5
Ġdest ination
s m
Ġpo et
Ġhistor ic
ro ad
Ġun its
cl ing
ograp her
Ġsympt oms
Ġh ab
Ġd at
Ġfood s
ple te
ĠF urthermore
Ã ½
ĠR os
Ġimag ine
ĠOff ice
ĠP ost
it ement
ĠOlymp ic
ĠG et
il er
ĠN ote
M r
ov a
th ur
Ġapplic ations
are t
Ġrequire ments
Ġepis ode
Ġext ended
Ġvisit ors
Ġrom antic
Ġvar iable
Ġsol ar
Ġfall ing
Ġexam ine
du c
ĠD ar
Ġp it
ĠB attle
if orm
Ġorgan ic
Ġresist ance
U S
Ġfor g
ÑĤ ÑĮ
Ġo dd
Ġst yles
ĠL o
hy th
s k
ĠB udd
Ġmill ions
w ing
ĠInst itute
Ġsuc ceed
Ġn ick
à° ¿
ĠN ame
y al
Ġstand ards
ĠMan chester
ĠM id
Ġearn ed
Ġrepe ated
Â °
Ġtra cks
Ġab brev
Ġsp ring
Ġcent uries
Ġinit i
m illion
ĠF inally
ag ers
ild ing
ĠSecret ary
ĠO K
Ġw et
Ġfeat uring
ĠJ ason
Ġdecl ine
Ġrel iable
Ġcontribut ing
Ġpasseng ers
Ġrec ip
Ġagre es
Ġab ilities
el ine
Ġveget ables
Ġc rop
ist a
ĠL and
Ġ18 9
ĠJew ish
re al
Ġnum er
Ġinflu ential
Ġsequ ence
Ġimpress ive
à¤ ķ
ĠTe chn
Ġhouse hold
E O
ĠN ic
xt ure
ĠI II
Ġadvent ure
ĠY oung
Ġdom estic
ĠL ord
Ġst able
Ù ģ
ĠL ittle
is ine
ĠComm on
ĠO ur
ĠCarol ina
Ġan x
á »
à¯ ģ
/ /
on ia
Ġpro sec
w as
7 6
ĠS ub
Ġbig ger
ĠT H
Ġj ur
ĠSer vice
Ġt ests
Ġinj uries
ĠGeorg ia
Ġappe al
Ġbath room
app ing
Ġl ibrary
Ġdoll ars
Ġv ess
Ġbas is
Ġinvolve ment
est yle
ĠB ank
Ġcr ash
ĠAfghan istan
Ġp or
w ar
as p
ach us
Ġclass ical
Ġf ishing
ĠOr gan
a ire
l ers
à° ¾
Ġst ability
Ġà ¬
ad ow
Ġpolit ician
Ġfre edom
Ġsed iment
Ġtrad ition
il i
ĠRo ad
ĠP ut
ĠG ames
Ġhand le
Ġteach ing
ĠAd am
On ce
az on
O ver
Ġin sect
Ġocc asion
Ġlay er
Ġsc hedul
Ġfl o
s ylvania
Ġout d
Ġal ive
g ative
Ġboy friend
Ġsecond s
Ġsc r
Ġt iss
Ġnutri ents
ĠĠĠĠ ĠĠĠ
app ed
Ġen compass
cl ass
ĠSoc ial
Ġhol iday
Ġsubsequ ent
oc king
Ġphen omen
Ġnar row
u ine
Ġf ict
re ll
Ġf urn
and y
Ġj oy
Ġredu cing
Ġlow est
Ġp ub
Ġb owl
Ġold est
ĠVictor ia
Ġsurv ive
olog ies
al t
che st
Ġun us
Ġt rend
Ġpositive ly
Ġp ush
h o
Ġv ision
ĠF ederal
Ġv ibr
ĠT own
Ġadv anced
Ġp iano
D efin
a wn
Ġg ent
Ġass ault
erv ative
Ġdisapp ointment
Ġsatisf ied
the w
ed ing
Ġresult ed
Ġclass ic
Ġdream s
ĠSt ra
ĠTh ough
ĠComm it
Ġch ose
Ġatt orney
Ġdoc uments
Ġfor get
Ġst om
d ate
A re
Ġpromot ing
ĠEval uate
Ù Ĥ
" ;
Ġpro ceed
Ġmet ers
P e
w w
Ġen em
p oint
av en
ĠDis ney
Wh y
Ġsat ell
ph y
Ġl ie
k o
Ġconclud ed
ra ce
Ġ199 7
k m
Ñģ Ðº
Ġtyp ical
5 5
m ates
Ã¤ Ã¤
Ġg od
ap ing
c ia
ath y
Ġs ale
Ú ¯
Ġrad iation
ĠF e
Ġ199 4
Ġri val
Ġgu ests
ĠSt one
Ġdes k
ra cy
Ġcut ting
or gan
Ġdise ases
Ġn u
w l
Ġmon arch
ĠN FL
Ġf lying
Ġprice Range
ĠTh ree
Ġhop es
Ġp ig
ĠU N
Ġvis iting
Ġb low
Ġexc itement
ĠCharl ie
Ġindepend ence
ĠK ent
res ent
Ġgood s
Ġsol utions
Ġins urance
Ġsubst ant
Ġinstr uments
an th
Ġvict im
ĠT our
8 7
Ġoper a
Ġcommit ted
) ;
Ġdec or
Ġperm an
Ġbreak s
ĠPhil ipp
ĠOlymp ics
ĠK en
Ġlaun ched
Ġunder stood
Ġatt ended
ĠRepublic ans
w orth
ol es
ĠS qu
ĠM u
umm y
ĠPol and
ĠY ear
Ġa u
if ts
Ġrecogn ition
Ġreturn ing
Ġob st
et ts
Ġenh ance
." .
Ġb at
Ġmo on
Ġra cing
ĠD om
Ġmess ages
w hel
f it
Ġpar a
ĠP os
Ġw ine
Ġ[ '
C l
Ġup set
Ġteacher s
ĠL ife
Ġth in
ĠO x
Ġoff ensive
Ġne ck
Ġexception al
Ġc ash
ĠC ard
Ġbelief s
Ġdist ribut
Ġlearn s
ĠJ ersey
ĠJes us
Ġphot ograph
ĠBar b
I m
Ġclass ified
Ġgl uc
Ġalph abet
it ure
is ation
ad el
Ġmusic ians
Ġunex pected
th at
Ġr at
ver b
iss ions
Ġ199 1
Ġprofess or
u er
Ġass ume
Ġp ages
Ġel abor
p ers
Ġv en
Ġexc iting
Ġly rics
à »
Ġdra ft
Ġdiscuss ed
Ġtit les
Ġj azz
II I
Ġill ness
ion e
Ġexhib its
er ves
c ount
Ġg all
F riendly
ĠDemocr ats
Ġdis put
and o
Ġun a
Ġch oc
ĠR am
ĠSh ow
Ġmem or
Ġprep are
as hed
Ġsu icide
Ġre new
end o
Ġtre ated
Ð» ÑĮ
Ġt ur
Ġpick ed
ĠT al
Ġt iny
Ġt ennis
3 2
Ġc ards
ĠF our
ĠAl b
I T
Ġwor ry
Ġcal cul
ne ys
ĠSec urity
ĠK h
l t
ĠC apt
Ġgramm atically
ĠB illy
Ġmin ute
Ġ {
Ġaccept ed
Ġh ole
in ue
du le
clus ive
t op
il ty
ĠF BI
Ġenjoy able
Ġs oul
Ġaddress ing
Ġast ron
ĠL iber
Ġmat hem
Ġdel icious
Ġperson ality
ĠIslam ic
Ġmass ive
Ġadop ted
ol ving
8 6
G u
Ġhead quarters
ĠN ight
Ġconsum ption
Ġconf idence
Ġopin ions
as ant
Ġpil ot
ĠD NA
Ġdro pped
achus etts
we et
Ø§ Ø±
Ġgen uine
Ġcon j
Ġ199 2
he art
Ġnot iced
Ġche ap
ĠIndones ia
4 4
ut s
