{"!":0,"\"":1,"#":2,"$":3,"%":4,"&":5,"'":6,"(":7,")":8,"*":9,"+":10,",":11,"-":12,".":13,"/":14,"0":15,"1":16,"2":17,"3":18,"4":19,"5":20,"6":21,"7":22,"8":23,"9":24,":":25,";":26,"<":27,"=":28,">":29,"?":30,"@":31,"A":32,"B":33,"C":34,"D":35,"E":36,"F":37,"G":38,"H":39,"I":40,"J":41,"K":42,"L":43,"M":44,"N":45,"O":46,"P":47,"Q":48,"R":49,"S":50,"T":51,"U":52,"V":53,"W":54,"X":55,"Y":56,"Z":57,"[":58,"\\":59,"]":60,"^":61,"_":62,"`":63,"a":64,"b":65,"c":66,"d":67,"e":68,"f":69,"g":70,"h":71,"i":72,"j":73,"k":74,"l":75,"m":76,"n":77,"o":78,"p":79,"q":80,"r":81,"s":82,"t":83,"u":84,"v":85,"w":86,"x":87,"y":88,"z":89,"{":90,"|":91,"}":92,"~":93,"¡":94,"¢":95,"£":96,"¤":97,"¥":98,"¦":99,"§":100,"¨":101,"©":102,"ª":103,"«":104,"¬":105,"®":106,"¯":107,"°":108,"±":109,"²":110,"³":111,"´":112,"µ":113,"¶":114,"·":115,"¸":116,"¹":117,"º":118,"»":119,"¼":120,"½":121,"¾":122,"¿":123,"À":124,"Á":125,"Â":126,"Ã":127,"Ä":128,"Å":129,"Æ":130,"Ç":131,"È":132,"É":133,"Ê":134,"Ë":135,"Ì":136,"Í":137,"Î":138,"Ï":139,"Ð":140,"Ñ":141,"Ò":142,"Ó":143,"Ô":144,"Õ":145,"Ö":146,"×":147,"Ø":148,"Ù":149,"Ú":150,"Û":151,"Ü":152,"Ý":153,"Þ":154,"ß":155,"à":156,"á":157,"â":158,"ã":159,"ä":160,"å":161,"æ":162,"ç":163,"è":164,"é":165,"ê":166,"ë":167,"ì":168,"í":169,"î":170,"ï":171,"ð":172,"ñ":173,"ò":174,"ó":175,"ô":176,"õ":177,"ö":178,"÷":179,"ø":180,"ù":181,"ú":182,"û":183,"ü":184,"ý":185,"þ":186,"ÿ":187,"Ā":188,"ā":189,"Ă":190,"ă":191,"Ą":192,"ą":193,"Ć":194,"ć":195,"Ĉ":196,"ĉ":197,"Ċ":198,"ċ":199,"Č":200,"č":201,"Ď":202,"ď":203,"Đ":204,"đ":205,"Ē":206,"ē":207,"Ĕ":208,"ĕ":209,"Ė":210,"ė":211,"Ę":212,"ę":213,"Ě":214,"ě":215,"Ĝ":216,"ĝ":217,"Ğ":218,"ğ":219,"Ġ":220,"ġ":221,"Ģ":222,"ģ":223,"Ĥ":224,"ĥ":225,"Ħ":226,"ħ":227,"Ĩ":228,"ĩ":229,"Ī":230,"ī":231,"Ĭ":232,"ĭ":233,"Į":234,"į":235,"İ":236,"ı":237,"Ĳ":238,"ĳ":239,"Ĵ":240,"ĵ":241,"Ķ":242,"ķ":243,"ĸ":244,"Ĺ":245,"ĺ":246,"Ļ":247,"ļ":248,"Ľ":249,"ľ":250,"Ŀ":251,"ŀ":252,"Ł":253,"ł":254,"Ń":255,"Ġt":256,"he":257,"Ġa":258,"Ġs":259,"Ġw":260,"nd":261,"Ġthe":262,"in":263,"ed":264,"Ġb":265,"Ġand":266,"re":267,"Ġto":268,"Ġf":269,"ou":270,"ha":271,"Ġc":272,"it":273,"Ġwa":274,"er":275,"Ġo":276,"Ġm":277,"Ġd":278,"ing":279,"Ġl":280,"Ġp":281,"ĠT":282,"Ġhe":283,"en":284,"Ġwas":285,"ar":286,"om":287,"ay":288,"ll":289,"is":290,"or":291,"Ġn":292,"Ġg":293,"Ġh":294,"on":295,"Ġha":296,"ĠThe":297,"im":298,"an":299,"Ġin":300,"ĠI":301,"ĠS":302,"es":303,"id":304,"Ġof":305,"Ġsa":306,"at":307,"le":308,"et":309,"ot":310,"ld":311,"čĊ":312,"ir":313,"Ġe":314,"Ġit":315,"Ġher":316,"hat":317,"ver":318,"ow":319,"Ġbe":320,"am":321,"Ġu":322,"ig":323,"st":324,"ly":325,"Ġst":326,"ut":327,"ac":328,"ith":329,"Ġwith":330,"end":331,"Ġthat":332,"ri":333,"Ġshe":334,"ent":335,"Ġr":336,"ne":337,"ĠH":338,"oo":339,"Ġpl":340,"pp":341,"ĠShe":342,"ic":343,"Ġday":344,"ke":345,"ĠThey":346,"se":347,"ve":348,"Ġhad":349,"ked":350,"Ġth":351,"ĠHe":352,"Ġon":353,"Ġy":354,"Ġ\"":355,"nt":356,"Ġli":357,"Ġfor":358,"al":359,"all":360,"Ġwe":361,"Ġplay":362,"ound":363,"un":364,"Ġsaid":365,"ould":366,"Ġre":367,"ft":368,"very":369,"Ġhis":370,"ad":371,"her":372,"Ġup":373,"Ġyou":374,"ce":375,"el":376,"ĠTim":377,"ily":378,"ht":379,"Ġne":380,"'s":381,"out":382,"Ġk":383,"Ġnot":384,"Ġbig":385,"ĠL":386,"Ġthey":387,"ur":388,"Ġan":389,"ore":390,"Ġbut":391,"Ġas":392,"Ġhapp":393,"riend":394,"Ġfriend":395,"Ġdo":396,"xt":397,"Ġmy":398,"ĠB":399,"Ġso":400,"ind":401,"itt":402,"ĠA":403,"Ġse":404,"Ġmom":405,"ĠM":406,"Ġme":407,"Ġwant":408,"Ġsm":409,"Ġsaw":410,"One":411,"il":412,"ved":413,"ext":414,"ĠIt":415,"oft":416,"<|":417,"|>":418,"endoft":419,"endoftext":420,"ra":421,"Ġtim":422,"Ġthere":423,"Ġwere":424,"Ġtime":425,"ch":426,"Ġhappy":427,"ill":428,"ome":429,"Ġj":430,"Ġall":431,"Ġvery":432,"Ġlo":433,"op":434,"ec":435,"ittle":436,"ure":437,"Ġcould":438,"Ġlittle":439,"ake":440,"ide":441,"Ġat":442,"oug":443,"Ġwor":444,"ion":445,"ĠLily":446,"amed":447,"Ġsp":448,"Ġsh":449,"Ġbo":450,"rom":451,"ul":452,"ain":453,"art":454,"lp":455,"ack":456,"The":457,"hing":458,"Ġnamed":459,"ight":460,"hed":461,"Ġout":462,"Ġhelp":463,"Ġwh":464,".\"":465,"ug":466,"ame":467,"Ġex":468,"um":469,"Ġis":470,"as":471,"ird":472,"Ġle":473,"ue":474,"Ġtoo":475,"ry":476,"Ġfriends":477,"Ġal":478,"Ġbird":479,"ard":480,"round":481,"Ġwanted":482,"Ġfe":483,"Ġtre":484,"way":485,"nce":486,"ter":487,"Ġloo":488,"ag":489,"ust":490,"ood":491,"ck":492,"ark":493,"Ġupon":494,"ĠTom":495,"Ġwent":496,"ro":497,"!\"":498,"Ġtheir":499,"Ġca":500,"if":501,"'t":502,"get":503,"Ġcl":504,"ace":505,"elt":506,"ess":507,"Once":508,"Ġfelt":509,"Ġcan":510,"our":511,"Ġro":512,"Ġfrom":513,"ie":514,"ong":515,"gether":516,"fe":517,"king":518,"own":519,"Ġback":520,"Ġdid":521,"Ġco":522,"ep":523,"Ġwould":524,"Ġtoy":525,"Ġfound":526,"Ġsee":527,"irl":528,"Ġfun":529,"hen":530,"Ġtogether":531,"one":532,"Ġsc":533,"Ġgirl":534,"Ġman":535,"Ġgo":536,"Ġcat":537,"ud":538,"ant":539,"Ġint":540,"Ġv":541,"Ġthem":542,"reat":543,"ĠW":544,"ist":545,"omet":546,"Ġsmall":547,"Ġab":548,"us":549,"Ġnew":550,"side":551,"Ġare":552,"Ġkne":553,"est":554,"Ġhim":555,"Ġbec":556,"Ġdog":557,"Ġla":558,"Ġsha":559,"Ġsomet":560,"Ġknew":561,"Ġlike":562,"Ġhave":563,"han":564,"Ġloved":565,"ther":566,"ous":567,"ough":568,"ful":569,"Ġaround":570,"ge":571,"Ġball":572,"os":573,"my":574,"ĠBut":575,"ers":576,"Ġlooked":577,"Ġplayed":578,"ings":579,"ate":580,"Ġby":581,"low":582,"ity":583,"ade":584,"Ġexp":585,"Ġsomething":586,"Ġno":587,"Ġwal":588,"?\"":589,"Ġevery":590,"Ġinto":591,"Ġother":592,"ned":593,"Ġtree":594,"ĠSam":595,"ice":596,"Ġfeel":597,"ast":598,"ax":599,"Ġmake":600,"ach":601,"Ġstart":602,"Ġag":603,"Ġboy":604,"Ġmade":605,"Ġwho":606,"Ġsad":607,"Ġworld":608,"nder":609,"Ġwhat":610,"Ġbr":611,"ought":612,"Ġdown":613,"ect":614,"Ġpe":615,"ook":616,"Ġsun":617,"Ġthr":618,"Ġpark":619,"Ġfind":620,"qu":621,"ble":622,"uc":623,"As":624,"Ġkn":625,"Ġcon":626,"Ġthis":627,"led":628,"Ġabout":629,"Ġover":630,"Ġun":631,"Ġcame":632,"iz":633,"ss":634,"Ġcar":635,"ation":636,"ried":637,"Ġgr":638,"Ġthrough":639,"ĠSue":640,"wn":641,"ell":642,"den":643,"Ġstarted":644,"ally":645,"Ġits":646,"ĠE":647,"ened":648,"ĠOne":649,"ĠMax":650,"ick":651,"ile":652,"Ġcom":653,"Ġstr":654,"ways":655,"Ġtr":656,"Ġaway":657,"ĠAs":658,"ort":659,"Ġhome":660,"Ġagain":661,"ouse":662,"Ġen":663,"Ġalways":664,"ia":665,"Ġpre":666,"Ġmo":667,"Ġmore":668,"ite":669,"ared":670,"pped":671,"Ġsmil":672,"Ġlear":673,"Ġliked":674,"Ġlived":675,"ves":676,"Ġgood":677,"Ġasked":678,"Ġde":679,"ĠF":680,"Ġthought":681,"ive":682,"ies":683,"Ġdec":684,"lf":685,"ap":686,"Ġbl":687,"Ġsome":688,"Ġsur":689,"Ġone":690,"Ġsk":691,"Ġpr":692,"You":693,"Ġus":694,"Ġsw":695,"Ġway":696,"Ġtook":697,"Ġbea":698,"Ġthings":699,"ĠBen":700,"imp":701,"Ġold":702,"ara":703,"Ġsmiled":704,"Ġfore":705,"ĠJ":706,"Ġop":707,"Ġplaying":708,"Ġthen":709,"ish":710,"Ġknow":711,"Ġran":712,"Ġbeaut":713,"ven":714,"Ġwhen":715,"pot":716,"ĠĊ":717,"ob":718,"uch":719,"Ġor":720,"and":721,"oud":722,"Ġad":723,"Ġexpl":724,"Ġsay":725,"Ġlife":726,"ĠčĊ":727,"co":728,"Ġour":729,"Ġbecame":730,"Ġnever":731,"Ġam":732,"ving":733,"Ġtake":734,"Ġany":735,"Ġfo":736,"Ġput":737,"Ġcha":738,"Ġget":739,"oph":740,"ided":741,"Ġmoment":742,"ise":743,"Ġlaug":744,"Ġcreat":745,"Ġapp":746,"fter":747,"Ġdis":748,"udden":749,"Ġtried":750,"Ġch":751,"Ġlong":752,"self":753,"Ġmany":754,"uck":755,"Ġdre":756,"ull":757,"here":758,"ĠSpot":759,"Ġwater":760,"ct":761,"ny":762,"ited":763,"Ġdecided":764,"Ġhouse":765,"Ġtur":766,"Ġthan":767,"Ġjust":768,"Ġgra":769,"ling":770,"Ġrem":771,"ense":772,"ak":773,"rm":774,"uddenly":775,"Ġreal":776,"Ġwill":777,"ild":778,"Ġscared":779,"ning":780,"ty":781,"Ġbox":782,"ged":783,"Ġroom":784,"vent":785,"Ġbot":786,"Ġke":787,"th":788,"Ġgot":789,"Ġwo":790,"Ġtoys":791,"Ġif":792,"Ġyour":793,"mb":794,"Ġcare":795,"Ġwat":796,"Ġexc":797,"Ġheard":798,"ine":799,"Ġforest":800,"ars":801,"Ġey":802,"Ġfl":803,"ĠD":804,"ople":805,"Ġrun":806,"Ġeach":807,"Ġbook":808,"Ġsound":809,"Ġpic":810,"ĠAnd":811,"Ġbeen":812,"ave":813,"Ġcouldn":814,"Ġpo":815,",\"":816,"Ġinside":817,"fore":818,"ump":819,"ucy":820,"Ġte":821,"ĠSara":822,"ass":823,"Ġwalked":824,"Ġhow":825,"Ġoutside":826,"Ġunder":827,"Ġqu":828,"ures":829,"ness":830,"Ġwind":831,"Ġred":832,"ĠYou":833,"Ġgre":834,"Ġmag":835,"Ġsky":836,"als":837,"use":838,"age":839,"ĠSoph":840,"Ġhand":841,"Ġlearned":842,"Ġpeople":843,"ered":844,"Ġbefore":845,"Ġeven":846,"Ġho":847,"ĠWe":848,"Ġbeg":849,"ary":850,"aking":851,"Ġlot":852,"ment":853,"Ġeyes":854,"Tim":855,"ance":856,"Ġcont":857,"ĠMia":858,"Ġtra":859,"Lily":860,"Ġstor":861,"ward":862,"Ġdark":863,"Ġcle":864,"Ġimp":865,"Ġbest":866,"Ġcu":867,"ount":868,"Ġsense":869,"ized":870,"Ġkind":871,"Ġshow":872,"Ġmagic":873,"Ġlook":874,"Ġoff":875,"oy":876,"Ġmuch":877,"ff":878,"Ġboth":879,"med":880,"ĠLucy":881,"able":882,"ink":883,"Ġanim":884,"Ġdeep":885,"Ġnear":886,"ng":887,"pr":888,"are":889,"bb":890,"Ġclos":891,"umb":892,"Ġneed":893,"Ġsays":894,"ched":895,"Ġfast":896,"Ġtw":897,"ause":898,"Ġpret":899,"Ġhar":900,"âĢ":901,"ange":902,"Ġlet":903,"Ġend":904,"Ġset":905,"Ġdoor":906,"pt":907,"az":908,"ĠSo":909,"But":910,"Ġrock":911,"ci":912,"ĠIn":913,"ang":914,"sp":915,"Ġhug":916,"by":917,"Ġtown":918,"Ġtold":919,"ached":920,"Ġwhile":921,"Ġfeeling":922,"Ġstre":923,"ĠC":924,"Ġplace":925,"Ġread":926,"Ġbet":927,"other":928,"Ġadvent":929,"Ġbecause":930,"na":931,"Ġbegan":932,"ated":933,"Ġcome":934,"Ġair":935,"Ġwhere":936,"Ġflow":937,"Ġfill":938,"ĠBob":939,"Ġlaughed":940,"ol":941,"Ġtry":942,"Ġjump":943,"Ġac":944,"Ġdif":945,"Ġexcited":946,"Ġeat":947,"Ġsurpr":948,"ree":949,"iny":950,"ial":951,"cover":952,"Ġlight":953,"ire":954,"ose":955,"ip":956,"les":957,"Ġar":958,"Ġbu":959,"Ġlea":960,"Ġrealized":961,"Ġground":962,"Ġheart":963,"ĠMom":964,"Ġhard":965,"ĠSophie":966,"Ġown":967,"ĠHer":968,"Ġnight":969,"Ġgave":970,"Ġwork":971,"Ġanimals":972,"red":973,"ĠSarah":974,"hes":975,"Ġface":976,"lew":977,"Yes":978,"dy":979,"inally":980,"Ġlist":981,"Ġstill":982,"Ġwarm":983,"ence":984,"av":985,"Ġnice":986,"They":987,"ath":988,"Ġafter":989,"Ġfam":990,"nna":991,"Tom":992,"ting":993,"ious":994,"Ġdad":995,"Ġche":996,"Ġever":997,"ors":998,"Ġbetter":999,"Ġspec":1000,"Ġcol":1001,"fere":1002,"iful":1003,"ised":1004,"Ġtal":1005,"Ġbeauty":1006,"Ġbeautiful":1007,"Ġtrees":1008,"Ġhig":1009,"Ġfar":1010,"thing":1011,"Ġdidn":1012,"ase":1013,"umbled":1014,"Ġopened":1015,"Ġdiffere":1016,"Ġbeing":1017,"Ġpow":1018,"Ġgl":1019,"act":1020,"Ġstrange":1021,"Ġcuri":1022,"Ġyoung":1023,"Ġfr":1024,"Ġcity":1025,"Ġsor":1026,"antha":1027,"Ġpretty":1028,"Ġturned":1029,"Ġdra":1030,"wards":1031,"less":1032,"Ġfood":1033,"Ġopen":1034,"Ġwalk":1035,"ching":1036,"Ġlove":1037,"ool":1038,"Ġfish":1039,"Ġfilled":1040,"Ġsoon":1041,"Ġlost":1042,"Ġhid":1043,"Ġsl":1044,"Ġcall":1045,"Ġstumbled":1046,"iced":1047,"Ġonly":1048,"Ġexplor":1049,"Ġspecial":1050,"Ġdes":1051,"eter":1052,"ined":1053,"llow":1054,"hank":1055,"Ġnow":1056,"mer":1057,"Ġpass":1058,"Ġune":1059,"Ġsorry":1060,"Ġcomp":1061,"Ġide":1062,"Ġgreat":1063,"Ġnat":1064,"Ġspent":1065,"so":1066,"Ġshare":1067,"arden":1068,"ued":1069,"Ġdiscover":1070,"Ġgarden":1071,"Ġalso":1072,"Ġunt":1073,"ster":1074,"ĠEvery":1075,"Ġpart":1076,"Ġnext":1077,"Ġbreat":1078,"imb":1079,"ĠHis":1080,"ĠSamantha":1081,"ected":1082,"Ġhappened":1083,"Ġloud":1084,"Ġsn":1085,"Ġwood":1086,"ĠEm":1087,"It":1088,"Ġcr":1089,"Ġplan":1090,"Ġseemed":1091,"ows":1092,"Ġpicked":1093,"Ġnoticed":1094,"ĠFrom":1095,"Ġglow":1096,"Ġland":1097,"Ġ-":1098,"Ġimport":1099,"Ġidea":1100,"Ġdream":1101,"ught":1102,"Ġgi":1103,"Ġuntil":1104,"Ġtowards":1105,"Ġdist":1106,"Ġwonder":1107,"Ġsafe":1108,"ush":1109,"Ġfamily":1110,"Ġfig":1111,"Ġfollow":1112,"Ġclimb":1113,"uff":1114,"ĠWhen":1115,"Ġcontin":1116,"Ġmet":1117,"ĠP":1118,"ĠAmy":1119,"Ġmor":1120,"ross":1121,"Ġexplore":1122,"Ġcry":1123,"gry":1124,"Ġste":1125,"cre":1126,"iver":1127,"irst":1128,"Ġpeace":1129,"Ġexper":1130,"Ġpain":1131,"Ġsat":1132,"Ġclean":1133,"Ġcloser":1134,"Ġhop":1135,"Ġflew":1136,"Ġdon":1137,"Ġmust":1138,"Ġothers":1139,"his":1140,"Ġstay":1141,"anc":1142,"Ġpower":1143,"hind":1144,"Ġjour":1145,"Ġhigh":1146,"air":1147,"iss":1148,"ail":1149,"'m":1150,"sh":1151,"lls":1152,"orn":1153,"Ġshad":1154,"ted":1155,"Ġcareful":1156,"Ġherself":1157,"Ġbehind":1158,"Thank":1159,"Ġshould":1160,"Ġhur":1161,"Ġvo":1162,"Ġfly":1163,"ts":1164,"ished":1165,"Ġstrong":1166,"Ġblue":1167,"ix":1168,"Ġrain":1169,"xp":1170,"ĠAnna":1171,"Ġbear":1172,"Ġwr":1173,"Ġleaves":1174,"Ġkeep":1175,"Ġgrew":1176,"Ġcake":1177,"gy":1178,"Suddenly":1179,"ĠThen":1180,"Ġra":1181,"Ġremind":1182,"Ġsoft":1183,"Ġcast":1184,"more":1185,"Ġunexp":1186,"Ġlots":1187,"Ġper":1188,"Ġproud":1189,"Ġanymore":1190,"Ġpro":1191,"Ġbright":1192,"ney":1193,"Ġfigure":1194,"iv":1195,"Ġcurious":1196,"Ġunexpected":1197,"Ġgive":1198,"Mom":1199,"ock":1200,"Ġbug":1201,"be":1202,"ign":1203,"ears":1204,"aring":1205,"Ġbirds":1206,"Ġadventure":1207,"Ġseen":1208,"ions":1209,"ĠSuddenly":1210,"Ġimportant":1211,"Ġbra":1212,"Ġcold":1213,"Ġsand":1214,"Ġfirst":1215,"ĠN":1216,"Ġreached":1217,"Ġmost":1218,"Ġbel":1219,"Ġlisten":1220,"Ġstory":1221,"Ġwait":1222,"atter":1223,"Ġchild":1224,"Ġanother":1225,"emb":1226,"ather":1227,"Ġbad":1228,"ired":1229,"Ġbro":1230,"Ġob":1231,"Ġwoods":1232,"Ġjourney":1233,"Ġexploring":1234,"Ġhidden":1235,"joy":1236,"When":1237,"Ġthanked":1238,"Ġchan":1239,"Ġuse":1240,"Ġshiny":1241,"Ġdifferent":1242,"vel":1243,"day":1244,"Ġvoice":1245,"Ġsecre":1246,"Ġwatched":1247,"Ġsto":1248,"Ġfull":1249,"Ġdays":1250,"Ġsurprised":1251,"ma":1252,"ours":1253,"eterm":1254,"Ġflowers":1255,"Ġfro":1256,"Ġmon":1257,"Ġrememb":1258,"Ġsurround":1259,"Ġhas":1260,"Let":1261,"Ġslow":1262,"Ġhead":1263,"ateful":1264,"Ġri":1265,"Ġeveryone":1266,"Ġhelped":1267,"Ġcount":1268,"ustling":1269,"ĠK":1270,"Ġacross":1271,"Ġcre":1272,"isp":1273,"Ġworked":1274,"Ġgrateful":1275,"Ġboat":1276,"Ġcra":1277,"Ġpur":1278,"Ġhor":1279,"pl":1280,"Ġim":1281,"Ġbre":1282,"Ġjo":1283,"Ġgrow":1284,"Ġmyster":1285,"Ġtri":1286,"Ġbed":1287,"Ġcontinued":1288,"ering":1289,"ummy":1290,"Ġwalking":1291,"Ġamaz":1292,"Ġhear":1293,"Ġalone":1294,"kay":1295,"ks":1296,"Ġjumped":1297,"Ġquick":1298,"ating":1299,"Ġcoming":1300,"Ġent":1301,"oup":1302,"ons":1303,"que":1304,"Ġsea":1305,"Ġcalled":1306,"Ġrest":1307,"Ġlearn":1308,"Ġexperi":1309,"Ġhugged":1310,"Ġmyself":1311,"Ġhere":1312,"Ġhurt":1313,"Ġsqu":1314,"Ġsimp":1315,"Ġswe":1316,"Ġkid":1317,"ied":1318,"Ġstud":1319,"Ġjoy":1320,"Ġnature":1321,"Ġmove":1322,"ĠO":1323,"ushed":1324,"ĠMary":1325,"Ġflo":1326,"Ġstopped":1327,"Ġshowed":1328,"ze":1329,"Ġwom":1330,"ane":1331,"br":1332,"hy":1333,"Ġsmile":1334,"Ġappro":1335,"Ġgreen":1336,"In":1337,"Ġhands":1338,"ets":1339,"Ġpull":1340,"ible":1341,"Ġnoise":1342,"Ġenjoy":1343,"Ġwoman":1344,"ĠR":1345,"mp":1346,"Ġused":1347,"Ġdeterm":1348,"Ġhours":1349,"Ġfell":1350,"ded":1351,"cean":1352,"Ġpict":1353,"Ġgoing":1354,"unny":1355,"Ġbreath":1356,"Ġalong":1357,"Ġtreas":1358,"Ġcreature":1359,"ĠLet":1360,"uffy":1361,"Ġstick":1362,"Ġocean":1363,"Ġsing":1364,"Ġmaking":1365,"Ġmar":1366,"itty":1367,"ient":1368,"Ġsu":1369,"amp":1370,"Ġbus":1371,"lease":1372,"Ġturn":1373,"No":1374,"cap":1375,"Ġmean":1376,"Ġnod":1377,"Ġprot":1378,"Ġhappily":1379,"ren":1380,"ield":1381,"Ġmess":1382,"ĠSally":1383,"Ġhum":1384,"Ġlooking":1385,"Ġkids":1386,"Ġtrying":1387,"ater":1388,"Ġret":1389,"Ġhill":1390,"Ġart":1391,"Ġbooks":1392,"Ġwhisp":1393,"ĠEmily":1394,"Ġforg":1395,"ying":1396,"enc":1397,"we":1398,"Ġdel":1399,"Ġbrave":1400,"Ġgent":1401,"Ġmagical":1402,"ike":1403,"Ġbuild":1404,"Ġfinally":1405,"rel":1406,"Ġstep":1407,"ten":1408,"Ġact":1409,"Ġright":1410,"Ġshar":1411,"Ġtwo":1412,"ĠThere":1413,"Ġkept":1414,"He":1415,"Ġfrog":1416,"Ġunderst":1417,"lves":1418,"Ġmoments":1419,"Ġcoll":1420,"oon":1421,"bbit":1422,"pite":1423,"nts":1424,"Ġstore":1425,"Ġdarkness":1426,"luffy":1427,"oh":1428,"em":1429,"Can":1430,"Ġvis":1431,"Ġres":1432,"Ġben":1433,"Ġhat":1434,"ĠWith":1435,"Ġpres":1436,"Ġapproached":1437,"Ġappre":1438,"Ġleft":1439,"Ġperf":1440,"Ġpos":1441,"Ġrabbit":1442,"Ġtow":1443,"zy":1444,"Ġtell":1445,"Ġgame":1446,"After":1447,"Ġdr":1448,"We":1449,"Ġhair":1450,"Ġangry":1451,"Ġcolor":1452,"Ġprotect":1453,"Ġcaught":1454,"Ġgu":1455,"Ġanything":1456,"Ġwatch":1457,"ination":1458,"Ġthink":1459,"ohn":1460,"Ġthese":1461,"anding":1462,"Ġfav":1463,"Ġshared":1464,"llen":1465,"Ġeverything":1466,"Ġspend":1467,"Ġyummy":1468,"ert":1469,"Ġbeach":1470,"Ġcolors":1471,"Ġtall":1472,"Ġfas":1473,"Ġchallen":1474,"Ġhold":1475,"Ġstars":1476,"Ġtruck":1477,"Ġpond":1478,"Ġcatch":1479,"Ġhaving":1480,"Ġgrass":1481,"tle":1482,"Ġmouse":1483,"Ġpers":1484,"Ġate":1485,"ountain":1486,"Ġfix":1487,"Ġappreci":1488,"ins":1489,"Ġpushed":1490,"That":1491,"Ġyears":1492,"Ġhot":1493,"ady":1494,"ens":1495,"Ġyell":1496,"Ġcreatures":1497,"Ġinv":1498,"Ġtop":1499,"ĠDo":1500,"ĠKitty":1501,"Ġretur":1502,"anger":1503,"Ġprom":1504,"Ġfloor":1505,"Ġfew":1506,"ĠFluffy":1507,"illy":1508,"Ġready":1509,"Ġsmell":1510,"Ġdiscovered":1511,"Ġcomm":1512,"Ġmind":1513,"aces":1514,"Ġwatching":1515,"Ġstop":1516,"pport":1517,"Ġfoot":1518,"Ġslide":1519,"ries":1520,"leep":1521,"Ġwindow":1522,"cess":1523,"orite":1524,"Ġener":1525,"ond":1526,"Ġshadows":1527,"Ġscre":1528,"iet":1529,"Ġfavorite":1530,"Ġstepped":1531,"bin":1532,"pping":1533,"Ġagainst":1534,"ations":1535,"unt":1536,"cient":1537,"Ġtaking":1538,"imes":1539,"Ġquickly":1540,"Ġcabin":1541,"Ġfur":1542,"Ġthing":1543,"Ġancient":1544,"ĠâĢ":1545,"Ġheld":1546,"ken":1547,"Ġneeded":1548,"Ġnodded":1549,"Ġcorn":1550,"Ġcool":1551,"Ġref":1552,"Ġmus":1553,"At":1554,"nect":1555,"itc":1556,"Ġinc":1557,"ĠG":1558,"ank":1559,"Ġfasc":1560,"Ġcook":1561,"irrel":1562,"Ġmorning":1563,"Ġhun":1564,"me":1565,"What":1566,"Ġdistance":1567,"Then":1568,"Ġhole":1569,"Ġeas":1570,"Ġnearby":1571,"Ġmiss":1572,"Ġnothing":1573,"Ġsunny":1574,"Ġplant":1575,"ming":1576,"Ġsurprise":1577,"Ġsquirrel":1578,"aced":1579,"Ġclose":1580,"cape":1581,"Ġbunny":1582,"Ġsho":1583,"Ġrel":1584,"ult":1585,"akes":1586,"Ġtreasure":1587,"Ġpath":1588,"ility":1589,"ained":1590,"Ġinsp":1591,"Ġsweet":1592,"Ġstood":1593,"Ġenergy":1594,"Ġgrand":1595,"Ġlay":1596,"Ġcave":1597,"Hi":1598,"Ġflower":1599,"âĢĿ":1600,"reed":1601,"ear":1602,"Ġbring":1603,"Ġtired":1604,"ges":1605,"Ġwild":1606,"ities":1607,"Ġdraw":1608,"Ġquiet":1609,"Ġatt":1610,"Ġresp":1611,"Ġfield":1612,"Ġleg":1613,"aybe":1614,"Ġkitc":1615,"Ġkitchen":1616,"Ġdri":1617,"ĠThis":1618,"Ġfollowed":1619,"Ġuniver":1620,"Ġtran":1621,"Ġdress":1622,"Look":1623,"Ġba":1624,"ory":1625,"Ġfascin":1626,"bo":1627,"Ġkey":1628,"ĠNow":1629,"Ġpare":1630,"Ġheal":1631,"Ġfin":1632,"Ġcla":1633,"Ġfunny":1634,"Ġfree":1635,"Ġmommy":1636,"She":1637,"Ġword":1638,"Ġfeet":1639,"Ġsear":1640,"Ġmusic":1641,"unity":1642,"Ġmountain":1643,"Ġloc":1644,"Ben":1645,"espite":1646,"Ġgroup":1647,"Ġforgot":1648,"Ġstories":1649,"Ġbag":1650,"ining":1651,"ier":1652,"oned":1653,"Ġgift":1654,"Ġcut":1655,"Ġfire":1656,"Ġfair":1657,"Ġdir":1658,"ural":1659,"Ġtouch":1660,"Ġbar":1661,"Ġice":1662,"Ġrunning":1663,"Ġimag":1664,"Sam":1665,"Ġsurrounded":1666,"Ġfear":1667,"oom":1668,"Ġsleep":1669,"Ġoften":1670,"ger":1671,"Ġtalk":1672,"Ġwander":1673,"Ġenc":1674,"Ġtwist":1675,"Ġspot":1676,"Ġter":1677,"Ġsong":1678,"Ġappreciate":1679,"ost":1680,"Ġduck":1681,"Ġparty":1682,"Ġsimple":1683,"Ġtast":1684,"Ġokay":1685,"Ġcasting":1686,"ĠCan":1687,"orm":1688,"Sara":1689,"Ġz":1690,"Ġsy":1691,"Ġpa":1692,"Ġpurp":1693,"Ġdetermined":1694,"Ġeasy":1695,"ash":1696,"Ġforever":1697,"Ġfriendly":1698,"Ġparents":1699,"Ġtable":1700,"Ġliving":1701,"Ġwoke":1702,"Ġpassion":1703,"aper":1704,"Ġjob":1705,"Ġdeeper":1706,"Ġclimbed":1707,"Ġsit":1708,"Ġsign":1709,"Ġthose":1710,"Ġswim":1711,"Ġbelie":1712,"Ġmight":1713,"ĠJane":1714,"kes":1715,"Ġrace":1716,"Ġfall":1717,"ib":1718,"where":1719,"bbed":1720,"So":1721,"Ġroll":1722,"ĠTo":1723,"Ġsecrets":1724,"Ġbreak":1725,"ually":1726,"wl":1727,"Ġbroken":1728,"Ġbit":1729,"selves":1730,"With":1731,"Ġchange":1732,"Ġhelping":1733,"ugg":1734,"Ġclot":1735,"Ġgentle":1736,"Ġname":1737,"ello":1738,"edic":1739,"Ġclosed":1740,"ress":1741,"Hello":1742,"Ġdanger":1743,"Ġmoral":1744,"Ġtiny":1745,"Ġfascinated":1746,"Ġbrought":1747,"Ġuniverse":1748,"Ġwalls":1749,"ila":1750,"ĠâĢľ":1751,"Ġblock":1752,"Ġemb":1753,"Ġvast":1754,"Ġunl":1755,"Ġless":1756,"com":1757,"Ġdanc":1758,"Ġconnect":1759,"Ġchildren":1760,"Ġagreed":1761,"Ġwise":1762,"Ġdoll":1763,"From":1764,"Ġgen":1765,"ĠSophia":1766,"used":1767,"Ġexperienc":1768,"Ġes":1769,"Ġreach":1770,"lly":1771,"Ġgone":1772,"avy":1773,"Ġwithin":1774,"ĠJack":1775,"Ġyellow":1776,"Ġhuman":1777,"Ġtail":1778,"Ġear":1779,"'re":1780,"Ġyard":1781,"Ġarri":1782,"Ġhope":1783,"oc":1784,"Ġhoriz":1785,"Ġbustling":1786,"Ġchest":1787,"yond":1788,"ever":1789,"Ġsame":1790,"Ġprin":1791,"Ġcryst":1792,"aught":1793,"Ġvill":1794,"ully":1795,"Ġfight":1796,"ustle":1797,"Don":1798,"Ġcolorful":1799,"Ġwell":1800,"head":1801,"Ġlistened":1802,"Ġfre":1803,"ject":1804,"Ġbeyond":1805,"Ġwaves":1806,"Ġthick":1807,"Ġshout":1808,"ude":1809,"Ġlady":1810,"Ġwee":1811,"Ġforget":1812,"Ġarm":1813,"Ġhorizon":1814,"Ġslowly":1815,"Ġremember":1816,"eared":1817,"ope":1818,"Ġcup":1819,"Ġstar":1820,"aint":1821,"Ġbutter":1822,"Ġwash":1823,"Ġshake":1824,"ĠMr":1825,"Ġshore":1826,"Ġnest":1827,"ames":1828,"Ġpot":1829,"fully":1830,"Ġcover":1831,"ging":1832,"ique":1833,"irp":1834,"iting":1835,"Ġdance":1836,"ont":1837,"Ġwhe":1838,"Ġsomeone":1839,"Ġglowing":1840,"Ġworry":1841,"Ġperfect":1842,"Ġspace":1843,"ths":1844,"Ġleave":1845,"Ġpulled":1846,"osity":1847,"Ġpicture":1848,"Wow":1849,"Ġmatter":1850,"âĢĻ":1851,"Ġdone":1852,"str":1853,"reeze":1854,"Finally":1855,"Ġsuc":1856,"Ġpick":1857,"ĠEmma":1858,"alm":1859,"Ġplanet":1860,"fort":1861,"ror":1862,"Ġfresh":1863,"Ġaband":1864,"Ġcars":1865,"Ġpink":1866,"Ġpaper":1867,"Ġcreate":1868,"Ġheavy":1869,"uit":1870,"Ġbreeze":1871,"ize":1872,"ĠMy":1873,"bye":1874,"Ġlands":1875,"Ġpaint":1876,"Ġriver":1877,"Ġsail":1878,"Ġhungry":1879,"Ġarrived":1880,"Ġsometimes":1881,"Ġdoes":1882,"man":1883,"Ġsight":1884,"Ġsounds":1885,"Ġalive":1886,"Ġswing":1887,"Ġemp":1888,"Ġchallenges":1889,"Ġdelic":1890,"Ġsil":1891,"ventually":1892,"Ġposs":1893,"Ġcorner":1894,"Ġgener":1895,"Ġsure":1896,"Ġexcite":1897,"Ġdrag":1898,"Ġstanding":1899,"Ġabandoned":1900,"Ġblack":1901,"light":1902,"Ġant":1903,"Ġking":1904,"Ġed":1905,"Ġbene":1906,"Ġpu":1907,"Ġlaugh":1908,"itting":1909,"te":1910,"ister":1911,"ĠThat":1912,"Ġtrue":1913,"Ġshop":1914,"sit":1915,"Ġwaiting":1916,"ĠJohn":1917,"Why":1918,"Ġexcitement":1919,"Ġpast":1920,"arth":1921,"Ġrepl":1922,"Ġgrabbed":1923,"Soph":1924,"Ġplease":1925,"rill":1926,"Ġcloud":1927,"Ġel":1928,"Ġwet":1929,"isy":1930,"Max":1931,"row":1932,"Ġhesit":1933,"ask":1934,"lect":1935,"dle":1936,"ord":1937,"Ġable":1938,"Ġfront":1939,"Ġpeaceful":1940,"ĠAfter":1941,"Ġwords":1942,"Ġbody":1943,"Ġgoodbye":1944,"app":1945,"ffe":1946,"Ġnatural":1947,"ĠTimmy":1948,"Ġcried":1949,"ĠDad":1950,"Ġside":1951,"Ġdoing":1952,"Ġneck":1953,"Ġrustling":1954,"Ġje":1955,"Anna":1956,"Ġsecret":1957,"Ġeag":1958,"Ġunderstand":1959,"Sue":1960,"Ġshap":1961,"Ġgold":1962,"lice":1963,"Ġpretend":1964,"wor":1965,"Ġswam":1966,"come":1967,"Ġwished":1968,"Ġcent":1969,"Ġcrystal":1970,"ledge":1971,"Ġbow":1972,"Ġvillage":1973,"ric":1974,"Ġremembered":1975,"Ġmysterious":1976,"Ġapple":1977,"Ġfaint":1978,"Ġunique":1979,"cle":1980,"Ġthin":1981,"Ġlives":1982,"Ġowl":1983,"Ġamazed":1984,"Ġincred":1985,"nown":1986,"ife":1987,"Ġperson":1988,"Ġbutterf":1989,"ĠAll":1990,"der":1991,"land":1992,"acing":1993,"Ġskin":1994,"Ġadventures":1995,"Ġtight":1996,"Ġcand":1997,"Ġbeneath":1998,"ich":1999,"Ġfruit":2000,"Ġpie":2001,"Ġtrain":2002,"Ġknowledge":2003,"ner":2004,"Ġeager":2005,"Ġsuddenly":2006,"Ġonce":2007,"Ġknown":2008,"Ġblocks":2009,"icy":2010,"ead":2011,"Ġknowing":2012,"Ġmist":2013,"Ġstreets":2014,"Ġwar":2015,"Ġlun":2016,"Ġorange":2017,"sed":2018,"Ġmap":2019,"Ġbelieve":2020,"Ġlead":2021,"oney":2022,"Ġreturned":2023,"Ġstayed":2024,"Ġwish":2025,"itten":2026,"cho":2027,"to":2028,"uly":2029,"Ġblew":2030,"oke":2031,"Ġwall":2032,"Ġstuck":2033,"ppy":2034,"Ġbroke":2035,"Ġwin":2036,"Ġtruly":2037,"ucky":2038,"Ġcollect":2039,"Ġkindness":2040,"Ġsum":2041,"ages":2042,"Ġthre":2043,"Ġlion":2044,"Ġbigger":2045,"og":2046,"Ġsol":2047,"erv":2048,"Ġopport":2049,"Ġforward":2050,"Ġwhite":2051,"Ġwel":2052,"Ġecho":2053,"step":2054,"Ġcream":2055,"Ġdreams":2056,"Ġcuriosity":2057,"sion":2058,"Ġdro":2059,"Ġstreet":2060,"ian":2061,"Ġtravel":2062,"ffee":2063,"iness":2064,"ery":2065,"Ġgaz":2066,"Ġincredible":2067,"Ġru":2068,"ured":2069,"Ġcomple":2070,"Ġvisit":2071,"ab":2072,"Ġce":2073,"key":2074,"Ġwhy":2075,"Ġweeks":2076,"Ġfut":2077,"Ġcalm":2078,"Ġcoffee":2079,"Ġtreat":2080,"Ġcarefully":2081,"Ġclearing":2082,"Ġsnow":2083,"Ġturns":2084,"Ġsch":2085,"Ġmoon":2086,"outh":2087,"mbol":2088,"Ġdest":2089,"Ġbecome":2090,"Ġdin":2091,"Ġtrave":2092,"Ġsymbol":2093,"Ġconf":2094,"Ġwag":2095,"ĠDespite":2096,"steps":2097,"Ġstrugg":2098,"Ġbaby":2099,"Ġhide":2100,"Ġisland":2101,"ĠBobo":2102,"ove":2103,"Ġchair":2104,"Ġbuy":2105,"Ġelse":2106,"Ġfootsteps":2107,"Ġdust":2108,"Ġvi":2109,"Ġcur":2110,"ĠAt":2111,"Ġenjoyed":2112,"Ġglad":2113,"Ġcastle":2114,"Ġpound":2115,"Ġfuture":2116,"Ġsitting":2117,"Ġspl":2118,"Ġenv":2119,"Ġrocks":2120,"Ġlive":2121,"room":2122,"Ġlast":2123,"ues":2124,"Ġjoin":2125,"Ġspr":2126,"Ġmouth":2127,"Ġthank":2128,"Ġbur":2129,"Ġsees":2130,"oura":2131,"iron":2132,"Ġinst":2133,"Ġdisapp":2134,"Ġdifference":2135,"ĠEveryone":2136,"Ġpri":2137,"Ġmoved":2138,"Ġexperience":2139,"Ġlooks":2140,"Ġsour":2141,"Ġlearning":2142,"Ġmid":2143,"Ġpowerful":2144,"Ġhit":2145,"Ġmeet":2146,"ĠInside":2147,"Ġenough":2148,"Ġourselves":2149,"Ġscary":2150,"Ġhimself":2151,"Ġroad":2152,"Just":2153,"Ġshining":2154,"Ġfarm":2155,"Ġgetting":2156,"Ġwond":2157,"Ġbusy":2158,"Ġshouted":2159,"Ġmakes":2160,"Ġask":2161,"Ġreplied":2162,"Ġteam":2163,"Ġastr":2164,"Ġstudying":2165,"Ġpictures":2166,"Ġfing":2167,"Ġstorm":2168,"covery":2169,"Ġchirp":2170,"Ġwaited":2171,"Ġbuilding":2172,"Mia":2173,"Ġlate":2174,"Ġbottle":2175,"Ġschool":2176,"ipped":2177,"Ġgames":2178,"Ġpresent":2179,"known":2180,"Ġclothes":2181,"hile":2182,"acher":2183,"Ġthough":2184,"Ġedge":2185,"Ġpat":2186,"Ġstone":2187,"Ġplaces":2188,"Ġsharing":2189,"ĠMommy":2190,"ĠLila":2191,"Ġreminder":2192,"Ġtoday":2193,"Ġspark":2194,"Ġthree":2195,"This":2196,"Ġdistant":2197,"Ġtwisted":2198,"Ġempty":2199,"Ġmark":2200,"Ġwithout":2201,"Sophie":2202,"Ġworking":2203,"Ġcontent":2204,"Ġobs":2205,"Ġdirty":2206,"Ġtouc":2207,"Ġeer":2208,"Ġcour":2209,"Ġdense":2210,"Ġdangerous":2211,"Ġwrong":2212,"Ġfairy":2213,"Ġspir":2214,"ular":2215,"Ġcomfort":2216,"Ġahead":2217,"Ġmix":2218,"Ġsuch":2219,"acked":2220,"Ġbutterfly":2221,"aisy":2222,"zz":2223,"Ġlift":2224,"Ġonto":2225,"Ġescape":2226,"ines":2227,"Ġsuccess":2228,"Ġlesson":2229,"ises":2230,"ĠWhat":2231,"Her":2232,"Ġhopped":2233,"Ġpounding":2234,"ones":2235,"Ġcons":2236,"Ġamazing":2237,"uddy":2238,"ual":2239,"Ġdiscovery":2240,"Ġled":2241,"ony":2242,"Ġfaster":2243,"set":2244,"Ġmysteries":2245,"Ġwasn":2246,"Ġpromised":2247,"hel":2248,"ately":2249,"found":2250,"Ġgather":2251,"Ġunknown":2252,"Ġlar":2253,"thy":2254,"Okay":2255,"Ġobject":2256,"Ġbrother":2257,"Ġanimal":2258,"Ġcarry":2259,"igh":2260,"Ġtouched":2261,"Ġmansion":2262,"Ġdragon":2263,"\".":2264,"Ġeverywhere":2265,"Ġspirit":2266,"rig":2267,"Ġcourse":2268,"ical":2269,"Ġdrew":2270,"Ġpassed":2271,"Ġdanced":2272,"Ġsetting":2273,"Ġstret":2274,"Ġclapped":2275,"Ġph":2276,"Ġthrew":2277,"ws":2278,"Ġdreamed":2279,"Ġwon":2280,"hant":2281,"Ġpoin":2282,"Ġmay":2283,"ces":2284,"Oh":2285,"Ġpiece":2286,"leas":2287,"Lucy":2288,"ĠFin":2289,"Ġmoving":2290,"Ġhappen":2291,"Ġplants":2292,"ey":2293,"Ġcommunity":2294,"Ġcovered":2295,"Ġfinished":2296,"Ġwit":2297,"ĠFinally":2298,"Ġwaved":2299,"Ġride":2300,"Ġround":2301,"Ġeerie":2302,"itude":2303,"Ġmountains":2304,"rap":2305,"Ġreminded":2306,"asp":2307,"up":2308,"Ġele":2309,"sing":2310,"Ġbelong":2311,"Ġchanged":2312,"Ġlocal":2313,"Ġrust":2314,"elf":2315,"Ġdry":2316,"Ġtalking":2317,"Ġcenter":2318,"Ġappeared":2319,"ific":2320,"Ġblank":2321,"ience":2322,"read":2323,"Years":2324,"Ġlikes":2325,"Ġval":2326,"Ġdesert":2327,"Ġcookies":2328,"Ġpi":2329,"angu":2330,"Ġreading":2331,"Ġdedic":2332,"Ġemer":2333,"Ġlouder":2334,"Ġlangu":2335,"Ġeff":2336,"oot":2337,"Ġimpact":2338,"Ġtalked":2339,"Ġpract":2340,"Ġmem":2341,"Ġve":2342,"Ġwhich":2343,"Ġlaughing":2344,"Ġsin":2345,"Ġadventur":2346,"Ġgh":2347,"Ġsal":2348,"Ġlater":2349,"Ġscream":2350,"Ġind":2351,"Ġsharp":2352,"Ġastron":2353,"Ġaw":2354,"Ġda":2355,"Ġchaos":2356,"Ġclear":2357,"anch":2358,"Ġmonths":2359,"Ġadventurous":2360,"Ġspread":2361,"Ġmonster":2362,"Ġlone":2363,"igate":2364,"Ġusing":2365,"Ġspe":2366,"ton":2367,"Ġcir":2368,"Ġrec":2369,"Ġrese":2370,"Ġscent":2371,"Ġleaf":2372,"Ġmat":2373,"Ġbranch":2374,"Ġuncover":2375,"Spot":2376,"olly":2377,"Ġsinging":2378,"Ġshr":2379,"Ġdelicious":2380,"ironment":2381,"whel":2382,"Ġcher":2383,"Ġletter":2384,"Ġwonders":2385,"Ġstri":2386,"Ġcreating":2387,"Ġenvironment":2388,"Ġbee":2389,"Ġreally":2390,"Ġghost":2391,"ots":2392,"Ġself":2393,"bs":2394,"dom":2395,"Ġhigher":2396,"rest":2397,"immer":2398,"Ġchance":2399,"Ġsnack":2400,"Ġnote":2401,"Ġlanded":2402,"Ġwandering":2403,"Ġencount":2404,"Ġharm":2405,"ĠAlice":2406,"Ġcult":2407,"Ġwear":2408,"Ġsummer":2409,"eth":2410,"lessly":2411,"Ġtower":2412,"Bob":2413,"Ġpen":2414,"ĠDaisy":2415,"anches":2416,"Ġresear":2417,"ition":2418,"Ġsupport":2419,"cket":2420,"Ġscient":2421,"Ġlandscape":2422,"Ġdep":2423,"Ġbranches":2424,"Ġvibr":2425,"board":2426,"Ġdi":2427,"cept":2428,"Ġcountless":2429,"Ġdetermination":2430,"Ġnap":2431,"ĠBuddy":2432,"Ġtrip":2433,"ls":2434,"Ġmum":2435,"Ġflying":2436,"Ġwhispers":2437,"Ġpiec":2438,"Ġsearching":2439,"oming":2440,"Ġcompass":2441,"Ġreflect":2442,"uring":2443,"Ġentered":2444,"To":2445,"Ġadm":2446,"ung":2447,"Ġawe":2448,"Ġspending":2449,"Ġquest":2450,"Ġpet":2451,"Ġearth":2452,"Ġcountry":2453,"itive":2454,"ored":2455,"Ġma":2456,"Do":2457,"fic":2458,"Ġowner":2459,"Ġchirping":2460,"Ġpurpose":2461,"ourage":2462,"ms":2463,"Ġpar":2464,"Ġhi":2465,"Ġwants":2466,"ĠSoon":2467,"ber":2468,"Ġopportunity":2469,"Ġlake":2470,"Ġexperiences":2471,"Ġsister":2472,"Ġnewfound":2473,"Ġsurf":2474,"oe":2475,"Ġwings":2476,"Ġbench":2477,"Ġarms":2478,"Ġpieces":2479,"els":2480,"Ġseas":2481,"Ġabove":2482,"sity":2483,"hter":2484,"Ġlaughter":2485,"Ġpush":2486,"Ġfox":2487,"Ġsmart":2488,"Ġworried":2489,"Ġwhole":2490,"Ġtire":2491,"Ġwide":2492,"Ġsave":2493,"Ġeye":2494,"Ġyet":2495,"osp":2496,"Ġsick":2497,"Ġadv":2498,"Ġexplored":2499,"Ġvibrant":2500,"yard":2501,"ilities":2502,"Ġgenerations":2503,"John":2504,"Ġreve":2505,"ents":2506,"aked":2507,"sw":2508,"ĠZ":2509,"Ġsou":2510,"ĠRe":2511,"Ġmother":2512,"Ġhon":2513,"gan":2514,"ssed":2515,"Ġballoon":2516,"Ġreturn":2517,"Ġdinner":2518,"Ġcozy":2519,"Ġseek":2520,"Ġbrown":2521,"Ġpurs":2522,"gg":2523,"oose":2524,"Ġbread":2525,"Ġpurple":2526,"Ġbat":2527,"aching":2528,"Ġmin":2529,"Ġpromise":2530,"Ġreco":2531,"ulf":2532,"Ġansw":2533,"Ġleaving":2534,"ĠJust":2535,"Ġbou":2536,"ety":2537,"Ġtom":2538,"Ġoverwhel":2539,"Ġlonger":2540,"Ġproble":2541,"Ġreg":2542,"Ġrep":2543,"Ġcontinue":2544,"rigued":2545,"Ġlanguage":2546,"ices":2547,"Ġmonkey":2548,"Ġsymbols":2549,"Ġbite":2550,"Ġtrou":2551,"Ġsang":2552,"Ġlying":2553,"ĠLe":2554,"Ġmessage":2555,"Ġlow":2556,"Ġpour":2557,"lder":2558,"Ġinte":2559,"Ġorgan":2560,"Ġholding":2561,"atitude":2562,"Ġunlike":2563,"iff":2564,"eddy":2565,"oring":2566,"ĠMaybe":2567,"Ġolder":2568,"ĠJen":2569,"Ġmud":2570,"Ġmoney":2571,"Ġinter":2572,"Ġexamp":2573,"gn":2574,"iring":2575,"Ġwelcome":2576,"Ġpleas":2577,"Ġendless":2578,"Ġlegs":2579,"His":2580,"Ġpig":2581,"Ġstand":2582,"Ġdrink":2583,"Ġshapes":2584,"lic":2585,"Ġbelow":2586,"Ġyes":2587,"Ġeating":2588,"Ġlarge":2589,"wed":2590,"Ġser":2591,"Ġmil":2592,"bit":2593,"Ġpud":2594,"Ġpages":2595,"ĠHow":2596,"owed":2597,"Ġconst":2598,"roll":2599,"Ġmach":2600,"ella":2601,"Ġways":2602,"ists":2603,"Ġpainting":2604,"Ġtea":2605,"Ġdrawn":2606,"Ġresist":2607,"Ġexample":2608,"Ġwore":2609,"Ġdiffic":2610,"Ġcalling":2611,"Ġwis":2612,"Ġfurther":2613,"rand":2614,"Ġthinking":2615,"Ġjew":2616,"Ġmail":2617,"Ġur":2618,"Ġgratitude":2619,"Amy":2620,"ending":2621,"imi":2622,"ote":2623,"While":2624,"Ġgasp":2625,"Ġhaunt":2626,"Ġsoup":2627,"Ġmel":2628,"ime":2629,"Ġinvest":2630,"Ġlonely":2631,"Ġcompassion":2632,"Ġearly":2633,"Ġdifficult":2634,"Ġtranqu":2635,"Ġterri":2636,"Ġtimes":2637,"ground":2638,"inary":2639,"Ġcot":2640,"Ġegg":2641,"Ġconnection":2642,"Ġinterest":2643,"Ġlur":2644,"Ġskill":2645,"Ġstronger":2646,"ĠSure":2647,"Ġsmiles":2648,"lebr":2649,"Ġhero":2650,"Ġinspired":2651,"Ġrob":2652,"Ġcelebr":2653,"Ġdirt":2654,"tage":2655,"Ġsilly":2656,"Ġmad":2657,"inning":2658,"Ġbal":2659,"Ġbowl":2660,"Ġkitten":2661,"Ġbutton":2662,"Ġgently":2663,"Ġbask":2664,"Ġcapt":2665,"Ġmission":2666,"Ġreveal":2667,"race":2668,"Ġju":2669,"Ġpowers":2670,"Ġblanket":2671,"Ġcard":2672,"Ġeventually":2673,"Ġlit":2674,"Ġcho":2675,"Ġdusty":2676,"Ġhoping":2677,"orted":2678,"Ġsnake":2679,"Ġmine":2680,"lla":2681,"icked":2682,"ĠIts":2683,"Ġspell":2684,"Ġspoke":2685,"per":2686,"Ġcomes":2687,"ival":2688,"Ġshoes":2689,"Ġrecogn":2690,"most":2691,"Ġfeels":2692,"uct":2693,"Ġflash":2694,"Ġmarine":2695,"Ġhesitation":2696,"Ġthrill":2697,"Ġkite":2698,"Ġvan":2699,"Ġbeat":2700,"Ġteeth":2701,"Sarah":2702,"Ġwave":2703,"Ġwhist":2704,"Ġtrapped":2705,"Ġcottage":2706,"Ġap":2707,"Ġcross":2708,"Ġcoat":2709,"Ġlab":2710,"Ġshadow":2711,"ĠOn":2712,"Ġdead":2713,"Ġhoped":2714,"Ġrelie":2715,"Ġjar":2716,"Ġstreng":2717,"ĠPe":2718,"ween":2719,"Ġtap":2720,"pper":2721,"Ġign":2722,"Ġrespons":2723,".âĢĿ":2724,"Ġfulf":2725,"ĠBilly":2726,"Ġbetween":2727,"Ġfulfill":2728,"lph":2729,"ibility":2730,"Ġbath":2731,"ogy":2732,"Ġstaring":2733,"Ġcrying":2734,"Ġscr":2735,"Ġintric":2736,"Ġgolden":2737,"Ġdolls":2738,"Ġracing":2739,"Ġshiver":2740,"Ġbike":2741,"Ġdolph":2742,"Ġtech":2743,"Ġrolled":2744,"ocked":2745,"Ġwagged":2746,"Ġfingers":2747,"Ġpatient":2748,"aged":2749,"Ġdaily":2750,"Ġmir":2751,"ĠSomet":2752,"Ġworth":2753,"Ġalmost":2754,"Ġswings":2755,"Ġanyone":2756,"Ġstudy":2757,"Ġspine":2758,"Ġord":2759,"hip":2760,"Ġbuck":2761,"Ġrare":2762,"Ġrope":2763,"Ġhills":2764,"llie":2765,"Ġhappiness":2766,"Ġband":2767,"Ġpop":2768,"Ġcandy":2769,"Ġfit":2770,"Ġfis":2771,"Ġfier":2772,"Ġgiant":2773,"Ġscreamed":2774,"kers":2775,"Ġfarmer":2776,"ology":2777,"Ġwolf":2778,"Ġdiscovering":2779,"Ġbarked":2780,"har":2781,"Ġbi":2782,"omed":2783,"ator":2784,"Ġeng":2785,"Ġcow":2786,"Ġsaved":2787,"Ġext":2788,"cious":2789,"Ġtasty":2790,"ides":2791,"Ġvent":2792,"gly":2793,"ĠMimi":2794,"Ġplane":2795,"ivity":2796,"Ġsimply":2797,"Ġinstead":2798,"Ġsoul":2799,"ute":2800,"Ġemerged":2801,"Ġshook":2802,"Ġwarmth":2803,"Ġpresence":2804,"Ġcollecting":2805,"Ġcourage":2806,"ĠBl":2807,"ĠWithout":2808,"Ġsongs":2809,"ervous":2810,"any":2811,"Ġins":2812,"Ġtrick":2813,"'ll":2814,"Ġpool":2815,"gr":2816,"Ġbasket":2817,"Please":2818,"Ġteacher":2819,"Ġmiddle":2820,"Ġfaces":2821,"orrow":2822,"Ġfields":2823,"Without":2824,"Ġfle":2825,"Ġdiver":2826,"Ġnervous":2827,"ident":2828,"Ġlibr":2829,"orts":2830,"Ġpol":2831,"Ġtrail":2832,"Ġrespect":2833,"Ġterror":2834,"And":2835,"Despite":2836,"Maybe":2837,"ato":2838,"Ġtest":2839,"Ġstrength":2840,"Ġbustle":2841,"Ġcomplete":2842,"Ġresearch":2843,"Ġbone":2844,"ooking":2845,"Ġdoct":2846,"Over":2847,"Ġneigh":2848,"Ġseed":2849,"Ġswimming":2850,"Ġpile":2851,"mon":2852,"Ġnose":2853,"Ġcountryside":2854,"Ġneighb":2855,"tory":2856,"Ġdim":2857,"Ġprep":2858,"Ġcrab":2859,"Ġsack":2860,"Ġcarried":2861,"irth":2862,"aded":2863,"Ġshy":2864,"chie":2865,"Ġtemp":2866,"Ġaccom":2867,"Ġhiding":2868,"Ġgrandma":2869,"flow":2870,"Ġpatter":2871,"Ġones":2872,"Ġaccept":2873,"Ġunderstanding":2874,"Ġmeant":2875,"ifact":2876,"Ġdropped":2877,"Ġobser":2878,"not":2879,"Ġimportance":2880,"Ġartifact":2881,"Ġthrow":2882,"aken":2883,"Ġtechn":2884,"Ġcap":2885,"Ġgrant":2886,"Ġtowering":2887,"ub":2888,"ĠY":2889,"stac":2890,"Ġvie":2891,"Ġobstac":2892,"Ġgathered":2893,"uri":2894,"Ġaf":2895,"Ġsens":2896,"Ġlucky":2897,"ention":2898,"ĠFor":2899,"Ġimagination":2900,"Be":2901,"iously":2902,"Ġsurface":2903,"Ġgrave":2904,"Ġremained":2905,"Ġtransp":2906,"immering":2907,"!âĢĿ":2908,"cc":2909,"Ġhustle":2910,"Ġexperim":2911,"Ġpuddle":2912,"irthday":2913,"ama":2914,"Ġpositive":2915,"Ġfixed":2916,"Ġaut":2917,"ĠWhe":2918,"Ġoffered":2919,"Mommy":2920,"Ġechoing":2921,"Ġsource":2922,"stem":2923,"Ġhuge":2924,"Ġguard":2925,"Ġastronom":2926,"ants":2927,"world":2928,"Ġwonderful":2929,"Ġunlock":2930,"Ġstair":2931,"Ġasks":2932,"ĠJoe":2933,"Ġinvestigate":2934,"rot":2935,"Ġpill":2936,"Ġbush":2937,"Ġev":2938,"Ġstra":2939,"Ġnoises":2940,"Ġfog":2941,"Ġchill":2942,"Ġtaught":2943,"ift":2944,"Ġblood":2945,"Ġtreasures":2946,"Ġbrush":2947,"Ġruns":2948,"hiskers":2949,"Ġav":2950,"medi":2951,"Ġtaste":2952,"Ġsudden":2953,"ĠTheir":2954,"Ġgrowing":2955,"Ġwhisper":2956,"Ġitself":2957,"una":2958,"ĠTommy":2959,"Ġfollowing":2960,"Ġapples":2961,"Ġequ":2962,"Ġbecoming":2963,"Ġfinding":2964,"Ġfamous":2965,"Ġlibrary":2966,"Ġbirthday":2967,"ics":2968,"osen":2969,"Ġchosen":2970,"ĠTogether":2971,"let":2972,"Ġdreaming":2973,"Ġpack":2974,"Ġkiss":2975,"Ġrich":2976,"ches":2977,"Ġexplained":2978,"Ġseat":2979,"ushing":2980,"Ġexperienced":2981,"Ġlunch":2982,"cus":2983,"Ġrose":2984,"Ġfierce":2985,"Ġdoctor":2986,"My":2987,"Ġtrust":2988,"Ġelep":2989,"worldly":2990,"Ġflick":2991,"Ġwindows":2992,"Ġstream":2993,"Ġsilence":2994,"Of":2995,"ories":2996,"Ġraced":2997,"Ġwondered":2998,"Ġimmedi":2999,"Ġcute":3000,"Ġtraveled":3001,"Ġrad":3002,"Ġballs":3003,"Ġotherworldly":3004,"Ġenjoying":3005,"Ġteddy":3006,"irt":3007,"Ġlock":3008,"Ġship":3009,"Ġbloom":3010,"Ġmachine":3011,"Ġcray":3012,"Ġcommun":3013,"Ġspotted":3014,"Ġline":3015,"Ġpan":3016,"ization":3017,"Ġtirelessly":3018,"asis":3019,"ho":3020,"Ġpacked":3021,"umber":3022,"Ġunease":3023,"aur":3024,"pect":3025,"Ġtaken":3026,"Ġrainb":3027,"iar":3028,"shing":3029,"Ġcoast":3030,"Ġtelling":3031,"Ġclouds":3032,"Ġapart":3033,"Ġfence":3034,"Ġnet":3035,"ates":3036,"Ġsoci":3037,"ĠAn":3038,"Ġglass":3039,"Ġfighting":3040,"Ġgem":3041,"ĠWhiskers":3042,"Ġturtle":3043,"ments":3044,"ĠCh":3045,"velop":3046,"Ġtranquility":3047,"Ġmer":3048,"Ġmead":3049,"Ġrobot":3050,"ĠThank":3051,"Ġpossible":3052,"Ġmilk":3053,"Ġpattern":3054,"Ġtent":3055,"iration":3056,"Ġgrab":3057,"Ġpocket":3058,"Ġlistening":3059,"Ġpuzz":3060,"ĠBe":3061,"raid":3062,"Ġwandered":3063,"iant":3064,"umpy":3065,"Ġnightm":3066,"Ġtalent":3067,"Ġhistory":3068,"Ġexam":3069,"Ġwrite":3070,"ĠBlue":3071,"Ġoasis":3072,"Ġnaught":3073,"ital":3074,"ena":3075,"Ġgate":3076,"idge":3077,"Ġteach":3078,"Ġcookie":3079,"ĠPeople":3080,"Ġstroll":3081,"Ġgray":3082,"Ġnaughty":3083,"iled":3084,"Ġbalance":3085,"Ġimmediately":3086,"Now":3087,"ding":3088,"ĠMark":3089,"Ġnightmare":3090,"otic":3091,"Ġkingdom":3092,"Ġaccompl":3093,"ider":3094,"ĠBella":3095,"Ġdisappeared":3096,"ening":3097,"Ġembrace":3098,"Ġafraid":3099,"Ġcheered":3100,"ubb":3101,"Ġwhatever":3102,"Ġdeser":3103,"ball":3104,"Ġachie":3105,"Ġfaced":3106,"Ġthinks":3107,"nc":3108,"Ġfra":3109,"Ġelder":3110,"Ġugly":3111,"Ġwouldn":3112,"Ġdev":3113,"Ġprov":3114,"Ġwhispered":3115,"Ġducks":3116,"Ġdrove":3117,"Ġbrill":3118,"ays":3119,"never":3120,"ĠEven":3121,"Ġtwig":3122,"Ġshade":3123,"Ġencountered":3124,"Ġjuice":3125,"Ġclass":3126,"Ġsmoot":3127,"Ġcaut":3128,"Ġcart":3129,"rib":3130,"Ġcontentment":3131,"ĠFred":3132,"Ġevening":3133,"ibilities":3134,"Ġsmooth":3135,"af":3136,"ese":3137,"Ġscen":3138,"Ġdecay":3139,"aze":3140,"Ġpace":3141,"Ġview":3142,"Ġet":3143,"igg":3144,"Ġyear":3145,"Ġforce":3146,"acks":3147,"Ġcliff":3148,"Ġunus":3149,"elly":3150,"Ġelderly":3151,"Ġinf":3152,"ĠMar":3153,"Ġcoin":3154,"Ġwalks":3155,"oof":3156,"ĠLeo":3157,"Ġsent":3158,"Ġbark":3159,"Ġnut":3160,"antly":3161,"Ġrainbow":3162,"nal":3163,"erp":3164,"Ġshimmering":3165,"Ġban":3166,"Ġdat":3167,"Ġhall":3168,"Ġali":3169,"Ġgiven":3170,"und":3171,"Ġtreats":3172,"Jack":3173,"Ġweak":3174,"col":3175,"Ġrocket":3176,"Ġcamp":3177,"Ġsoot":3178,"Ġsearched":3179,"Ġdire":3180,"Ġzoom":3181,"Ġprincess":3182,"Ġdelicate":3183,"Ġordinary":3184,"Ġbrilliant":3185,"Ġgri":3186,"Ġdogs":3187,"Ġmissed":3188,"Ġrolling":3189,"Ġshell":3190,"Ġthemselves":3191,"Ġunusual":3192,"Ġsunlight":3193,"izing":3194,"bble":3195,"Ġstat":3196,"Ġrece":3197,"Ġstruck":3198,"Ġem":3199,"Ġjung":3200,"attered":3201,"Ġlifted":3202,"osy":3203,"Ġtakes":3204,"Ġhealthy":3205,"Ġsplas":3206,"Ġcircle":3207,"Em":3208,"Ġfright":3209,"Lila":3210,"ived":3211,"Ġsust":3212,"Ġnotice":3213,"Ġhealth":3214,"Ġgazing":3215,"isa":3216,"Ġbeha":3217,"Ġintricate":3218,"Ġicy":3219,"Ġcor":3220,"ĠSp":3221,"Ġvol":3222,"mber":3223,"Ġexciting":3224,"Ġtwins":3225,"Ġtraveling":3226,"Ġhang":3227,"Ġdrive":3228,"Ġque":3229,"Ġdig":3230,"ict":3231,"Ġtrans":3232,"Ġelephant":3233,"Ġdirect":3234,"ivil":3235,"Ġwhistle":3236,"Ġfil":3237,"Ġcivil":3238,"Ġsaf":3239,"Ġshelf":3240,"Ġring":3241,"Ġexpan":3242,"work":3243,"Good":3244,"Ġstir":3245,"Ġgrumpy":3246,"Ġimpress":3247,"Ġflashlight":3248,"On":3249,"Ġris":3250,"Ġmanaged":3251,"Ġentire":3252,"Ġobstacles":3253,"Ġbare":3254,"erry":3255,"Ġlif":3256,"Ġdriver":3257,"OK":3258,"for":3259,"Ġmot":3260,"Ġcannot":3261,"Ġmystery":3262,"Ġpleasures":3263,"Ġresponsibility":3264,"Ġdesign":3265,"unk":3266,"Ġboard":3267,"Ġdata":3268,"aly":3269,"Ġbackyard":3270,"Ġbought":3271,"Ġbell":3272,"Ġgreet":3273,"Ġstress":3274,"Ġconfused":3275,"Ġskills":3276,"hood":3277,"zing":3278,"Ġbushes":3279,"Ġill":3280,"lev":3281,"Ġjelly":3282,"Ġstring":3283,"Ġpainted":3284,"ips":3285,"Ġechoed":3286,"ntrigued":3287,"Ġchoose":3288,"Ġmarve":3289,"Ġpuppy":3290,"Ġphone":3291,"Ġsustain":3292,"lter":3293,"Ġexpanse":3294,"ract":3295,"Ġnav":3296,"Ġrude":3297,"Ġshoot":3298,"ĠSt":3299,"aches":3300,"Ġclown":3301,"Ġpee":3302,"Ġharsh":3303,"Ġpit":3304,"Ġears":3305,"Ġshelter":3306,"Ġscience":3307,"Ġhorse":3308,"Ġimagined":3309,"bled":3310,"ops":3311,"ertain":3312,"Ġoverwhelming":3313,"Ġbucket":3314,"Ġcond":3315,"Ġmagn":3316,"Ġacc":3317,"Ġdiversity":3318,"kin":3319,"lies":3320,"Ġocc":3321,"Ġmaybe":3322,"Ġworries":3323,"Ġbeginning":3324,"Ġtemple":3325,"Ġqueen":3326,"ution":3327,"Ġupset":3328,"Ġfeather":3329,"Ġpressed":3330,"Ġinteresting":3331,"Ġsne":3332,"Ġcrisp":3333,"Ġmeaning":3334,"ĠEarth":3335,"ĠMomo":3336,"Ġcultures":3337,"Ġlurking":3338,"cked":3339,"uce":3340,"Ġspun":3341,"Ġcheese":3342,"Ġblow":3343,"iding":3344,"Ġrene":3345,"Ġwriting":3346,"xc":3347,"ential":3348,"Ġspo":3349,"olog":3350,"Ġsweat":3351,"Ġembar":3352,"Ġjewel":3353,"ale":3354,"sm":3355,"Ġdespite":3356,"Ġchased":3357,"ggy":3358,"Ġshut":3359,"Ġeveryday":3360,"Ġhonest":3361,"pack":3362,"tled":3363,"Ġbeck":3364,"Ġglowed":3365,"Ġdrawing":3366,"Ġmemories":3367,"min":3368,"Ġrise":3369,"Ġexist":3370,"Ġlights":3371,"Ġbugs":3372,"Ġhoney":3373,"Ġboss":3374,"Ġpartic":3375,"Ġjog":3376,"Ġport":3377,"ended":3378,"Ġsupp":3379,"Ġinspiration":3380,"Ġcloth":3381,"Ġjungle":3382,"Sure":3383,"Ġwashed":3384,"ĠInst":3385,"Ġhumble":3386,"Ġpursue":3387,"Ġtransported":3388,"Ġsoothing":3389,"Ġoven":3390,"Ġsav":3391,"Ġamong":3392,"ancy":3393,"Ġpreser":3394,"Ġperspect":3395,"Ġproblem":3396,"old":3397,"Ġer":3398,"Ġhosp":3399,"ilt":3400,"Ġhugs":3401,"ivid":3402,"Ġbarely":3403,"How":3404,"St":3405,"line":3406,"ĠLena":3407,"Ġspoon":3408,"Ġcreative":3409,"Ġfinish":3410,"izzy":3411,"Ġmeadow":3412,"Ġintro":3413,"Ġoffer":3414,"Ġdedication":3415,"Ġfrightened":3416,"sure":3417,"Ġnur":3418,"uth":3419,"Ġmeas":3420,"Ġsub":3421,"Ġmirror":3422,"izz":3423,"Ġwinding":3424,"ĠGrand":3425,"ĠHowever":3426,"Ġmaze":3427,"Ġsandw":3428,"Samantha":3429,"Ġmistake":3430,"Ġstretched":3431,"Ġcautiously":3432,"Ġrush":3433,"Ġpray":3434,"Ġcrow":3435,"Ġfaded":3436,"Ġmedic":3437,"Ġamaze":3438,"Ġwelcom":3439,"Ġmeeting":3440,"oop":3441,"Ġsmelly":3442,"Ġphot":3443,"Ġlose":3444,"Ġdeaf":3445,"Ġdrank":3446,"Ġdepths":3447,"Ġthrilled":3448,"urious":3449,"Ġattention":3450,"house":3451,"Ġstranger":3452,"Ġtrud":3453,"Ġdeer":3454,"Ġjud":3455,"Ġshells":3456,"Ġactions":3457,"Ġhiking":3458,"For":3459,"rors":3460,"Ġstatue":3461,"Ġtoug":3462,"Ġpair":3463,"Ġgal":3464,"Ġmarket":3465,"ĠWhether":3466,"Ġdug":3467,"Ġec":3468,"ĠLisa":3469,"ĠMolly":3470,"astic":3471,"angers":3472,"Ġselfish":3473,"Ġhospital":3474,"Ġdish":3475,"ature":3476,"Ġhelpful":3477,"udd":3478,"Ġbeak":3479,"Ġrelax":3480,"Ġsinister":3481,"Ġmelo":3482,"'ve":3483,"uable":3484,"Ġpassing":3485,"Ġsearch":3486,"Ġbanan":3487,"Ġlad":3488,"Ġspin":3489,"zed":3490,"ĠU":3491,"Ġwha":3492,"Ġwing":3493,"idy":3494,"Ġwheel":3495,"Ġseashe":3496,"Ġetched":3497,"Soon":3498,"cope":3499,"Ġcompet":3500,"Ġjournal":3501,"Ġrefused":3502,"Ġdancing":3503,"Ġinha":3504,"Ġcherish":3505,"Ġalley":3506,"Ġtruth":3507,"Ġspeak":3508,"Ġgalax":3509,"ĠIntrigued":3510,"Ġweight":3511,"iliar":3512,"Ġchallenge":3513,"oomy":3514,"Ġcomplex":3515,"Ġdestination":3516,"Later":3517,"oss":3518,"Ġpossibilities":3519,"Ġsnowman":3520,"Ġmemory":3521,"Ġtrouble":3522,"Ġgreeted":3523,"Ġseem":3524,"Ġthroughout":3525,"Ġcivilization":3526,"Ġment":3527,"Ġshape":3528,"ray":3529,"Ġpay":3530,"Ġrough":3531,"htaking":3532,"Ġprecious":3533,"cond":3534,"Ġclever":3535,"Ġbreathtaking":3536,"Hey":3537,"Ġcreaked":3538,"ĠAnn":3539,"ĠInstead":3540,"Ġtrudged":3541,"ĠAl":3542,"Ġcheer":3543,"Ġmidst":3544,"Ġpointed":3545,"ĠSometimes":3546,"Ġske":3547,"Ġbak":3548,"Ġfancy":3549,"Ġmass":3550,"Ġasking":3551,"Ġsock":3552,"de":3553,"Ġfact":3554,"Ġentr":3555,"Ġinvited":3556,"Ġfruits":3557,"Ġcommunic":3558,"xcited":3559,"Ġamazement":3560,"ps":3561,"Ġbelonged":3562,"Ġastronomy":3563,"ional":3564,"Ġsurv":3565,"Ġstudied":3566,"Ġinspire":3567,"Ġsleepy":3568,"Ġhunt":3569,"Ġtomorrow":3570,"Eventually":3571,"io":3572,"Ġinj":3573,"ĠBird":3574,"Ġfeed":3575,"Ġgrace":3576,"Ġmod":3577,"Ġdread":3578,"ormal":3579,"Ġladder":3580,"Ġfa":3581,"Ġpul":3582,"Ġweather":3583,"Ġshirt":3584,"Ġlemon":3585,"Ġcob":3586,"andy":3587,"Ġjumping":3588,"Ġsurrounds":3589,"Ġaction":3590,"Ġvaluable":3591,"inted":3592,"Ġmed":3593,"There":3594,"ustr":3595,"Ġperform":3596,"Ġtun":3597,"Ġmelt":3598,"alley":3599,"Ġartist":3600,"Ġdestro":3601,"Ġneighbor":3602,"ipping":3603,"Ġform":3604,"Ġguit":3605,"Ġlocked":3606,"Ġwitch":3607,"ĠRemy":3608,"itter":3609,"Ġvalley":3610,"joyed":3611,"hys":3612,"Ġlamp":3613,"Ġphys":3614,"Ġtreacher":3615,"Ġsword":3616,"Ġsticks":3617,"Ġsparkling":3618,"Ġtreacherous":3619,"Ġsna":3620,"Ġsecond":3621,"Ġgrown":3622,"umbling":3623,"Ġbuilt":3624,"ĠOllie":3625,"Inside":3626,"Ġmessy":3627,"Ġburst":3628,"Ġterrible":3629,"Ġalien":3630,"Ġheat":3631,"Ġsplash":3632,"book":3633,"eling":3634,"Ġzoo":3635,"Ġrug":3636,"ĠWill":3637,"ĠElla":3638,"Ġadd":3639,"Ġchar":3640,"Ġchamber":3641,"Ġbott":3642,"Ġrusted":3643,"Ġguitar":3644,"Ġthirst":3645,"ĠLuna":3646,"Ġseeking":3647,"Ġwarning":3648,"Ġcobwe":3649,"duc":3650,"nces":3651,"Ġomin":3652,"Ġsunset":3653,"Ġominous":3654,"oppy":3655,"Ġchasing":3656,"Ġgiving":3657,"Ġspray":3658,"Ġvanished":3659,"Ġanaly":3660,"Ġador":3661,"Ġchick":3662,"Ġfreshly":3663,"rove":3664,"Ġcraw":3665,"Ġsights":3666,"Ġghostly":3667,"une":3668,"Ġwake":3669,"Ġstun":3670,"Ġintell":3671,"Ġthoughts":3672,"Ġbrighter":3673,"do":3674,"la":3675,"Ġenchant":3676,"Come":3677,"Ġwrap":3678,"int":3679,"Ġreaching":3680,"Ġsmiling":3681,"Ġdaddy":3682,"Ġbravery":3683,"Ġcolle":3684,"Ġtough":3685,"Ġbound":3686,"Ġforests":3687,"Ġcrashing":3688,"irpy":3689,"Ġstruggled":3690,"Ġveget":3691,"ceed":3692,"Ġpoor":3693,"Ġaftern":3694,"Ġpoured":3695,"Ġreceived":3696,"pe":3697,"ouch":3698,"Ġweal":3699,"Ġsell":3700,"Ġworm":3701,"Ġcrun":3702,"aughter":3703,"Ġgazed":3704,"Ġtape":3705,"Ġengine":3706,"Ġapartment":3707,"apping":3708,"ĠTh":3709,"Ġnormal":3710,"ĠCat":3711,"Ġforgive":3712,"Ġincl":3713,"Ġtechnology":3714,"Ġpin":3715,"Ġeman":3716,"Ġdecor":3717,"Ġdolphin":3718,"llo":3719,"Ġwearing":3720,"Ġspicy":3721,"Ġovercome":3722,"Ġjoined":3723,"Ġpersist":3724,"Ġnestled":3725,"Ġleading":3726,"Ġgranted":3727,"Sally":3728,"ior":3729,"rough":3730,"Ġfurry":3731,"Ġhesitated":3732,"Ġsuccessful":3733,"mother":3734,"Ġrevealing":3735,"Ġfrag":3736,"ef":3737,"arled":3738,"onnect":3739,"Ġnowhere":3740,"Ġgoat":3741,"Ġcaterp":3742,"Ġsmelled":3743,"Ġhung":3744,"Ġpaw":3745,"Ġprince":3746,"Ġcelebrate":3747,"Ġcaterpill":3748,"yl":3749,"ĠSome":3750,"Ġroof":3751,"Ġloomed":3752,"Ġability":3753,"Ġscene":3754,"Ġtidy":3755,"Ġseal":3756,"ums":3757,"Ġvisited":3758,"Ġpaid":3759,"Ġtunne":3760,"Ġbase":3761,"unities":3762,"ume":3763,"Ġknocked":3764,"Ġpretended":3765,"Ġsociety":3766,"Ġintellig":3767,"era":3768,"Ġlush":3769,"Ġdressed":3770,"Ġobserving":3771,"Ġsafety":3772,"Ġcam":3773,"Ġdaughter":3774,"ĠEach":3775,"Ġgives":3776,"Ġanswer":3777,"Ġknife":3778,"Ġcreated":3779,"ĠCome":3780,"?âĢĿ":3781,"Ġwand":3782,"Ġhom":3783,"Ġspider":3784,"Ġshift":3785,"olent":3786,"Ġfigures":3787,"Ġforgotten":3788,"Ġopportunities":3789,"Ġmis":3790,"Ġpure":3791,"Ġdesc":3792,"Ġbuildings":3793,"Ġspring":3794,"Ġbounc":3795,"Ġchase":3796,"box":3797,"Ġclaws":3798,"Ġprior":3799,"Ġwitness":3800,"Ġevil":3801,"Ġpuzzle":3802,"Ġtie":3803,"Ġfake":3804,"vers":3805,"Ġartifacts":3806,"Ġparticular":3807,"Ġchat":3808,"Ġstones":3809,"Ġsheep":3810,"ugar":3811,"Ġwondering":3812,"Ġbags":3813,"Ġdestroy":3814,"pes":3815,"ina":3816,"its":3817,"Ġgigg":3818,"Ġcomb":3819,"Ġcleaned":3820,"Ġdelight":3821,"Ġwhenever":3822,"Ġsucceed":3823,"ĠChirpy":3824,"Ġinse":3825,"Ġcosm":3826,"Ġbreathe":3827,"Ġwrote":3828,"ĠDaddy":3829,"Ġplate":3830,"Ġthreat":3831,"Ġmetal":3832,"Ġperse":3833,"Ġvastness":3834,"Ġsailor":3835,"Ġurge":3836,"Ġaccepted":3837,"Ġrenewed":3838,"Ġcage":3839,"ision":3840,"Ġgun":3841,"Ġshone":3842,"etermined":3843,"Ġtasted":3844,"Ġconnected":3845,"Ġdeserted":3846,"Ġcaterpillar":3847,"ĠTV":3848,"Ġthri":3849,"Ġbackwards":3850,"Ġbreathing":3851,"Ġcrash":3852,"Ġprint":3853,"Ġrelieved":3854,"Ġpillow":3855,"aut":3856,"yal":3857,"Ġfan":3858,"acy":3859,"rick":3860,"ĠHere":3861,"Ġanx":3862,"Ġstarting":3863,"Ġyourself":3864,"ĠDucky":3865,"Ġcrack":3866,"issors":3867,"oons":3868,"Ġsugar":3869,"inal":3870,"Ġreward":3871,"Ġresil":3872,"Ġnumber":3873,"Ġreality":3874,"Ġsteps":3875,"Ġexperiment":3876,"Ġwra":3877,"Ġgn":3878,"ĠIf":3879,"eles":3880,"Ġputs":3881,"ĠRose":3882,"Ġwhispering":3883,"Ġventured":3884,"ives":3885,"off":3886,"vie":3887,"ative":3888,"Ġscissors":3889,"Ġgoes":3890,"Ġgoal":3891,"Ġenorm":3892,"Ġbossy":3893,"Ġtext":3894,"Ġteles":3895,"elp":3896,"Ġscar":3897,"Ġoverjoyed":3898,"Ġlovely":3899,"Ġunderstood":3900,"nival":3901,"Ġrocky":3902,"Ġsince":3903,"Ġpenc":3904,"irts":3905,"Ġproject":3906,"ensive":3907,"Together":3908,"Ġgasped":3909,"izza":3910,"Ġshelves":3911,"Ġsold":3912,"Ġexh":3913,"Ġcarnival":3914,"ĠBenny":3915,"Ġpicn":3916,"Ġbusiness":3917,"Ġmatch":3918,"Ġpencil":3919,"ky":3920,"Ġmen":3921,"Ġrag":3922,"Ġshort":3923,"Ġroar":3924,"Ġfocus":3925,"Ġsurroundings":3926,"hyth":3927,"Ġdedicated":3928,"Ġcouch":3929,"Ġlazy":3930,"Ġglitt":3931,"Ġgrandmother":3932,"Ġstairs":3933,"ĠMaria":3934,"Emily":3935,"uries":3936,"Ġresour":3937,"Ġprotecting":3938,"Ġbottom":3939,"Ġfather":3940,"Ġrot":3941,"osaur":3942,"Ġdiscoveries":3943,"Ġsolve":3944,"Ġmixed":3945,"Ġsnacks":3946,"Ġmaj":3947,"Ġsever":3948,"Ġbridge":3949,"Ġpale":3950,"Ġpotential":3951,"Ġcirc":3952,"Kitty":3953,"Ġclock":3954,"Ġunc":3955,"azor":3956,"Ġglue":3957,"Ġdesk":3958,"Ġdinosaur":3959,"Ġbounce":3960,"Ġcrayons":3961,"Ġseveral":3962,"Ġexotic":3963,"Ġoverhead":3964,"Ġdispl":3965,"Ġburied":3966,"Ġsquare":3967,"Ġneckl":3968,"Ġcompassionate":3969,"Ġhorn":3970,"Ġrhyth":3971,"Ġdrum":3972,"Ġhappening":3973,"Ġspells":3974,"flowers":3975,"Ġentrance":3976,"Ġtor":3977,"Ġrum":3978,"ically":3979,"Ġflag":3980,"Ġhorror":3981,"ĠDoggy":3982,"Ġweek":3983,"Ġeffort":3984,"looking":3985,"mosp":3986,"Ġpir":3987,"amond":3988,"ĠBunny":3989,"Ġatmosp":3990,"Ġspecies":3991,"Ġsuper":3992,"ables":3993,"Ġatmosphere":3994,"Ġpushing":3995,"ishing":3996,"Ġsettled":3997,"Ġchew":3998,"Ġvoices":3999,"Ġsilver":4000,"Ġscrat":4001,"gs":4002,"under":4003,"Ġfool":4004,"Ġdet":4005,"Ġfriendship":4006,"Ġdiamond":4007,"Ġwishes":4008,"Ġmuse":4009,"Ġasyl":4010,"Ġorig":4011,"Ġneeds":4012,"Ġresc":4013,"ĠGrandma":4014,"Ġgnarled":4015,"Ġasylum":4016,"Ġsort":4017,"itions":4018,"ats":4019,"Ġthro":4020,"ĠBr":4021,"Ġmoder":4022,"ophy":4023,"Ġyelled":4024,"ĠâĢĵ":4025,"Ġrecord":4026,"Ġorganized":4027,"ĠJenny":4028,"Ġwhale":4029,"Ġpriorit":4030,"Ġenormous":4031,"fall":4032,"Ġtask":4033,"Ġrazor":4034,"bbles":4035,"ushroom":4036,"Ġembark":4037,"Ġlunged":4038,"Ġspirits":4039,"Ġfisher":4040,"Ġmedicine":4041,"Ġfoolish":4042,"Help":4043,"case":4044,"Ġpizza":4045,"urb":4046,"ĠBy":4047,"Ġouts":4048,"ĠWhy":4049,"ĠGo":4050,"Ġprize":4051,"Ġwelcomed":4052,"Ġmodern":4053,"shed":4054,"Ġants":4055,"Ġrealm":4056,"Ġdoors":4057,"Ġhorrors":4058,"Ġpaintings":4059,"Ġrelief":4060,"Ġsplashed":4061,"Ġtick":4062,"hamed":4063,"Ġashamed":4064,"Ġexpensive":4065,"Ġfrustr":4066,"Ġwritten":4067,"Ġcompletely":4068,"veloped":4069,"Ġsustainable":4070,"ooked":4071,"Ġkicked":4072,"Ġcarrot":4073,"Ġwooden":4074,"Ġplanets":4075,"Ġsurrounding":4076,"Ġstretch":4077,"Ġstrive":4078,"Ġaccomplish":4079,"Determined":4080,"lt":4081,"Ġwip":4082,"Ġdizzy":4083,"Ġplayful":4084,"unes":4085,"Ġloyal":4086,"Ġquite":4087,"Ġcandle":4088,"Ġstruggling":4089,"Ġloves":4090,"Ġrefre":4091,"Ġfinger":4092,"fish":4093,"Ġbake":4094,"Ġpump":4095,"Ġhello":4096,"Ġinn":4097,"ĠJerry":4098,"Ġcarrying":4099,"Ġfishing":4100,"Ġcosmos":4101,"fied":4102,"store":4103,"Ġyog":4104,"aser":4105,"Ġpride":4106,"Ġregular":4107,"Ġpersever":4108,"Mary":4109,"Ġbookstore":4110,"Ġcompany":4111,"Ġbrightly":4112,"Ġbarn":4113,"Ġproblems":4114,"ĠMama":4115,"Ġboot":4116,"Ġlean":4117,"aky":4118,"Ġfalling":4119,"Ġsensation":4120,"Ġgrip":4121,"Ġmushroom":4122,"Ġhalls":4123,"umin":4124,"Ġcloset":4125,"unte":4126,"Ġwildflowers":4127,"Ġvolunte":4128,"Stop":4129,"Ġstunning":4130,"Ġdisplay":4131,"Ġsig":4132,"Ġsuff":4133,"Ġfought":4134,"Ġbackpack":4135,"ĠJim":4136,"mbling":4137,"Ġtries":4138,"Ġmeans":4139,"Ġtowel":4140,"Ġnecklace":4141,"Ġ3":4142,"Ġsle":4143,"Ġcost":4144,"Ġswan":4145,"ipher":4146,"shine":4147,"Ġmalev":4148,"Ġtomato":4149,"Ġrhythm":4150,"Ġhalf":4151,"Ġbrings":4152,"ĠJill":4153,"Ġcontro":4154,"Ġsets":4155,"Ġsnap":4156,"Ġsilent":4157,"Ġjeep":4158,"Ġsalty":4159,"Ġquestions":4160,"Ġmeasure":4161,"Ġafternoon":4162,"ready":4163,"ĠTiny":4164,"Ġalready":4165,"Ġattract":4166,"Ġescap":4167,"icing":4168,"Ġweird":4169,"usting":4170,"Ġnoisy":4171,"ucked":4172,"Ġfilling":4173,"Ġattic":4174,"Ġbelieved":4175,"Ġthroat":4176,"Ġstillness":4177,"Ġreminding":4178,"Ġfroze":4179,"Ġsailed":4180,"Ġcomfortable":4181,"Ġscientists":4182,"Ġachieve":4183,"Ġembarra":4184,"Ġpicnic":4185,"Ġglittering":4186,"Ġboring":4187,"Ġcro":4188,"ither":4189,"Ġbean":4190,"Ġjoke":4191,"Ġemanating":4192,"Ġpier":4193,"Ġpicking":4194,"ĠBobby":4195,"Ġshoulder":4196,"ĠToday":4197,"Ġpopular":4198,"Ġfragile":4199,"pa":4200,"Ġasleep":4201,"Ġmeal":4202,"tered":4203,"agg":4204,"Ġarea":4205,"Ġexploration":4206,"Ġgrowl":4207,"Ġthankful":4208,"Ġastronaut":4209,"Ġillumin":4210,"Ġinhabit":4211,"aff":4212,"cha":4213,"ipp":4214,"Ġstage":4215,"Ġleather":4216,"Ġclay":4217,"Ġcursed":4218,"Ġscare":4219,"Ġsunshine":4220,"Ġdecipher":4221,"Ġdifferences":4222,"Ġquickened":4223,"Ġeggs":4224,"Ġchocol":4225,"oved":4226,"oted":4227,"Ġevent":4228,"Ġrushed":4229,"ustom":4230,"Ġsmaller":4231,"Ġdisturb":4232,"Ġmusty":4233,"Ġvision":4234,"Ġhaunted":4235,"Ġtricks":4236,"Ġinsect":4237,"Ġforth":4238,"Ġwrit":4239,"Ġsystem":4240,"Sophia":4241,"Ġnotebook":4242,"Ġsandwich":4243,"Ġdisc":4244,"Ġsteal":4245,"Ġreminds":4246,"Ġrecognize":4247,"Ġseashells":4248,"Ġcontrol":4249,"atory":4250,"Ġsmoke":4251,"Ġremain":4252,"ĠCurious":4253,"Ġgasping":4254,"Ġanalyzing":4255,"Every":4256,"kirts":4257,"Ġmill":4258,"Ġcreaking":4259,"berry":4260,"Ġstraw":4261,"osystem":4262,"Ġecosystem":4263,"Ġoutskirts":4264,"rene":4265,"Ġcustom":4266,"Ġunf":4267,"Ġtrunk":4268,"Ġappreciation":4269,"Ġlessons":4270,"Ġmelody":4271,"Ġmajest":4272,"Ġfountain":4273,"Ġkick":4274,"Ġtrap":4275,"Ġuseful":4276,"Ġchocolate":4277,"Ġcem":4278,"Ġdove":4279,"Ġworlds":4280,"Ġpear":4281,"Ġgrot":4282,"ĠEventually":4283,"iable":4284,"etery":4285,"Ġspeed":4286,"Ġpolite":4287,"Ġflickering":4288,"Ġbakery":4289,"Ġcemetery":4290,"ret":4291,"itch":4292,"Ġrustle":4293,"Ġthunder":4294,"Ġjam":4295,"Ġsurge":4296,"Ġcharm":4297,"ervation":4298,"ĠRex":4299,"Ġprioritize":4300,"ee":4301,"uel":4302,"Ġsque":4303,"Ġclimbing":4304,"being":4305,"Ġlegacy":4306,"comfort":4307,"Ġoverwhelmed":4308,"Ġnavigate":4309,"night":4310,"Ġmast":4311,"Ġmuff":4312,"Ġhike":4313,"idst":4314,"Ġstared":4315,"Ġrout":4316,"Ġbackground":4317,"Ġdisg":4318,"Ġcrawl":4319,"Ġefforts":4320,"Ġscientific":4321,"mit":4322,"Ġmask":4323,"Ġstom":4324,"ĠLife":4325,"Ġvict":4326,"Ġshowing":4327,"ĠPlease":4328,"Ġgenerous":4329,"Ġstruggles":4330,"Ġcheerful":4331,"ĠOnce":4332,"Ġstuff":4333,"Ġfort":4334,"Ġsoap":4335,"Ġvase":4336,"Ġshaking":4337,"Ġextra":4338,"Ġoccas":4339,"ph":4340,"imate":4341,"Ġbeast":4342,"Ġseren":4343,"Ġintrigued":4344,"Ġgreater":4345,"Ġsteak":4346,"anced":4347,"Ġdolphins":4348,"Ġgraveyard":4349,"Ġpatterns":4350,"aggie":4351,"Ġserenity":4352,"inct":4353,"enny":4354,"Ġgro":4355,"esque":4356,"utes":4357,"eping":4358,"Ġpress":4359,"Ġmusician":4360,"Ġscarf":4361,"Ġgrotesque":4362,"ially":4363,"Ġgained":4364,"ĠBu":4365,"ĠBear":4366,"Ġclosing":4367,"Ġdesper":4368,"cream":4369,"ĠNo":4370,"Ġpotato":4371,"Ġconstantly":4372,"Ġenchanted":4373,"het":4374,"Ġcries":4375,"Ġtwink":4376,"Ġpracticed":4377,"Ġhaunting":4378,"Ġseeds":4379,"Ġber":4380,"Ġang":4381,"Ġhelpless":4382,"Ġvines":4383,"Tommy":4384,"Ġsuit":4385,"Ġrepair":4386,"Ġshadowy":4387,"Ġcrowd":4388,"Ġtunnel":4389,"Ġberries":4390,"Ġjol":4391,"Ġrealize":4392,"ĠDon":4393,"ĠAndy":4394,"body":4395,"Ġpaws":4396,"Ġcenturies":4397,"upid":4398,"Ġmalevolent":4399,"Ġrul":4400,"Ġsaying":4401,"Ġshark":4402,"Ġtelescope":4403,"bre":4404,"agull":4405,"Ġcrown":4406,"Ġguide":4407,"Ġmissing":4408,"Ġemot":4409,"Ġhomes":4410,"Ġfrustrated":4411,"uing":4412,"Ġow":4413,"Ġdull":4414,"Ġgoose":4415,"Ġago":4416,"Ġbedroom":4417,"Ġinspiring":4418,"Ġlegend":4419,"Ġtightly":4420,"nit":4421,"Ġbored":4422,"Ġbitter":4423,"rer":4424,"Ġfat":4425,"Ġluck":4426,"Ġpil":4427,"Ġorder":4428,"Ġsounded":4429,"Ġbringing":4430,"Ġcrawled":4431,"Ġvegetables":4432,"now":4433,"hest":4434,"Ġbul":4435,"erness":4436,"illed":4437,"Ġexplain":4438,"Ġcreativity":4439,"Ġharder":4440,"Ġchallenging":4441,"Ġshoe":4442,"Ġfallen":4443,"Ġcamera":4444,"stri":4445,"Ġimm":4446,"Ġgaze":4447,"Ġfactory":4448,"ov":4449,"ado":4450,"Ġallow":4451,"Ġclap":4452,"Ġknight":4453,"Ġsingle":4454,"Ġwilderness":4455,"Ġwisdom":4456,"Ġmental":4457,"corn":4458,"Ġsway":4459,"rep":4460,"Ġpage":4461,"Ġstupid":4462,"Ġrestless":4463,"Ġcommon":4464,"Ġvalue":4465,"Ġdirection":4466,"Ġjudge":4467,"Ġoak":4468,"Ġoffice":4469,"âĢľ":4470,"Ġslipped":4471,"Ġmighty":4472,"Ġhumans":4473,"Ġdimly":4474,"Ġaccident":4475,"Ġintroduc":4476,"Ġwrapped":4477,"ced":4478,"Ġfine":4479,"ilar":4480,"opus":4481,"ctopus":4482,"Ġsorce":4483,"Ġwagon":4484,"Ġsalad":4485,"Ġminutes":4486,"Ġignore":4487,"gest":4488,"Ġdamp":4489,"Ġmoms":4490,"rain":4491,"Ġallowed":4492,"robe":4493,"Ġorn":4494,"Ġinhabitants":4495,"dd":4496,"Ġtoes":4497,"Ġprop":4498,"azz":4499,"Ġindivid":4500,"Ġjewels":4501,"Ġperspective":4502,"Ġstomach":4503,"Dad":4504,"Ġmic":4505,"Ġpor":4506,"Ġhearts":4507,"Ġgreatest":4508,"place":4509,"Ġbald":4510,"Ġeagerly":4511,"Ġfacing":4512,"Ġlined":4513,"ising":4514,"ison":4515,"Ġgust":4516,"ĠMany":4517,"epend":4518,"ĠSammy":4519,"Ġremote":4520,"Ġsatis":4521,"Ġeffect":4522,"Ġbanana":4523,"Ġdisgusting":4524,"cy":4525,"Ġtag":4526,"Ġsending":4527,"edient":4528,"Ġble":4529,"Ġbees":4530,"Ġtrembling":4531,"Ġseeing":4532,"Ġuncomfort":4533,"Ġsomewhere":4534,"Ġgrasp":4535,"Ġhandle":4536,"Ġideas":4537,"Ġscreen":4538,"Ġguardian":4539,"Ġmassive":4540,"Ġmuseum":4541,"ti":4542,"ule":4543,"Ġtig":4544,"Ġhous":4545,"stig":4546,"eless":4547,"Ġpeered":4548,"Ġpebble":4549,"Ġprestig":4550,"Ġadmiring":4551,"itation":4552,"Ġoctopus":4553,"Ġpal":4554,"Ġgain":4555,"ality":4556,"ading":4557,"raft":4558,"Ġhelps":4559,"Ġfears":4560,"Ġabilities":4561,"Ġconvers":4562,"Ġwaters":4563,"Ġcareer":4564,"Ġoriginal":4565,"ĠBrown":4566,"alous":4567,"Ġserene":4568,"Ġrooms":4569,"Ġstormy":4570,"Ġcleaning":4571,"Ġscientist":4572,"Ġtroubled":4573,"Ġmelon":4574,"'d":4575,"Ġbones":4576,"orry":4577,"Ġhay":4578,"Ġcats":4579,"Ġamb":4580,"Ġobedient":4581,"Ġenth":4582,"Ġpulling":4583,"Ġcommunicate":4584,"Ġuncomfortable":4585,"Ġprestigious":4586,"fast":4587,"Ġbeings":4588,"Timmy":4589,"Ġcomput":4590,"Ġdeliver":4591,"Ġdriving":4592,"Ġjealous":4593,"Ġdepend":4594,"sc":4595,"tain":4596,"water":4597,"Ġpolice":4598,"Here":4599,"Ġwheat":4600,"Ġshroud":4601,"Ġanxious":4602,"Ġresilience":4603,"Ġpumpkin":4604,"nat":4605,"ĠWhile":4606,"Ġclosely":4607,"Ġnuts":4608,"Ġportal":4609,"Ġtied":4610,"Ġduring":4611,"Ġdangers":4612,"idence":4613,"Ġdef":4614,"Ġthoughtful":4615,"Ġcontrib":4616,"Ġenter":4617,"Ġwinter":4618,"Ġlively":4619,"Ġencounter":4620,"etime":4621,"Their":4622,"Ġlaw":4623,"Ġknows":4624,"Ġwaterfall":4625,"Ġending":4626,"Ġheaded":4627,"Ġsquash":4628,"Ġfurnit":4629,"Ġparrot":4630,"Ġpopcorn":4631,"Ġfurniture":4632,"Jane":4633,"table":4634,"Ġgar":4635,"imed":4636,"igor":4637,"Ġstaff":4638,"Ġroots":4639,"usi":4640,"Ġnovel":4641,"Ġshows":4642,"Ġhairs":4643,"Ġhumanity":4644,"Ġindepend":4645,"Ġchicken":4646,"Ġbulb":4647,"Ġenthusi":4648,"Ġtapping":4649,"Ġrat":4650,"ships":4651,"Ġguess":4652,"Ġadmire":4653,"Ġadvoc":4654,"ĠSomething":4655,"Ġess":4656,"Ġaunt":4657,"Ġnar":4658,"using":4659,"Ġchant":4660,"angle":4661,"Ġexperiments":4662,"breaking":4663,"Ġbatter":4664,"aming":4665,"Ġlightning":4666,"Ġgloomy":4667,"Ġcrazy":4668,"Ġcobwebs":4669,"Ġresources":4670,"cing":4671,"paced":4672,"Ġcours":4673,"Ġdem":4674,"Ġpost":4675,"ĠOver":4676,"Ġpoint":4677,"Ġcrossed":4678,"flower":4679,"Ġspoiled":4680,"Ġhouses":4681,"Re":4682,"rots":4683,"Ġtucked":4684,"Ġhears":4685,"Ġine":4686,"Ġbiggest":4687,"ĠMay":4688,"Ġfold":4689,"Ġpoll":4690,"ĠCar":4691,"Ġbreathed":4692,"Ġjellyfish":4693,"Ġmarveling":4694,"Ġintelligent":4695,"care":4696,"Ġing":4697,"Ġcop":4698,"Ġlat":4699,"Ġpalm":4700,"ĠTr":4701,"umed":4702,"ief":4703,"Ġamidst":4704,"Ġtears":4705,"Ġgroundbreaking":4706,"maid":4707,"Ġcrept":4708,"Ġconduc":4709,"Ġdetail":4710,"Ġembarrassed":4711,"Ġtiger":4712,"Are":4713,"Ġstubb":4714,"Ġseagull":4715,"Ġspac":4716,"usted":4717,"Ġcoins":4718,"Ġexpress":4719,"Ġunsure":4720,"ĠCl":4721,"Ġcheap":4722,"Ġrespected":4723,"Ġfinal":4724,"Ġjolt":4725,"Ġcomputer":4726,"Ġstubborn":4727,"zard":4728,"Ġdart":4729,"Ġpine":4730,"Ġstation":4731,"Ġbrace":4732,"Ġsunflower":4733,"Ġstruct":4734,"Ġwilling":4735,"Ġacorn":4736,"Ġloudly":4737,"ĠPoppy":4738,"Ġsteep":4739,"Ġencoura":4740,"Ġconservation":4741,"Ġreflection":4742,"Ġequip":4743,"Ġmermaid":4744,"Ġstrolled":4745,"Ġescaped":4746,"Ġintroduced":4747,"Ġtattered":4748,"Ġumb":4749,"Ġmovie":4750,"Ġwherever":4751,"athy":4752,"Ġsafely":4753,"Ġpasta":4754,"Ġlungs":4755,"Ġaware":4756,"Ġsnee":4757,"Ġequipment":4758,"Ġumbre":4759,"iving":4760,"tling":4761,"Ġ'":4762,"Ġage":4763,"Ġlooming":4764,"Ġcoco":4765,"Ġcarrots":4766,"Ġimagining":4767,"Ġpaused":4768,"Ġsalt":4769,"Ġdiary":4770,"Ġwealthy":4771,"Ġnarrow":4772,"bl":4773,"Ġinvent":4774,"Ġspaces":4775,"Ġexha":4776,"Ġcompl":4777,"Ġlarger":4778,"Ġfeathers":4779,"Ġpreserve":4780,"Ġnurse":4781,"umsy":4782,"Ġindependent":4783,"xible":4784,"Ġhats":4785,"Ġlizard":4786,"Ġreef":4787,"ĠMaggie":4788,"ecraft":4789,"Ġoutdo":4790,"Ġtrack":4791,"Ġbegin":4792,"Ġsettle":4793,"Ġinjured":4794,"Ġspacecraft":4795,"lass":4796,"Ġcush":4797,"iling":4798,"Ġleap":4799,"Ġchur":4800,"Ġfrown":4801,"brush":4802,"Ġprotector":4803,"Ġmindful":4804,"Ġpaths":4805,"Ġeduc":4806,"Ġexamined":4807,"Ġoccasional":4808,"ĠSunny":4809,"Ġstamp":4810,"opard":4811,"Ġfluffy":4812,"Ġimprove":4813,"Ġtells":4814,"Ġharmless":4815,"Ġhanging":4816,"uddled":4817,"Ġporch":4818,"Ġcone":4819,"icip":4820,"agers":4821,"Ġscale":4822,"Ġforebo":4823,"Ġwolves":4824,"Ġnights":4825,"Ġprepared":4826,"Ġprovide":4827,"Ġforeboding":4828,"aw":4829,"mpt":4830,"rs":4831,"Ġtoast":4832,"Ġtomb":4833,"keep":4834,"Ġtracks":4835,"though":4836,"Ġterrain":4837,"Ġanticip":4838,"Ġdisappear":4839,"Ġshooting":4840,"cast":4841,"port":4842,"Ġelect":4843,"Ġclumsy":4844,"Ġflour":4845,"Ġkinds":4846,"Ġletting":4847,"Ġfamiliar":4848,"Ġglimp":4849,"Ġkeeping":4850,"Ġraven":4851,"Ġtripped":4852,"Ġmarch":4853,"Ġventure":4854,"Ġbeckoned":4855,"If":4856,"Sorry":4857,"wal":4858,"Ġcal":4859,"ament":4860,"Ġcollap":4861,"Ġhairy":4862,"Ġpenny":4863,"Ġanswered":4864,"However":4865,"zen":4866,"Ġfest":4867,"Ġlim":4868,"Ġpause":4869,"Ġjack":4870,"apid":4871,"Ġturning":4872,"Ġframe":4873,"Ġpicks":4874,"Ġbehave":4875,"Ġthirsty":4876,"Excited":4877,"Where":4878,"rid":4879,"Ġbrick":4880,"fted":4881,"Ġyours":4882,"Ġchess":4883,"Ġdesire":4884,"ĠPeter":4885,"Ġstove":4886,"Ġsigns":4887,"ificant":4888,"Who":4889,"arn":4890,"illa":4891,"Ġrode":4892,"Ġadded":4893,"Ġhose":4894,"Ġbubbles":4895,"Ġboats":4896,"Ġtaller":4897,"Ġserious":4898,"Ġshrouded":4899,"cused":4900,"Ġfreed":4901,"ently":4902,"Ġlie":4903,"Ġexpect":4904,"apers":4905,"Ġblind":4906,"Ġfocused":4907,"Ġwildest":4908,"Ġpractice":4909,"Ġquestion":4910,"Ġflexible":4911,"Ġmotor":4912,"onnected":4913,"Molly":4914,"Ġdough":4915,"Ġplastic":4916,"aghet":4917,"Ġcase":4918,"Ġvar":4919,"Ġboys":4920,"Ġfireplace":4921,"Ġcrystals":4922,"Ġpossess":4923,"Ġpige":4924,"Ġbathroom":4925,"Ġpanic":4926,"Ġsighed":4927,"aghetti":4928,"Days":4929,"Ġty":4930,"Ġsink":4931,"Ġdive":4932,"Ġling":4933,"Ġund":4934,"Ġshine":4935,"umn":4936,"Ġunable":4937,"Ġoceans":4938,"weet":4939,"Ġconstant":4940,"Ġfulfillment":4941,"ĠYour":4942,"Ġcrayon":4943,"Ġpersistent":4944,"Ġoutdoors":4945,"glass":4946,"lm":4947,"Ġarom":4948,"Ġsend":4949,"cod":4950,"Ġturkey":4951,"Ġraft":4952,"Ġbaked":4953,"Ġmailbox":4954,"Ġcharming":4955,"Ġiron":4956,"Ġsorts":4957,"Ġneg":4958,"Ġjug":4959,"Ġapproach":4960,"Ġwhether":4961,"Ġrustled":4962,"Ġradio":4963,"Ġmagnific":4964,"natural":4965,"Ġspaghetti":4966,"Ġclub":4967,"Ġquit":4968,"Ġjoys":4969,"Ġcorners":4970,"Ġbarber":4971,"Ġtorn":4972,"Ġinnov":4973,"Ġsquee":4974,"gress":4975,"itable":4976,"esh":4977,"esmer":4978,"Ġgoals":4979,"Ġknee":4980,"Ġenvel":4981,"Ġrestore":4982,"Ġruined":4983,"Ġcurtain":4984,"Ġrusty":4985,"Ġimpressive":4986,"Ġstresses":4987,"Ġrescue":4988,"Ġumbrella":4989,"Ġenvelope":4990,"Ġeter":4991,"Ġweap":4992,"ĠAm":4993,"Ġleopard":4994,"Ġknock":4995,"Ġenveloped":4996,"Ġskipped":4997,"ĠEverywhere":4998,"Ġbreakfast":4999,"Ġpracticing":5000,"Ġaccomplishment":5001,"Ġdependable":5002,"dies":5003,"father":5004,"Ġped":5005,"oning":5006,"icking":5007,"Ġballoons":5008,"ĠJul":5009,"Ġchildhood":5010,"Ġfrozen":5011,"Ġjolly":5012,"Ġmarvel":5013,"Ġperfor":5014,"Ġinviting":5015,"Ġshocked":5016,"Ġempathy":5017,"Ġignor":5018,"Ġscram":5019,"Ġcrocod":5020,"Ġbin":5021,"Ġhelm":5022,"Ġhood":5023,"Ġalert":5024,"Ġgrad":5025,"Ġflesh":5026,"Ġunderground":5027,"Ġhopping":5028,"Ġfascinating":5029,"Ġbutterflies":5030,"Ġveil":5031,"Ġstrike":5032,"fying":5033,"tter":5034,"Ġfour":5035,"lex":5036,"Ġplaced":5037,"Ġyarn":5038,"Ġdeath":5039,"Ġarrow":5040,"Ġsleeping":5041,"grown":5042,"Ġautumn":5043,"Ġblooming":5044,"Ġmarveled":5045,"Ġexhilar":5046,"Me":5047,"cri":5048,"ek":5049,"pet":5050,"Ġbaking":5051,"Ġnobody":5052,"Ġprevent":5053,"ĠOl":5054,"Ġtwigs":5055,"Ġmeaningful":5056,"Ġinclud":5057,"Ġfisherman":5058,"Ġconversation":5059,"Ġcoursing":5060,"Life":5061,"Ġcooking":5062,"Ġmater":5063,"Ġvend":5064,"Ġstarts":5065,"Ġdecide":5066,"Ġgets":5067,"Ġgrowth":5068,"Ġdriven":5069,"Ġgifted":5070,"Ġjewelry":5071,"Ġbracelet":5072,"Ġstructure":5073,"gu":5074,"Ġborrow":5075,"Ġgall":5076,"Ġinstr":5077,"Ġshield":5078,"Ġboots":5079,"Ġpepper":5080,"Ġsunglass":5081,"Ġovergrown":5082,"Ġimposs":5083,"Ġbelt":5084,"Ġcounted":5085,"Ġmovement":5086,"Ġenvious":5087,"Ġconsumed":5088,"Ġlifetime":5089,"Ġsunglasses":5090,"par":5091,"Ġwaste":5092,"Ġrever":5093,"Ġcaf":5094,"Ġvowed":5095,"Ġbubble":5096,"airs":5097,"Ġbeloved":5098,"Ġentity":5099,"Ġdisappo":5100,"Ġspreading":5101,"Ġchoice":5102,"Ġimpressed":5103,"keeper":5104,"Ġanticipation":5105,"Ġignorant":5106,"Mama":5107,"Ġhoop":5108,"igator":5109,"stairs":5110,"Ġass":5111,"Ġdrop":5112,"Ġesp":5113,"Ġavoc":5114,"Ġaccomplished":5115,"Ġblowing":5116,"Ġdeafening":5117,"Ġchurch":5118,"Ġsip":5119,"real":5120,"Ġfuel":5121,"Ġcertain":5122,"Ġpants":5123,"Ġfolder":5124,"Ġboxes":5125,"Ġtear":5126,"Ġtempt":5127,"Ġfills":5128,"Ġsoftly":5129,"Ġchanging":5130,"Ġimagine":5131,"Ġunlocked":5132,"gram":5133,"Ġgalaxy":5134,"Ġpigeon":5135,"chan":5136,"ounce":5137,"erable":5138,"Ġbrows":5139,"Ġcareless":5140,"Ġglimmer":5141,"Ġprogram":5142,"Ġdrawings":5143,"Ġcandles":5144,"Ġkissed":5145,"Ġbeckoning":5146,"Ġgalaxies":5147,"Ġneighborhood":5148,"Ġelectric":5149,"Ġcrocodile":5150,"By":5151,"Ġopp":5152,"Ġmild":5153,"Ġpapers":5154,"Ġspinning":5155,"ulu":5156,"Ġunpr":5157,"Ġexpert":5158,"Ġtriangle":5159,"Ġzip":5160,"Ġpeek":5161,"Ġmiserable":5162,"Ġjacket":5163,"Ġaroma":5164,"enry":5165,"aries":5166,"Ġgor":5167,"Ġsaving":5168,"Ġeither":5169,"icorn":5170,"Ġtrump":5171,"Ġorb":5172,"Ġtele":5173,"Ġsurprises":5174,"action":5175,"Ġsniff":5176,"Ġholds":5177,"Ġconfident":5178,"Ġawa":5179,"Ġhallway":5180,"ologist":5181,"Ġalleyway":5182,"Ġparticularly":5183,"Ġuncertain":5184,"Ġunpredic":5185,"apped":5186,"rous":5187,"ym":5188,"arm":5189,"Ġsoar":5190,"Ġclo":5191,"Ġintense":5192,"Ġambit":5193,"Ġunderwater":5194,"Ġhanded":5195,"Ġhotel":5196,"Ġpatch":5197,"Ġmodel":5198,"Ġsorcerer":5199,"scrap":5200,"Th":5201,"cut":5202,"Ġfate":5203,"Ġcel":5204,"Ġcact":5205,"Ġpian":5206,"Ġgear":5207,"Ġgym":5208,"Ġincre":5209,"tering":5210,"Ġpeach":5211,"Ġcontained":5212,"Ġfloating":5213,"Ġreliable":5214,"Ġpointing":5215,"Ġharmony":5216,"berries":5217,"Ġfulfilled":5218,"Ġautom":5219,"Ġfestival":5220,"Ġmagnificent":5221,"Ġcooked":5222,"Ġnumb":5223,"Ġnosy":5224,"Ġlog":5225,"Ġchaotic":5226,"Ġprogress":5227,"Ġsquirrels":5228,"Ġwondrous":5229,"Ġnapkin":5230,"forg":5231,"Ġsupplies":5232,"Ġgraceful":5233,"Ġslept":5234,"lk":5235,"Ġsaus":5236,"Ġcausing":5237,"essie":5238,"Ġvine":5239,"Ġconc":5240,"Ġunicorn":5241,"Ġteaching":5242,"Ġskyscrap":5243,"Ġgrandfather":5244,"Ġwarn":5245,"Ġobjects":5246,"Ġrepe":5247,"Ġmuffin":5248,"Ġimpossible":5249,"Mum":5250,"life":5251,"inking":5252,"Ġloll":5253,"Ġneedle":5254,"Ġhurts":5255,"Ġsandcast":5256,"Ġconstell":5257,"Ġtransfor":5258,"Ġfilthy":5259,"Ġcushion":5260,"Ġtrumpet":5261,"Ġpiano":5262,"ses":5263,"Ġcell":5264,"Ġhabit":5265,"ĠThese":5266,"Ġsoil":5267,"Ġalligator":5268,"ters":5269,"Ġgrin":5270,"Ġcheck":5271,"Ġgrowling":5272,"Ġculture":5273,"Ġattractive":5274,"Ġpalace":5275,"ipper":5276,"time":5277,"zzy":5278,"Ġmath":5279,"Ġskip":5280,"Ġuniversity":5281,"Ġsplit":5282,"Ġenvironmental":5283,"Ġadmired":5284,"Ġlurked":5285,"Ġcrunching":5286,"Ġleaned":5287,"Ġmajestic":5288,"Ġgarage":5289,"ĠMaya":5290,"Ġlollip":5291,"..":5292,"ĠMiss":5293,"Ġswung":5294,"ĠJake":5295,"bbling":5296,"Ġbuzz":5297,"Ġnods":5298,"Ġmoonlight":5299,"Ġuncovered":5300,"Ġadvice":5301,"Ġpouring":5302,"Ġserve":5303,"Ġavail":5304,"ubby":5305,"Ġphoto":5306,"Ġsurvive":5307,"Ġmesmer":5308,"Ġham":5309,"oth":5310,"Ġrequ":5311,"Ġcompan":5312,"Ġdrawer":5313,"Ġpreserving":5314,"Ġcollege":5315,"Ġconducting":5316,"Ġgorilla":5317,"Ġautomob":5318,"Ġskyscrapers":5319,"Ġwool":5320,"Ġotter":5321,"Ġhues":5322,"ete":5323,"ecially":5324,"Ġtool":5325,"Ġcoal":5326,"Ġcaring":5327,"Ġmole":5328,"Ġunderbrush":5329,"ffic":5330,"Ġcupboard":5331,"Ġrecognized":5332,"Ġpirate":5333,"Ġpollution":5334,"Ġcocoa":5335,"xy":5336,"Ġalt":5337,"Ġclues":5338,"Ġlonged":5339,"Ġpowder":5340,"Ġslam":5341,"Ġacts":5342,"Ġsmells":5343,"Ġviol":5344,"Ġstretching":5345,"Ġglimpse":5346,"Ġwound":5347,"Ġmule":5348,"stones":5349,"Ġrays":5350,"Ġsepar":5351,"ilty":5352,"Ġscattered":5353,"Ġtraining":5354,"Ġguilty":5355,"Ġsparkled":5356,"Ġmarkings":5357,"Ġrising":5358,"Ġthrive":5359,"Ġespecially":5360,"dling":5361,"Ġthief":5362,"Ġnewsp":5363,"Ġtrad":5364,"Ġdear":5365,"Ġchubby":5366,"Ġlotion":5367,"anges":5368,"ients":5369,"Ġfearful":5370,"Ġdoesn":5371,"Ġshrimp":5372,"harp":5373,"Ġbiology":5374,"Ġboarded":5375,"Ġencouraged":5376,"Go":5377,"rin":5378,"Ġink":5379,"Ġrenown":5380,"Ġuncle":5381,"izard":5382,"Ġdefe":5383,"Ġoranges":5384,"inky":5385,"Ġfridge":5386,"Ġopening":5387,"Ġripp":5388,"capes":5389,"Ġwarned":5390,"Ġcurse":5391,"Ġinsist":5392,"Ġbounced":5393,"Ġpiercing":5394,"Ġrenowned":5395,"men":5396,"wing":5397,"Ġcomet":5398,"Ġgum":5399,"Ġplayground":5400,"Ġclut":5401,"Ġvide":5402,"Ġsket":5403,"Ġflame":5404,"Ġrubbed":5405,"Ġceiling":5406,"Ġadorned":5407,"Ġdisappointed":5408,"Ġaltar":5409,"ring":5410,"Ġtank":5411,"Ġdil":5412,"Ġherb":5413,"Ġexact":5414,"Ġcarpet":5415,"Ġensure":5416,"Ġflood":5417,"Ġnicely":5418,"Ġhealing":5419,"Ġvillagers":5420,"Ġcollection":5421,"Ġprice":5422,"Ġstraight":5423,"Ġspaceship":5424,"Ġweapon":5425,"Ġambitious":5426,"Ġwizard":5427,"edy":5428,"Ġbill":5429,"Ġplun":5430,"Ġrej":5431,"Ġrole":5432,"Ġchalk":5433,"Ġmagaz":5434,"Ġdesol":5435,"Ġraised":5436,"Ġsweater":5437,"ĠRob":5438,"Ġlandscapes":5439,"Ġcompetitive":5440,"Ġcolleag":5441,"Ġticket":5442,"oid":5443,"Ġwire":5444,"Ġlicked":5445,"anut":5446,"ĠLuc":5447,"Ġscoot":5448,"Ġarg":5449,"Ġcraft":5450,"Ġwheels":5451,"Ġradish":5452,"Ġcliffs":5453,"Ġingred":5454,"Ġcactus":5455,"form":5456,"sharp":5457,"Ġsigh":5458,"Ġmur":5459,"Ġpun":5460,"Ġbeating":5461,"Ġbeaches":5462,"ĠLulu":5463,"Ġflute":5464,"Ġreduc":5465,"Ġtrash":5466,"bber":5467,"Ġcolder":5468,"Ġbookshe":5469,"Ġelev":5470,"Ġadorable":5471,"Ġfreedom":5472,"Ġcolleagues":5473,"Ġhive":5474,"Ġhuddled":5475,"amiliar":5476,"Ġrather":5477,"ument":5478,"Ġtools":5479,"lower":5480,"Ġcarved":5481,"Ġgrapes":5482,"Ġmatters":5483,"Ġobsc":5484,"Ġrevealed":5485,"Ġbehav":5486,"Ġunfamiliar":5487,"Ġangel":5488,"Ġwife":5489,"erc":5490,"Ġnail":5491,"Ġgas":5492,"atch":5493,"Ġcounting":5494,"Ġinvigor":5495,"Ġfairies":5496,"Ġsignal":5497,"Ġrivers":5498,"Ġruins":5499,"Ġcomforting":5500,"Ġinterc":5501,"Ġrumors":5502,"ew":5503,"Ġmug":5504,"Ġdunes":5505,"Ġshot":5506,"ugged":5507,"Ġagree":5508,"Ġknot":5509,"Ġpoem":5510,"Ġquar":5511,"Ġtraffic":5512,"Ġtales":5513,"Ġfoods":5514,"Ġtowered":5515,"ĠMrs":5516,"Ġdragged":5517,"Ġburning":5518,"Ġhipp":5519,"Ġeraser":5520,"Ġcollapsed":5521,"Ġunpredictable":5522,"Ġconstellations":5523,"Ġautomobile":5524,"tons":5525,"Ġbull":5526,"Ġtoe":5527,"ĠLittle":5528,"ushes":5529,"lowly":5530,"Ġunse":5531,"Ġimpat":5532,"ances":5533,"Ġhurry":5534,"Ġmarry":5535,"uggest":5536,"Ġantique":5537,"Ġcereal":5538,"Ġcelebrated":5539,"Ġnavig":5540,"Ġpeeked":5541,"Ġperspectives":5542,"Ġcompetition":5543,"ĠTrue":5544,"Ġseagulls":5545,"Ġnumbers":5546,"Ã©":5547,"Ġsuggest":5548,"Ġbony":5549,"Ġstack":5550,"Ġanch":5551,"Ġbuttons":5552,"Ġjet":5553,"opl":5554,"Ġexerc":5555,"Ġvivid":5556,"ivated":5557,"Ġvisiting":5558,"Ġscreams":5559,"Ġshrink":5560,"Ġcherries":5561,"Ġbiologist":5562,"Ġtalented":5563,"Ġmagnet":5564,"Ġdescended":5565,"Ġsatisf":5566,"Ġhelmet":5567,"Ġtransformed":5568,"Ġimpatient":5569,"Billy":5570,"cur":5571,"upt":5572,"Ġsize":5573,"Ġmop":5574,"Ġlid":5575,"arian":5576,"anic":5577,"ache":5578,"Ġmyst":5579,"ĠMill":5580,"ulif":5581,"Ġiss":5582,"Ġseems":5583,"Ġfindings":5584,"ĠExcited":5585,"Ġholes":5586,"Ġrestaur":5587,"Ġlocals":5588,"Ġcapable":5589,"Ġavailable":5590,"Ġinterconnected":5591,"dles":5592,"how":5593,"mered":5594,"uals":5595,"Ġaud":5596,"Ġspilled":5597,"Ġtrek":5598,"Ġcaulif":5599,"Ġrod":5600,"Before":5601,"Ġgems":5602,"Ġcomplain":5603,"Ġscrambled":5604,"Ġexactly":5605,"Ġelevator":5606,"li":5607,"va":5608,"Ġaer":5609,"ern":5610,"Ġsamp":5611,"Ġank":5612,"Ġskull":5613,"Ġfrant":5614,"Ġslides":5615,"Ġpainter":5616,"Ġinvitation":5617,"Ġminds":5618,"Ġhesitant":5619,"ograp":5620,"Ġconscious":5621,"Ġpengu":5622,"Ġlollipop":5623,"Ġdesolate":5624,"Ġpec":5625,"Ġslid":5626,"Ġraise":5627,"Ġexperiencing":5628,"Ġpossibility":5629,"Ġflea":5630,"Ġdecorate":5631,"yle":5632,"vering":5633,"ades":5634,"ĠAlex":5635,"ulance":5636,"ased":5637,"oby":5638,"Ġaccess":5639,"Ġprofound":5640,"ĠDolly":5641,"Ġgrandpa":5642,"Ġgathering":5643,"Ġveins":5644,"Bobo":5645,"Ġdiving":5646,"harl":5647,"Ġwiped":5648,"Ġstrawberry":5649,"Ġambulance":5650,"Ġnewspaper":5651,"Ġreducing":5652,"Ġbookshelf":5653,"ium":5654,"was":5655,"Ġbent":5656,"Ġoil":5657,"Ġnews":5658,"ively":5659,"Ġpole":5660,"Ġshades":5661,"Ġtowers":5662,"Ġwildlife":5663,"Ġtravels":5664,"Ġmiles":5665,"Ġmerc":5666,"Ġphysical":5667,"ophys":5668,"Ġhippo":5669,"Ġten":5670,"acht":5671,"Ġforces":5672,"Ġpeak":5673,"Ġconv":5674,"Ġthanks":5675,"Ġworks":5676,"Ġparts":5677,"Ġsimplic":5678,"Ġfash":5679,"Ġfalls":5680,"Ġastrophys":5681,"Ġcardboard":5682,"Ġlabel":5683,"Ġgiggled":5684,"phone":5685,"Ġaccidentally":5686,"Ġviolin":5687,"Ġcauliflower":5688,"Ġsimplicity":5689,"Alice":5690,"Ġyacht":5691,"Ġtray":5692,"Ġdarker":5693,"Ġcooler":5694,"Ġrelation":5695,"Ġpreparing":5696,"Ġpitch":5697,"Ġexperimenting":5698,"Ġincluding":5699,"Ġavocado":5700,"Ġtelephone":5701,"Ġfashion":5702,"dge":5703,"vas":5704,"Ġsauce":5705,"vern":5706,"iless":5707,"Ġworn":5708,"Ġhate":5709,"Ġpersonal":5710,"Ġtravelers":5711,"Ġinstinct":5712,"Ġdishwas":5713,"Ġwriter":5714,"Ġdishwasher":5715,"Ġtang":5716,"Ġnation":5717,"Ġrides":5718,"Ġcanvas":5719,"Ġbrushed":5720,"Ġribb":5721,"Ġpurse":5722,"Ġswinging":5723,"Ġsummit":5724,"Ġthread":5725,"Ġburned":5726,"Ġlabor":5727,"Ġelectricity":5728,"Ġanchor":5729,"Ġsatisfaction":5730,"Ġmystical":5731,"Ġmerciless":5732,"Mummy":5733,"Ġax":5734,"Ġbump":5735,"Ġfant":5736,"Ġgle":5737,"Ġbend":5738,"Ġweigh":5739,"Ġstrangers":5740,"Ġended":5741,"Ġkeeper":5742,"Ġhaircut":5743,"Ġfootpr":5744,"Ġlaughs":5745,"Ġprepare":5746,"Ġflickered":5747,"Ġvictim":5748,"aul":5749,"ĠHenry":5750,"Ġrelent":5751,"Ġbarrel":5752,"Ġcups":5753,"Ġgeneration":5754,"Ġshivering":5755,"ĠYet":5756,"Ġstirred":5757,"Ġchanting":5758,"Ġawaited":5759,"Ġunseen":5760,"Jim":5761,"iam":5762,"Ġtide":5763,"Ġwaff":5764,"Ġrev":5765,"Ġhappier":5766,"ĠFo":5767,"ability":5768,"Ġobserv":5769,"Ġpetals":5770,"Ġsocial":5771,"Ġexisted":5772,"Ġyoga":5773,"Ġaeropl":5774,"Fluffy":5775,"Is":5776,"Ġlimb":5777,"arry":5778,"Ġcafe":5779,"Ġknob":5780,"Ġchain":5781,"azing":5782,"Ġcrashed":5783,"Ġsidewal":5784,"Ġghosts":5785,"Ġjuicy":5786,"Ġshivers":5787,"Ġmodest":5788,"Ġcharac":5789,"Ġcrunch":5790,"Ġsoldier":5791,"Ġilluminated":5792,"Ġpilot":5793,"Give":5794,"uven":5795,"Ġtending":5796,"atic":5797,"Ġrushing":5798,"Ġhadn":5799,"Ġintens":5800,"Ġmakeup":5801,"Ġputting":5802,"ĠPete":5803,"unting":5804,"Ġencourage":5805,"Ġmistakes":5806,"Ġsolace":5807,"Ġorganize":5808,"ĠBefore":5809,"Ġrejuven":5810,"Ġmos":5811,"immered":5812,"ira":5813,"Ġrows":5814,"alking":5815,"Ġexcept":5816,"Ġscatter":5817,"Ġfeelings":5818,"ĠEllie":5819,"Ġslip":5820,"Ġzipper":5821,"Ġpastry":5822,"Ġburn":5823,"Ġbrothers":5824,"Ġparched":5825,"Ġsenses":5826,"Ġrefreshing":5827,"Ġperseverance":5828,"Ġvarious":5829,"Ġcelery":5830,"Ġvideo":5831,"Ġmercilessly":5832,"Ġtheater":5833,"Ġfade":5834,"ism":5835,"ecause":5836,"Ġalarm":5837,"?\".":5838,"quit":5839,"Ġlighthouse":5840,"Ġmovements":5841,"ĠOr":5842,"Ġfloorboard":5843,"Ġattack":5844,"Ġsitu":5845,"Ġtranquil":5846,"Ġdesigns":5847,"ĠJimmy":5848,"Ġcustomers":5849,"Ġroutine":5850,"Ġingredients":5851,"Nature":5852,"ait":5853,"vest":5854,"heart":5855,"Ġbicy":5856,"Ġcoup":5857,"Ġdess":5858,"ĠToby":5859,"ench":5860,"ittens":5861,"Ġspear":5862,"uded":5863,"Ġflowing":5864,"Ġcreaky":5865,"ordinary":5866,"Ġward":5867,"Ġresearching":5868,"Ġinterior":5869,"ĠWhenever":5870,"Ġnetwork":5871,"levision":5872,"Ġbananas":5873,"Ġhunter":5874,"Ġpuls":5875,"Ġextraordinary":5876,"Ġvendor":5877,"quito":5878,"yer":5879,"Ġsought":5880,"Ġtour":5881,"Ġcri":5882,"Ġbirdc":5883,"Ġtelevision":5884,"Ġchanges":5885,"ĠKim":5886,"ences":5887,"Ġletters":5888,"Ġobserve":5889,"Ġpuzzles":5890,"Ġcorrid":5891,"Ġadvocate":5892,"ĠcafÃ©":5893,"Ġissues":5894,",âĢĿ":5895,"Ġ1":5896,"Ġhailed":5897,"ĠSnow":5898,"sters":5899,"Ġrit":5900,"Ġreleas":5901,"asks":5902,"Ġunra":5903,"Ġdecrep":5904,"Ġcontact":5905,"Ġpassions":5906,"ship":5907,"Ġbrewed":5908,"Ġcollar":5909,"Ġlanguages":5910,"Ġminer":5911,"Ġterrified":5912,"Ġbikes":5913,"Ġmedal":5914,"Ġinsects":5915,"Ġdemand":5916,"Ġmosquito":5917,"Ġcricket":5918,"Ġdecrepit":5919,"eor":5920,"roph":5921,"Ġcows":5922,"Ġpad":5923,"Ġpip":5924,"ĠTweet":5925,"Ġhut":5926,"Ġstate":5927,"!\".":5928,"Ġunw":5929,"Ġappear":5930,"bby":5931,"Ġcrypt":5932,"Ġactivity":5933,"Ġpretending":5934,"Ġtraveler":5935,"iction":5936,"Ġvolunteering":5937,"chair":5938,"Ġevents":5939,"Ġrestaurant":5940,"Ġconvin":5941,"Ġbirdcage":5942,"iest":5943,"Ġcrib":5944,"Ġdam":5945,"Ġease":5946,"Ġfork":5947,"Ġrange":5948,"Ġdiscus":5949,"Ġcolour":5950,"Ġcreeping":5951,"Ġearned":5952,"Ġrubber":5953,"Ġstruggle":5954,"Ġspeaking":5955,"Ġcherry":5956,"Ġterrifying":5957,"uction":5958,"Emma":5959,"Ġentirely":5960,"Ġselling":5961,"Ġcostume":5962,"ĠBuzz":5963,"ĠLucas":5964,"Ġaxe":5965,"Well":5966,"Ġtummy":5967,"Ġbacked":5968,"arity":5969,"Ġsheer":5970,"ĠBill":5971,"ilies":5972,"Ġroot":5973,"iece":5974,"Ġflav":5975,"Ġhowling":5976,"ĠOK":5977,"Ġminute":5978,"Ġanswers":5979,"Ġcapture":5980,"uriosity":5981,"Ġphysics":5982,"Ġyogur":5983,"Ġpersevered":5984,"Ġgradu":5985,"Ġankle":5986,"Ġlaboratory":5987,"hin":5988,"Ġapr":5989,"Ġfara":5990,"Ġodd":5991,"ĠTeddy":5992,"Ġmeat":5993,"Ġexit":5994,"asy":5995,"Ġvac":5996,"ecture":5997,"Ġglove":5998,"Ġfully":5999,"Ġlocation":6000,"Ġbarren":6001,"Ġrub":6002,"Ġconfidence":6003,"Ġparade":6004,"Ġfulfilling":6005,"Ġmotorcy":6006,"Ġhammer":6007,"Ġfrantically":6008,"Ġaeroplane":6009,"Ġbicycle":6010,"Ġyogurt":6011,"Ġfaraway":6012,"can":6013,"fa":6014,"inked":6015,"eros":6016,"erator":6017,"Ġhelic":6018,"Ġhumbling":6019,"Ġdevelop":6020,"ĠNew":6021,"ency":6022,"oceros":6023,"Ġpackage":6024,"Ġsupply":6025,"Ġhooded":6026,"Ġsausage":6027,"Ġmagazine":6028,"curdling":6029,"hinoceros":6030,"Ġhelicop":6031,"ulet":6032,"ĠV":6033,"Ġdaring":6034,"Ġlic":6035,"ork":6036,"Ġhook":6037,"ĠSlowly":6038,"Ġsofa":6039,"Ġisn":6040,"Ġleash":6041,"Ġsomehow":6042,"Ġanywhere":6043,"Ġfamilies":6044,"Ġapproaching":6045,"rigerator":6046,"Ġembarked":6047,"Ġsavoring":6048,"Ġsnapping":6049,"Ġrefreshed":6050,"Ġbattery":6051,"Ġscooter":6052,"Ġbehavior":6053,"Ġlimbs":6054,"tress":6055,"Ġlime":6056,"Ġstable":6057,"Ġneat":6058,"Ġgolf":6059,"Ġamulet":6060,"Ġchim":6061,"through":6062,"Ġpopped":6063,"reek":6064,"Ġcastles":6065,"Ġcounter":6066,"Ġsimpl":6067,"Ġmattress":6068,"Ġregret":6069,"Ġfauc":6070,"Ġbaseball":6071,"Ġcircles":6072,"Ġbackgrounds":6073,"Ġowned":6074,"Ġcalming":6075,"apidated":6076,"Ġbrowsing":6077,"Ġexercise":6078,"ials":6079,"rop":6080,"Ġlend":6081,"Ġrhinoceros":6082,"Ġfeat":6083,"Ġclimate":6084,"Ġroared":6085,"izations":6086,"Ġsetb":6087,"Ġhardly":6088,"Ġdrain":6089,"Ġbreaking":6090,"Ġguid":6091,"Ġrefrigerator":6092,"ibly":6093,"Ġsailing":6094,"Ġstorms":6095,"Ġprovided":6096,"Ġsnapped":6097,"Ġlatest":6098,"Ġdilapidated":6099,"Ġrelationships":6100,"Ġfaucet":6101,"Little":6102,"ounc":6103,"ero":6104,"Ġgates":6105,"stone":6106,"Ġonion":6107,"elcome":6108,"Ġveter":6109,"Ġadver":6110,"Ġdishes":6111,"Ġchose":6112,"Ġdren":6113,"Ġrealised":6114,"Ġflut":6115,"Ġsandy":6116,"Ġeasily":6117,"Ġshovel":6118,"Ġbreakthrough":6119,"Ġarmchair":6120,"Ġadvanced":6121,"Ġauth":6122,"Ġcommunities":6123,"Ġprayed":6124,"Ġgroan":6125,"Ġetern":6126,"Ġlicense":6127,"eeling":6128,"foot":6129,"Ġsipped":6130,"Ġbes":6131,"Ġsheet":6132,"Ġsoak":6133,"Ġload":6134,"ified":6135,"Ġsmallest":6136,"ĠJo":6137,"mpoo":6138,"ĠGive":6139,"Ġtwisting":6140,"Ġwallet":6141,"Ġsparkly":6142,"Ġbasketball":6143,"Ġpolish":6144,"ĠSpike":6145,"Ġdelighted":6146,"Ġblend":6147,"Ġpave":6148,"htub":6149,"Ġmechan":6150,"opes":6151,"Ġlaun":6152,"Ġswirl":6153,"Ġprosp":6154,"Ġjokes":6155,"Ġmarched":6156,"Ġbathtub":6157,"omeday":6158,"Ġdiverse":6159,"Ġunlocking":6160,"Ġequitable":6161,"Ġdevoted":6162,"ĠBirdy":6163,"Ġmelted":6164,"Ġwitnessed":6165,"Ġmenacing":6166,"Ġrotting":6167,"Ġawareness":6168,"Ġslammed":6169,"Ġfloorboards":6170,"Ġapron":6171,"Ġchimney":6172,"bles":6173,"cles":6174,"Ġfled":6175,"Ġhomet":6176,"Ġstench":6177,"Ġsoared":6178,"ĠMum":6179,"Ġclarity":6180,"Ġseeming":6181,"araly":6182,"Ġfoli":6183,"Ġbegun":6184,"Ġplanned":6185,"Ġhopes":6186,"Ġperil":6187,"Ġprof":6188,"Ġrice":6189,"Ġtriump":6190,"Ġmissile":6191,"Ġbandage":6192,"Ġenthusiastic":6193,"Ġwardrobe":6194,"rophone":6195,"Ġhometown":6196,"Ġfoliage":6197,"See":6198,"bon":6199,"ckey":6200,"Ġig":6201,"Ġtune":6202,"Ġson":6203,"Ġsomeday":6204,"erature":6205,"Ġlawn":6206,"Ġfinds":6207,"Ġbless":6208,"Ġgrape":6209,"Ġhockey":6210,"Ġcontain":6211,"Ġcrew":6212,"Ġtrucks":6213,"Ġsymp":6214,"Ġdevice":6215,"Ġpenguin":6216,"Ġhelicopter":6217,"Ġeternity":6218,"Wait":6219,"loo":6220,"Ġshat":6221,"Ġmummy":6222,"Ġpist":6223,"ĠSha":6224,"Ġneare":6225,"Ġnotes":6226,"Ġann":6227,"asing":6228,"Ġchore":6229,"Ġhowled":6230,"Ġshoulders":6231,"Ġfrogs":6232,"Ġincant":6233,"Ġgifts":6234,"Ġtwists":6235,"Ġpassionate":6236,"ĠJohnny":6237,"Ġlingered":6238,"Bye":6239,"Ġquarrel":6240,"Ġguidance":6241,"Ġdrenched":6242,"aralyzed":6243,"Ġigloo":6244,"cl":6245,"gen":6246,"like":6247,"Ġlumber":6248,"Ġnames":6249,"Ġitch":6250,"Ġliqu":6251,"Ġworst":6252,"Ġworse":6253,"izes":6254,"Ġadap":6255,"Ġoffering":6256,"olute":6257,"covered":6258,"Ġcracked":6259,"ĠPipp":6260,"Ġpubl":6261,"ĠYork":6262,"Ġcobweb":6263,"Ġswaying":6264,"Ġreleased":6265,"Ġbeside":6266,"Ġliquid":6267,"An":6268,"aid":6269,"inarian":6270,"Ġok":6271,"Ġdared":6272,"ĠIs":6273,"leton":6274,"iches":6275,"Ġupstairs":6276,"itted":6277,"uliar":6278,"Ġunpack":6279,"Ġdeeply":6280,"Ġtwirl":6281,"ĠCharl":6282,"ĠEverything":6283,"Ġartists":6284,"ricane":6285,"ĠLee":6286,"Ġsandwiches":6287,"Ġwealth":6288,"Ġmicrophone":6289,"Ġseparate":6290,"Ġpeculiar":6291,"iraffe":6292,"Ġmotorcycle":6293,"Ġpistol":6294,"lines":6295,"Ġfail":6296,"Ġparalyzed":6297,"anny":6298,"etty":6299,"Ġlips":6300,"Ġcable":6301,"Ġcarbon":6302,"Ġtrophy":6303,"Ġblinked":6304,"Ġrealizing":6305,"bbing":6306,"Ġcompre":6307,"Ġsnar":6308,"Ġmustache":6309,"Ġstudents":6310,"Ġcollected":6311,"Ġblackboard":6312,"Ġsplashing":6313,"Ġoccur":6314,"Ġskelet":6315,"Ġskeleton":6316,"Ġpirates":6317,"Ġmasterp":6318,"Ġdesperate":6319,"xygen":6320,"rise":6321,"Ġsan":6322,"Ġgut":6323,"Ġgest":6324,"Ġrid":6325,"Ġreaches":6326,"Ġjunk":6327,"Ġcause":6328,"Ġrooted":6329,"Ġcove":6330,"ometer":6331,"Ġnostri":6332,"Ġreduce":6333,"Ġdesig":6334,"Ġsteady":6335,"Ġchirped":6336,"ĠZoomy":6337,"Ġpleased":6338,"Ġbuckle":6339,"Ġvolcan":6340,"Ġlifel":6341,"ooped":6342,"ĠUn":6343,"Ġsidewalk":6344,"Ġdessert":6345,"Ġveterinarian":6346,"Ġnostrils":6347,"hic":6348,"ube":6349,"Ġdare":6350,"Ġhedge":6351,"omb":6352,"Ġreas":6353,"Ġnecess":6354,"ĠAva":6355,"Ġbodies":6356,"Ġcatching":6357,"Ġdowns":6358,"Ġpeanut":6359,"Ġtrade":6360,"Ġdecision":6361,"Ġjustice":6362,"rmometer":6363,"Ġunderfoot":6364,"Ġtrains":6365,"spe":6366,"Ġshouldn":6367,"Ġprotected":6368,"Ġcutting":6369,"Ġbeef":6370,"Ġbarking":6371,"Ġcomplexity":6372,"Ġboundaries":6373,"strich":6374,"Ġtemptation":6375,"Al":6376,"Ouch":6377,"Ġtube":6378,"Ġaff":6379,"eds":6380,"res":6381,"Ġfab":6382,"Ġrail":6383,"ica":6384,"Ġups":6385,"ept":6386,"Ġshampoo":6387,"Ġswitch":6388,"orses":6389,"Ġresting":6390,"Ġstudio":6391,"Ġbreaks":6392,"Ġpeacefulness":6393,"Ġsupporting":6394,"Ġtransport":6395,"Ġskept":6396,"eorge":6397,"Ġvolcano":6398,"lish":6399,"inite":6400,"Ġfive":6401,"Ġostrich":6402,"aroo":6403,"Ġkang":6404,"Ġdoc":6405,"Ġshock":6406,"Ġscur":6407,"osed":6408,"Ġdemon":6409,"Ġusual":6410,"Ġoper":6411,"ctu":6412,"Ġcrane":6413,"ĠPandy":6414,"Ġparent":6415,"Ġembr":6416,"Ġpriv":6417,"Ġringing":6418,"Ġoppress":6419,"Ġpipe":6420,"Ġpavement":6421,"Ġkangaroo":6422,"Fin":6423,"hs":6424,"iqu":6425,"vings":6426,"Ġstyle":6427,"Ġrake":6428,"Ġriding":6429,"ĠLook":6430,"Ġsadness":6431,"ĠFro":6432,"Ġteasp":6433,"Ġarray":6434,"Ġslight":6435,"Ġscrew":6436,"Ġsweetie":6437,"Ġperfectly":6438,"clear":6439,"Today":6440,"Ġpuddles":6441,"Ġskilled":6442,"Ġcards":6443,"Ġrespectful":6444,"Ġstaircase":6445,"ĠAlong":6446,"Ġilluminating":6447,"Ġindividual":6448,"Ġfootprint":6449,"Ġsetbacks":6450,"zag":6451,"Ġdiv":6452,"Ġprev":6453,"Ġblouse":6454,"Ġhowever":6455,"Ġcube":6456,"Ġhighest":6457,"Ġawoke":6458,"Ġzoomed":6459,"Ġindividuals":6460,"Ġribbon":6461,"nes":6462,"Ġbas":6463,"iti":6464,"igzag":6465,"hero":6466,"Ġcared":6467,"Ġblur":6468,"Ġskirt":6469,"Ġprunes":6470,"Ġopens":6471,"Ġuneasy":6472,"Ġstops":6473,"Ġattach":6474,"Ġstarg":6475,"Ġdestr":6476,"Ġdestiny":6477,"Ġmonkeys":6478,"Ġsurvival":6479,"Ġpearl":6480,"Ġornament":6481,"Ġmaterial":6482,"Ġplunged":6483,"Ġsuggested":6484,"Ġpulsating":6485,"Ġperilous":6486,"friend":6487,"Ġcord":6488,"Ġoy":6489,"Ġhorses":6490,"Ġherbs":6491,"Ġplayer":6492,"ases":6493,"Ġscan":6494,"elled":6495,"Ġswamp":6496,"Ġdisag":6497,"Ġhol":6498,"Ġdrops":6499,"Ġconnections":6500,"Ġsolitude":6501,"Ġbury":6502,"Ġblankets":6503,"Ġseason":6504,"Ġtrusted":6505,"Ġcoral":6506,"Ġsuperhero":6507,"Ġcontribut":6508,"Ġteaspoon":6509,"hou":6510,"hony":6511,"son":6512,"eries":6513,"Ġmoss":6514,"Ġdut":6515,"Ġwashing":6516,"ĠBessie":6517,"Ġopt":6518,"Ġfootball":6519,"Ġsilhou":6520,"Ġchairs":6521,"Ġuncovering":6522,"ĠZip":6523,"Ġbathe":6524,"Ġbattle":6525,"Ġchoices":6526,"Ġfragr":6527,"Ġsucceeded":6528,"Ġexhib":6529,"Ġcompanion":6530,"Ġsamples":6531,"Ġsilhouet":6532,"duce":6533,"Ġmal":6534,"Ġpra":6535,"ĠSm":6536,"eting":6537,"Ġhappens":6538,"Ġsunrise":6539,"Ġswall":6540,"anda":6541,"Ġfastest":6542,"avid":6543,"Ġimage":6544,"Ġinvite":6545,"Ġpastries":6546,"Ġvalues":6547,"Ġmatches":6548,"Ġinform":6549,"Ġsavor":6550,"Ġcrowded":6551,"ĠBirds":6552,"Ġdestroyed":6553,"Ġtwinkling":6554,"Ġreverse":6555,"Ġcorridors":6556,"Mr":6557,"eer":6558,"ped":6559,"Ġtend":6560,"Ġthermometer":6561,"Ġtome":6562,"haps":6563,"Ġitem":6564,"Ġrises":6565,"ulations":6566,"Ġarch":6567,"Ġhurried":6568,"Ġfascination":6569,"Ġdragons":6570,"Ġbelonging":6571,"Ġbathrobe":6572,"ĠBuzzy":6573,"Ġrules":6574,"ĠJulia":6575,"Ġshattered":6576,"Ġlifelong":6577,"render":6578,"ites":6579,"Ġmitten":6580,"Ġinner":6581,"Ġbeet":6582,"Ġkay":6583,"Ġmere":6584,"ĠEng":6585,"apa":6586,"Ġanyway":6587,"Ġexcitedly":6588,"Ġcruc":6589,"ememb":6590,"Ġsolved":6591,"Ġsinking":6592,"Ġordered":6593,"Ġdigging":6594,"Ġtransform":6595,"Ġthreatened":6596,"Ġweekend":6597,"Through":6598,"Ġobservatory":6599,"Ġmineral":6600,"Ġsymphony":6601,"Ġchores":6602,"Ġmasterpiece":6603,"Ġdestruction":6604,"00":6605,"aby":6606,"ban":6607,"Ġgrill":6608,"ĠAre":6609,"ashed":6610,"Ġunite":6611,"Ġheads":6612,"Ġdrift":6613,"Ġimages":6614,"Ġdaunting":6615,"Ġrechar":6616,"undry":6617,"Ġhanger":6618,"Ġseashell":6619,"Ġsniffed":6620,"Ġmesmerized":6621,"Ġastrophysics":6622,"ictionary":6623,"Ġdocument":6624,"zer":6625,"ĠQ":6626,"Ġtax":6627,"Ġsim":6628,"Ġtoile":6629,"Ġoxygen":6630,"Ġdictionary":6631,"Ġpony":6632,"Ġlions":6633,"aline":6634,"Ġhelper":6635,"Ġcakes":6636,"Ġlaundry":6637,"Ġpoke":6638,"Ġcrit":6639,"renaline":6640,"Ġactiv":6641,"Ġenerg":6642,"Ġcabinet":6643,"Ġsignificant":6644,"Ġreplaced":6645,"Ġvehic":6646,"Ġurban":6647,"Ġrecognition":6648,"Ġclassroom":6649,"Ġfilm":6650,"Ġsubway":6651,"Ġfaith":6652,"Ġbasement":6653,"Ġgallery":6654,"Ġunravel":6655,"Ġauthor":6656,"Ġtooth":6657,"ĠTina":6658,"orient":6659,"ĠBetty":6660,"ĠMummy":6661,"Ġexists":6662,"Ġsche":6663,"Ġunforg":6664,"Ġpoppy":6665,"Ġquaint":6666,"Ġjumps":6667,"Ġslipp":6668,"ĠPanic":6669,"Ġmonsters":6670,"Ġstudies":6671,"Ġstickers":6672,"Ġhumming":6673,"Ġshouting":6674,"working":6675,"Ġdecaying":6676,"Ġsneak":6677,"Ġphotograp":6678,"Ġintelligence":6679,"Ġscratching":6680,"Ġtwinkle":6681,"Ġuncertainty":6682,"upted":6683,"Ġskeletal":6684,"Ġholid":6685,"Ġinformation":6686,"emember":6687,"ki":6688,"inting":6689,"Ġfame":6690,"Ġdou":6691,"Ġlaser":6692,"Ġheav":6693,"Ġbeam":6694,"Ġstad":6695,"Ġstare":6696,"Ġvest":6697,"Ġappar":6698,"Ġremove":6699,"Ġairport":6700,"olved":6701,"Ġsteel":6702,"Ġposit":6703,"Ġfreezer":6704,"Ġshopkeeper":6705,"Ġinstant":6706,"Ġcaptivated":6707,"Ġintricately":6708,"Ġobstacle":6709,"Ġcamping":6710,"Ġconditions":6711,"Ġtomatoes":6712,"Ġimmense":6713,"Ġobscured":6714,"Ġcrucial":6715,"Ġscheme":6716,"Ġunforgiving":6717,"Jill":6718,"Le":6719,"Welcome":6720,"bound":6721,"earing":6722,"Ġsipping":6723,"Ġsacri":6724,"Ġstrand":6725,"Ġrelease":6726,"Ġhurricane":6727,"Ġgreenery":6728,"Ġfavour":6729,"Ġdancer":6730,"Ġshoreline":6731,"Ġreflecting":6732,"Ġmachines":6733,"Ġinterested":6734,"Ġinsign":6735,"Ġfleeting":6736,"Ġastronomer":6737,"Ġcoastal":6738,"Ġaliens":6739,"Ġcorp":6740,"Ġchickens":6741,"Ġemotions":6742,"Ġimmers":6743,"Ġvacation":6744,"Ġkayak":6745,"Ġtoilet":6746,"Ġslippery":6747,"Ġwine":6748,"Ġbud":6749,"Ġwafted":6750,"sequ":6751,"Ġmeowed":6752,"umble":6753,"Ġleak":6754,"Ġconsequ":6755,"Ġswept":6756,"Ġdisorient":6757,"Ġfixing":6758,"Ġshouts":6759,"Ġgenerosity":6760,"abor":6761,"Ġbelongs":6762,"Ġcaptain":6763,"Ġragged":6764,"Ġlawyer":6765,"Ġperforming":6766,"Ġcharacters":6767,"Ġmechanic":6768,"Ġreason":6769,"Ġfavourite":6770,"ole":6771,"Ġberry":6772,"Ġtonight":6773,"lend":6774,"Ġlosing":6775,"hension":6776,"usive":6777,"Ġshower":6778,"Ġblueberry":6779,"Ġprocess":6780,"Ġjourneyed":6781,"Ġleader":6782,"Ġpresented":6783,"Ġpractices":6784,"Ġshrugged":6785,"whelmed":6786,"Ġachieved":6787,"Ġdirections":6788,"Ġphotos":6789,"Ġsneeze":6790,"Ġripple":6791,"Ġwaffle":6792,"Ġbeetle":6793,"Ġstadium":6794,"Did":6795,"fs":6796,"field":6797,"mons":6798,"vet":6799,"Ġcreek":6800,"ora":6801,"Ġyield":6802,"Ġreci":6803,"raw":6804,"Ġbond":6805,"Ġwhip":6806,"ros":6807,"Ġbraced":6808,"ĠElly":6809,"Ġadj":6810,"Ġadrenaline":6811,"Ġcreation":6812,"Ġslowed":6813,"Ġforgave":6814,"Ġblocking":6815,"Ġbenef":6816,"Ġcultiv":6817,"ĠZoom":6818,"Ġmint":6819,"ĠThough":6820,"Ġsupernatural":6821,"Ġsandcastle":6822,"Ġbillboard":6823,"iques":6824,"Ġrecharge":6825,"Ġpositivity":6826,"Ġconsequences":6827,"miss":6828,"Ġtasks":6829,"Ġoats":6830,"owing":6831,"htray":6832,"Ġash":6833,"Ġlemons":6834,"Ġtrem":6835,"Ġdiss":6836,"ĠCo":6837,"olution":6838,"Ġchecked":6839,"Ġslap":6840,"Ġslipping":6841,"ĠPaul":6842,"Ġproudly":6843,"comm":6844,"Ġconfr":6845,"Ġcurled":6846,"Ġmixer":6847,"Ġsickly":6848,"Ġignored":6849,"Ġscenery":6850,"Ġpinch":6851,"Ġcrowds":6852,"Ġexhausted":6853,"Ġbuzzing":6854,"olutely":6855,"Ġfabric":6856,"Ġstargazing":6857,"All":6858,"tles":6859,"Ġsizes":6860,"ĠSu":6861,"iggly":6862,"Ġaside":6863,"Ġsoaked":6864,"Ġloop":6865,"Ġscal":6866,"Ġcarvings":6867,"ĠJess":6868,"Ġappl":6869,"forest":6870,"Ġharness":6871,"Ġglob":6872,"Ġdistract":6873,"Ġfloated":6874,"Ġsticker":6875,"Ġretreat":6876,"Ġpursuing":6877,"Ġrisks":6878,"Ġfeeding":6879,"Ġbeans":6880,"Ġdefend":6881,"Ġsanctu":6882,"lings":6883,"right":6884,"yss":6885,"Ġtub":6886,"Ġdip":6887,"Ġnone":6888,"ĠSus":6889,"Ġrecomm":6890,"Ġashtray":6891,"ĠBig":6892,"Ġlevel":6893,"arkable":6894,"Ġscrap":6895,"Ġintently":6896,"ĠWould":6897,"Ġabyss":6898,"Ġsurrender":6899,"ĠJames":6900,"ĠJazz":6901,"Ġgrabs":6902,"Ġpoked":6903,"ĠOur":6904,"Ġartwork":6905,"Ġrespite":6906,"Ġdimens":6907,"Ġmotion":6908,"Ġweathered":6909,"Ġgroc":6910,"Ġdarting":6911,"Ġeducation":6912,"Ġritual":6913,"Ġslightly":6914,"Ġduty":6915,"Ġholiday":6916,"Ġstranded":6917,"Ġsanctuary":6918,"Next":6919,"Somet":6920,"Ġwaving":6921,"ingling":6922,"Ġgiraffe":6923,"irm":6924,"Ġforms":6925,"Ġsoaring":6926,"Ġselect":6927,"ĠWhere":6928,"ĠWho":6929,"Ġbookcase":6930,"Ġplanes":6931,"Ġfreeze":6932,"Ġspots":6933,"Ġstreams":6934,"Ġwelcoming":6935,"Ġominously":6936,"Ġcrawling":6937,"Ġscratch":6938,"Ġstrawberries":6939,"awned":6940,"Ġtangled":6941,"Ġrelentlessly":6942,"Ġoyster":6943,"Ow":6944,"Your":6945,"Ġtong":6946,"Ġfading":6947,"Ġcack":6948,"erous":6949,"orious":6950,"Ġinch":6951,"achel":6952,"ĠBounce":6953,"Ġspare":6954,"Ġcopper":6955,"Ġremarkable":6956,"Ġadventurer":6957,"ĠOut":6958,"Ġmarked":6959,"Ġmuscles":6960,"Ġquietly":6961,"Ġcurre":6962,"Ġspoil":6963,"Ġwipe":6964,"Ġinvention":6965,"Ġblinding":6966,"ĠPippin":6967,"roscope":6968,"cher":6969,"ex":6970,"the":6971,"Ġcities":6972,"Ġpushes":6973,"static":6974,"Ġshed":6975,"Ġyawned":6976,"arded":6977,"Ġsadly":6978,"Ġthrows":6979,"Ġunset":6980,"Ġflames":6981,"ola":6982,"Ġeaten":6983,"Ġstepping":6984,"Ġbrain":6985,"Ġfloat":6986,"Ġactually":6987,"ĠGrace":6988,"Ġclaimed":6989,"appy":6990,"Ġsprinted":6991,"Ġmeadows":6992,"Ġsubject":6993,"Ġpulsing":6994,"ĠWilliam":6995,"Ġrepeat":6996,"Ġseemingly":6997,"Ġprivile":6998,"Ġvehicle":6999,"Ġinsignificant":7000,"Feeling":7001,"Grand":7002,"Ġver":7003,"Ġnavy":7004,"ĠSandy":7005,"utation":7006,"ousand":7007,"Ġunha":7008,"Ġunnatural":7009,"Ġens":7010,"Ġdeal":7011,"akable":7012,"Ġpoison":7013,"eterred":7014,"Ġplanning":7015,"Thanks":7016,"Ġpulls":7017,"ĠGr":7018,"Ġsurely":7019,"Ġshaped":7020,"Ġelements":7021,"Ġcaptured":7022,"Ġapolog":7023,"Ġinfinite":7024,"Jimmy":7025,"Ġrevolution":7026,"Ġsituation":7027,"Ġnecessary":7028,"Ġarchit":7029,"Joe":7030,"bra":7031,"rops":7032,"year":7033,"Ġbri":7034,"Ġbared":7035,"reck":7036,"Ġdried":7037,"igi":7038,"rie":7039,"Ġthousand":7040,"ĠLilly":7041,"ĠMars":7042,"ights":7043,"Ġfellow":7044,"Ġforehead":7045,"Ġtease":7046,"Ġgrey":7047,"Ġdarkest":7048,"Ġends":7049,"Ġexplorers":7050,"Ġstaying":7051,"Ġsandbox":7052,"Ġstrip":7053,"Ġresponsibilities":7054,"Ġexamine":7055,"Ġrugged":7056,"Ġbouncing":7057,"Ġfrowned":7058,"Ġenergized":7059,"AS":7060,"Ġze":7061,"Ġtit":7062,"Ġner":7063,"imately":7064,"ĠSte":7065,"acles":7066,"rial":7067,"Ġweig":7068,"Ġasp":7069,"Ġlocket":7070,"Ġshimmered":7071,"Ġprey":7072,"Ġappla":7073,"Ġflipped":7074,"Ġbegged":7075,"Ġdreamt":7076,"Ġperched":7077,"Ġtripping":7078,"Ġalongside":7079,"Ġdelay":7080,"iety":7081,"ably":7082,"Ġsouls":7083,"Ġneighbors":7084,"Ġfishermen":7085,"Ġornate":7086,"Ġinnovative":7087,"Ġtaxi":7088,"Ġunsettling":7089,"ccol":7090,"Ġx":7091,"ouched":7092,"Ġbeep":7093,"acon":7094,"unately":7095,"usole":7096,"Ġages":7097,"Ġdeg":7098,"Ġdeveloped":7099,"ĠFl":7100,"ĠDavid":7101,"Ġtwice":7102,"Ġwarmly":7103,"Ġsnugg":7104,"ĠPolly":7105,"Ġrained":7106,"Ġpromising":7107,"Ġreplace":7108,"Ġmisty":7109,"Ġmausole":7110,"Ġreputation":7111,"Ġurged":7112,"Ġheroes":7113,"Ġexistence":7114,"Ġchatter":7115,"Ġinequ":7116,"Ġtype":7117,"Ġneglect":7118,"Ġsqueeze":7119,"Ġdefeat":7120,"Ġbrief":7121,"Ġzebra":7122,"ccoli":7123,"Mark":7124,"awn":7125,"aws":7126,"Ġlies":7127,"uman":7128,"tern":7129,"Ġcane":7130,"Ġscor":7131,"Ġexped":7132,"ĠEver":7133,"Ġflies":7134,"ĠCuriosity":7135,"Ġcrumbling":7136,"Ġcounts":7137,"Ġplanted":7138,"Ġemerging":7139,"Ġreflected":7140,"Ġhiked":7141,"Ġachieving":7142,"ĠMarie":7143,"Ġstirring":7144,"Ġecstatic":7145,"Ġpulse":7146,"ĠThrough":7147,"ltimately":7148,"Ġsuffoc":7149,"Ġecosystems":7150,"Ġmicroscope":7151,"Ġessential":7152,"Ġpedest":7153,"Ġskeptical":7154,"\",":7155,"Jenny":7156,"Will":7157,"ednes":7158,"eled":7159,"ury":7160,"Ġsoaking":7161,"uge":7162,"Ġcalend":7163,"Ġshaken":7164,"Ġshakes":7165,"Ġconfere":7166,"Ġproduc":7167,"ĠNext":7168,"Ġdelved":7169,"Ġindust":7170,"Ġmailman":7171,"Ġreceive":7172,"Ġjogged":7173,"ĠAlthough":7174,"Ġdecorated":7175,"Ġchatting":7176,"ĠGod":7177,"Ġconvinced":7178,"Ġcolourful":7179,"Ġincantations":7180,"ĠEnglish":7181,"Ġtongue":7182,"ASA":7183,"ednesday":7184,"Ġcalendar":7185,"eed":7186,"jar":7187,"Ġtug":7188,"Ġtoward":7189,"Ġmention":7190,"ĠTilly":7191,"Ġrow":7192,"Ġplays":7193,"Ġintent":7194,"Ġlaid":7195,"Ġhowl":7196,"Ġsteam":7197,"ĠNASA":7198,"erties":7199,"Ġextr":7200,"Ġradi":7201,"Ġgiggle":7202,"Ġproperties":7203,"Ġlimits":7204,"Ġcouple":7205,"Ġadapt":7206,"Ġtremble":7207,"Ġmausoleum":7208,"aven":7209,"rit":7210,"Ġtut":7211,"Ġfile":7212,"Ġlick":7213,"Ġgap":7214,"ĠAbby":7215,"ĠMittens":7216,"Ġbol":7217,"Ġranch":7218,"Ġcalls":7219,"Ġexplorer":7220,"Ġcreak":7221,"Ġsticky":7222,"Ġbeats":7223,"Ġtechnolog":7224,"Ġtechniques":7225,"Ġdisturbed":7226,"Ġvictorious":7227,"Ġcloak":7228,"Ġdisoriented":7229,"Ġdegree":7230,"nings":7231,"Ġtack":7232,"Ġajar":7233,"lled":7234,"Ġbeacon":7235,"Ġisol":7236,"asc":7237,"Ġoverlooking":7238,"elling":7239,"Ġmoves":7240,"Ġgotten":7241,"Ġflight":7242,"Ġharb":7243,"spiring":7244,"Ġhardships":7245,"Ġpassport":7246,"ĠKate":7247,"ĠRu":7248,"ĠRachel":7249,"Ġperfume":7250,"Ġbabbling":7251,"Ġclaim":7252,"Ġdisappearing":7253,"Ġcoats":7254,"Ġflee":7255,"Ġbarks":7256,"ĠGrandpa":7257,"ĠUnder":7258,"Ġsealed":7259,"Ġallowing":7260,"Ġtraditions":7261,"cent":7262,"lier":7263,"Ġtink":7264,"Ġtip":7265,"Ġbang":7266,"Ġcrick":7267,"Ġol":7268,"Ġplain":7269,"Ġspraw":7270,"asm":7271,"Ġcavern":7272,"ĠWiggly":7273,"osing":7274,"Ġpeeling":7275,"Ġcreations":7276,"Ġtalents":7277,"Ġglist":7278,"ĠPapa":7279,"ĠGigi":7280,"Ġrespond":7281,"Ġpounded":7282,"bsolutely":7283,"Ġadmiration":7284,"ĠSpark":7285,"Ġbaker":7286,"Ġlemonade":7287,"Ġroutines":7288,"Ġreefs":7289,"Ġleapt":7290,"Ġinsisted":7291,"Ġargue":7292,"Ġinvigorated":7293,"Ġaudience":7294,"Ġtrekked":7295,"Ġintensified":7296,"Ġpraised":7297,"Ġdoub":7298,"Ġcrickets":7299,"ris":7300,"ĠSe":7301,"Ġformer":7302,"Ġreind":7303,"ĠAbsolutely":7304,"opy":7305,"Ġscold":7306,"Ġexpected":7307,"Ġnearly":7308,"Ġglinting":7309,"Ġraind":7310,"Ġproved":7311,"Ġbroccoli":7312,"Ġcollabor":7313,"ĠGeorge":7314,"Ġattached":7315,"Ġzero":7316,"Ġprints":7317,"Ġthicker":7318,"Ġmaps":7319,"ups":7320,"Ġcherished":7321,"Ġcapturing":7322,"Ġthrowing":7323,"Ġmenu":7324,"Ġdetails":7325,"Ġexpression":7326,"Ġtornado":7327,"cript":7328,"Ġnerves":7329,"Ġindustry":7330,"Ġreindeer":7331,"Whe":7332,"eep":7333,"Ġdied":7334,"Ġple":7335,"atie":7336,"Ġcaused":7337,"ĠWednesday":7338,"Ġgraves":7339,"Ġhollow":7340,"Ġchewed":7341,"Ġpassage":7342,"Ġstudent":7343,"Ġhunger":7344,"Ġclothing":7345,"Ġwisely":7346,"Ġemerge":7347,"Ġmelting":7348,"ĠCarl":7349,"Ġdarted":7350,"Daisy":7351,"During":7352,"Yay":7353,"Yuck":7354,"Ġtrove":7355,"Ġwid":7356,"Ġfart":7357,"Ġfirm":7358,"Ġcure":7359,"Ġdot":7360,"Ġdipped":7361,"Ġlines":7362,"Ġthumb":7363,"Ġweb":7364,"urpr":7365,"Ġsocc":7366,"Ġspade":7367,"These":7368,"Ġoutline":7369,"uments":7370,"Ġmanage":7371,"Ġhardworking":7372,"Ġblueberries":7373,"empt":7374,"Ġpup":7375,"Ġeerily":7376,"Ġadvance":7377,"Ġbattled":7378,"Ġpleasure":7379,"Ġwhales":7380,"Ġinjust":7381,"Ġpersisted":7382,"Ġshifting":7383,"Ġsneezed":7384,"Ġprofess":7385,"ĠCharlie":7386,"Ġtutor":7387,"Ġsoccer":7388,"Curious":7389,"free":7390,"human":7391,"Ġident":7392,"Ġsir":7393,"Ġlull":7394,"Ġphen":7395,"omas":7396,"stal":7397,"Ġstro":7398,"Ġdoomed":7399,"ĠMike":7400,"Ġabs":7401,"ctic":7402,"Ġgreedy":7403,"Ġarr":7404,"Ġcrops":7405,"fortunately":7406,"Ġvalued":7407,"Ġflicker":7408,"Ġnightmares":7409,"Ġsocks":7410,"Ġshifted":7411,"Ġresilient":7412,"Ġmajesty":7413,"Ġknights":7414,"Ġessence":7415,"Ready":7416,"Ġcloaked":7417,"Ġadversity":7418,"Ġraindrops":7419,"Ġphenom":7420,"fire":7421,"tural":7422,"Ġsank":7423,"Ġwreck":7424,"Ġnum":7425,"Ġhob":7426,"onse":7427,"Ġyouth":7428,"ĠBinky":7429,"Ġgirls":7430,"Ġbrook":7431,"Ġovernight":7432,"ĠEnd":7433,"Ġopera":7434,"Ġadding":7435,"Ġquiz":7436,"Ġtrained":7437,"Ġflowed":7438,"Ġslim":7439,"Ġbadly":7440,"Ġmarble":7441,"aterrest":7442,"Ġrabbits":7443,"Ġresponse":7444,"Ġfiref":7445,"Ġfirework":7446,"Ġbarri":7447,"Ġpinks":7448,"Ġpursued":7449,"Ġseries":7450,"Ġrobes":7451,"ĠFreddy":7452,"Ġjudges":7453,"laimed":7454,"Ġresource":7455,"Ġhorns":7456,"Ġremains":7457,"Ġmaster":7458,"Ġproper":7459,"Ġwarnings":7460,"Ġrequest":7461,"Ġinterconnectedness":7462,"Ġguttural":7463,"Sometimes":7464,"Ġextraterrest":7465,"Ġharbor":7466,"Ġsprawling":7467,"Ġnumerous":7468,"avering":7469,"inspiring":7470,"Ġmall":7471,"Ġporing":7472,"ithing":7473,"Ġroo":7474,"ĠHave":7475,"Ġthud":7476,"Ġreact":7477,"ults":7478,"agged":7479,"Ġlaz":7480,"astical":7481,"Ġagony":7482,"Ġovert":7483,"Ġprune":7484,"Ġlonging":7485,"Ġcarefree":7486,"Ġcompelled":7487,"Ġwrithing":7488,"ĠRo":7489,"Ġbreaths":7490,"rences":7491,"Ġrefuge":7492,"Ġroads":7493,"Ġstriving":7494,"Ġengulf":7495,"Ġevidence":7496,"Ġsubst":7497,"Ġaddress":7498,"Ġpiles":7499,"Ġexhaust":7500,"Ġbumped":7501,"Ġfantastical":7502,"Ġoccurrences":7503,"Ġoppressive":7504,"Ġpedestal":7505,"Ġextraterrestrial":7506,"ana":7507,"Ġhers":7508,"Ġdod":7509,"ĠAr":7510,"Ġsecl":7511,"ĠMe":7512,"Ġsport":7513,"Ġscore":7514,"Ġcheek":7515,"shop":7516,"ĠNot":7517,"Ġfloors":7518,"ertips":7519,"coming":7520,"Ġriverb":7521,"Ġfingertips":7522,"Ġpursuit":7523,"haring":7524,"Ġpunish":7525,"Ġnavigated":7526,"Ġinstincts":7527,"Ġfeatures":7528,"Ġcultivate":7529,"Ġunhappy":7530,"Ġbolted":7531,"Ġsecluded":7532,"Even":7533,"Not":7534,"Sh":7535,"iers":7536,"uzz":7537,"val":7538,"Ġsib":7539,"Ġtore":7540,"Ġhitting":7541,"unate":7542,"Ġloving":7543,"Ġshown":7544,"rying":7545,"Ġalthough":7546,"Ġcanopy":7547,"Ġvic":7548,"Ġbrid":7549,"Ġpred":7550,"arable":7551,"Ġcontem":7552,"Ġgardens":7553,"Ġuntouched":7554,"queaky":7555,"Ġresult":7556,"Ġlayer":7557,"Ġclapping":7558,"uggage":7559,"Ġgenie":7560,"Ġprinted":7561,"works":7562,"Ġincredibly":7563,"Ġmatched":7564,"Ġserved":7565,"Ġtapest":7566,"Ġpatients":7567,"Ġtunnels":7568,"Ġthriving":7569,"Ġdamage":7570,"Ġsimplest":7571,"Ġapparition":7572,"ĠSusie":7573,"Ġcontempl":7574,"Buddy":7575,"Yet":7576,"bies":7577,"ral":7578,"Ġir":7579,"Ġast":7580,"Ġsides":7581,"Ġdw":7582,"Ġdise":7583,"Ġluggage":7584,"idation":7585,"ads":7586,"ura":7587,"Ġroamed":7588,"usion":7589,"Ġdoorway":7590,"Ġrested":7591,"Ġbravely":7592,"Ġearlier":7593,"Ġmattered":7594,"abella":7595,"Ġintern":7596,"Ġwhistled":7597,"Ġgleaming":7598,"Ġwidened":7599,"Ġlazily":7600,"iki":7601,"pair":7602,"ux":7603,"Ġmut":7604,"Ġdie":7605,"ĠHelp":7606,"Ġforming":7607,"Ġshudd":7608,"Ġstartled":7609,"Ġunif":7610,"Ġmoan":7611,"Ġlearnt":7612,"Ġrang":7613,"Ġbother":7614,"Ġflock":7615,"Ġcontra":7616,"Ġyounger":7617,"ancing":7618,"ĠKing":7619,"ĠRos":7620,"itches":7621,"Ġeasier":7622,"Ġsweetheart":7623,"Ġhopeful":7624,"Ġperfecting":7625,"Ġpoints":7626,"Ġscreaming":7627,"Ġshivered":7628,"Ġseats":7629,"hold":7630,"Ġsustainability":7631,"Ġsprayed":7632,"Ġsorting":7633,"Ġenthusiasm":7634,"ĠClara":7635,"Ġbricks":7636,"ĠJulie":7637,"Ġexhilarated":7638,"ĠOlive":7639,"Ġsandcastles":7640,"Ġunwavering":7641,"ĠShad":7642,"Ġsilhouette":7643,"Ġscales":7644,"ĠJessica":7645,"go":7646,"Ġack":7647,"Ġfund":7648,"Ġpanda":7649,"Ġheels":7650,"Ġhing":7651,"otten":7652,"riage":7653,"Ġformed":7654,"ĠBow":7655,"ify":7656,"Ġscooped":7657,"ĠFr":7658,"Ġexclaimed":7659,"Ġpolic":7660,"Ġdespair":7661,"Ġprod":7662,"Ġprove":7663,"Ġbrand":7664,"Ġhorri":7665,"bris":7666,"Ġattempt":7667,"Ġschol":7668,"Ġwagging":7669,"ĠZara":7670,"rolled":7671,"Ġtentacles":7672,"Ġsavored":7673,"Ġintroduce":7674,"Ġmedical":7675,"Ġpossessed":7676,"Ġembracing":7677,"Ġsuffocating":7678,"Ġrooft":7679,"Ġsiblings":7680,"Ġuniform":7681,"Ġacknow":7682,"Ġpolicies":7683,"uous":7684,"Ġbomb":7685,"Ġwaking":7686,"Ġpets":7687,"lling":7688,"Ġbears":7689,"ĠHoppy":7690,"Ġplates":7691,"Ġmember":7692,"umes":7693,"Ġdebris":7694,"ĠChe":7695,"atherine":7696,"Ġdrinking":7697,"Ġpub":7698,"Ġsumm":7699,"Ġpresents":7700,"Ġliterature":7701,"Ġpools":7702,"Ġtrusty":7703,"Ġrisk":7704,"Ġlifeless":7705,"Ġruler":7706,"Ġeffects":7707,"Ġtombstones":7708,"Ġlimit":7709,"Ġmaterials":7710,"Ġgraduated":7711,"Ġsnarling":7712,"urprise":7713,"Ġexhaustion":7714,"Ġriverbank":7715,"Ġhinges":7716,"bited":7717,"pow":7718,"ueling":7719,"Ġtale":7720,"Ġwigg":7721,"Ġfed":7722,"Ġhen":7723,"ari":7724,"ĠSund":7725,"Ġyucky":7726,"Ġatop":7727,"Ġexce":7728,"Ġwhose":7729,"mbers":7730,"Ġfollows":7731,"ĠPenny":7732,"Ġrainy":7733,"Ġtribe":7734,"rowth":7735,"Ġvisitors":7736,"Ġmarks":7737,"Ġwits":7738,"Ġbathed":7739,"Ġfiery":7740,"Ġethere":7741,"Ġrelaxed":7742,"Ġsuffering":7743,"Daddy":7744,"Ġadvocating":7745,"Ġmindfulness":7746,"Ġsqueezed":7747,"Ġincrease":7748,"forgotten":7749,"Ġdiscuss":7750,"Ann":7751,"Ġbudge":7752,"ĠCoco":7753,"Ġbridges":7754,"Un":7755,"aunt":7756,"Ġaura":7757,"Ġstark":7758,"ented":7759,"Ġrapid":7760,"Ġwea":7761,"Ġweep":7762,"ĠLucky":7763,"Ġmyth":7764,"ĠBecause":7765,"Ġvital":7766,"Ġgrazing":7767,"Ġflas":7768,"Ġwinds":7769,"Ġgrowled":7770,"Ġviews":7771,"Ġgripped":7772,"Ġnurt":7773,"Ġfortunate":7774,"Ġexpertise":7775,"Ġinvigorating":7776,"Ġflavor":7777,"Ġswirling":7778,"Ġdimension":7779,"Ġtackle":7780,"Ġethereal":7781,"Mimi":7782,"growth":7783,"made":7784,"ners":7785,"pan":7786,"while":7787,"Ġvel":7788,"Ġaim":7789,"Ġcy":7790,"Ġpang":7791,"anna":7792,"ĠSee":7793,"ĠHope":7794,"Ġyawn":7795,"Ġjail":7796,"Ġworms":7797,"Ġshined":7798,"Ġwhipped":7799,"Ġleast":7800,"Ġalike":7801,"Ġclam":7802,"Ġpeering":7803,"Ġoverl":7804,"olis":7805,"Ġhurting":7806,"Ġriches":7807,"Ġprotection":7808,"Ġattend":7809,"Ġwinner":7810,"Ġconsume":7811,"ĠFinn":7812,"ĠBeing":7813,"Ġinfect":7814,"Ġmeasured":7815,"Ġsnail":7816,"Ġbeasts":7817,"Ġcontribute":7818,"Ġblindly":7819,"...":7820,"ropolis":7821,"Ġitems":7822,"Ġdissip":7823,"Ġarchitecture":7824,"Ġslimy":7825,"Ġshuddered":7826,"hift":7827,"liz":7828,"pidation":7829,"wo":7830,"hants":7831,"Ġhectic":7832,"ĠSqueaky":7833,"Ġjazz":7834,"Ġtrepidation":7835,"Ġloose":7836,"Ġvroom":7837,"Ġenvelop":7838,"Ġundergrowth":7839,"Ġbegins":7840,"Ġimpro":7841,"Ġdistorted":7842,"Ġmetropolis":7843,"Ġpermit":7844,"ĠRemember":7845,"Ġcommit":7846,"ĠJohnson":7847,"Ġmakeshift":7848,"Ġtestament":7849,"Ġobserved":7850,"Ġhallways":7851,"Ġjogging":7852,"Ġmassage":7853,"Ġstealing":7854,"Ġmusicians":7855,"Ġemotion":7856,"Ġfolded":7857,"Ġpeaks":7858,"ĠFollow":7859,"ĠSnowy":7860,"Ġpublished":7861,"ĠSmith":7862,"Ġrecommend":7863,"Ġsnuggled":7864,"Because":7865,"Ella":7866,"came":7867,"hmed":7868,"kins":7869,"Ġwest":7870,"Ġfet":7871,"erris":7872,"Ġpies":7873,"icer":7874,"Ġhissed":7875,"Ġbold":7876,"ista":7877,"Ġovercame":7878,"Ġwatered":7879,"Ġcub":7880,"Ġsnakes":7881,"Ġclimbs":7882,"Ġvoid":7883,"Ġraining":7884,"Ġacted":7885,"Ġkeys":7886,"Ġforgetting":7887,"Ġpotion":7888,"Ġwinning":7889,"Ġrounded":7890,"Ġchilling":7891,"Ġelephants":7892,"Ġclowns":7893,"Ġsupposed":7894,"Ġsuffer":7895,"Ġstuffed":7896,"Ġinstruments":7897,"ĠMillfield":7898,"Ġnearest":7899,"ĠFroggy":7900,"Ġrecipes":7901,"Ġscorching":7902,"Ġtechnologies":7903,"Ġpublic":7904,"Surprise":7905,"gency":7906,"iance":7907,"hand":7908,"Ġcore":7909,"Ġobe":7910,"Ġlux":7911,"isions":7912,"isible":7913,"Ġinhuman":7914,"Ġkicking":7915,"ĠAb":7916,"Ġbolt":7917,"anting":7918,"Ġlapping":7919,"Ġuns":7920,"Ġunited":7921,"Ġblocked":7922,"Ġours":7923,"mbled":7924,"Ġsliding":7925,"uffling":7926,"Ġremembering":7927,"ĠKiki":7928,"Ġcrabs":7929,"Ġpurcha":7930,"Ġvisions":7931,"Ġfearless":7932,"Ġsolo":7933,"Ġfarmers":7934,"Ġschools":7935,"Ġindeed":7936,"Ġrecoiled":7937,"Ġorganizing":7938,"Ġpigs":7939,"Overwhelmed":7940,"ĠSpe":7941,"Ġera":7942,"Ġmedia":7943,"Ġrescued":7944,"Ġinnoc":7945,"Ġemotional":7946,"Ġlegendary":7947,"Ġcurtains":7948,"Ġtradition":7949,"Ġcryptic":7950,"Ġlaunch":7951,"Ġblessings":7952,"Ġactivities":7953,"Ġconfront":7954,"Ġinequality":7955,"Ġsubstance":7956,"Ġrooftop":7957,"bu":7958,"ron":7959,"ino":7960,"inable":7961,"Ġdaisy":7962,"Ġlan":7963,"ĠSharing":7964,"ulpt":7965,"Ġscree":7966,"Ġsculpt":7967,"Ġabo":7968,"Ġgravest":7969,"Ġhovering":7970,"Ġglimmering":7971,"Ġmarriage":7972,"Ġinvisible":7973,"Ġdrifted":7974,"Ġbeliefs":7975,"rowing":7976,"Ġinstantly":7977,"Ġdedicate":7978,"Ġreconnect":7979,"Ġselfless":7980,"Ġseaside":7981,"Ġtesting":7982,"Ġproviding":7983,"Ġtransl":7984,"Ġvalleys":7985,"ĠThomas":7986,"Ġthreatening":7987,"Ġrewarded":7988,"Ġraging":7989,"Ġdesperation":7990,"Ġjudgement":7991,"Ġgalleries":7992,"Ġrequire":7993,"Ġgrocery":7994,"Ġobey":7995,"ĠSpeedy":7996,"Ġbank":7997,"inging":7998,"igail":7999,"utions":8000,"ĠLola":8001,"terday":8002,"Ġlaby":8003,"Ġexplo":8004,"Ġamuse":8005,"Ġchilly":8006,"Ġflapped":8007,"Ġquality":8008,"ivia":8009,"Ġgrowls":8010,"Ġrestored":8011,"Ġguided":8012,"Ġtallest":8013,"Ġprinter":8014,"Ġwags":8015,"Ġawake":8016,"Ġdawn":8017,"Ġearthqu":8018,"Ġbloomed":8019,"Ġcivilizations":8020,"Ġamongst":8021,"Ġperformance":8022,"Ġmischie":8023,"Everyone":8024,"Ġcustoms":8025,"retched":8026,"Ġpressing":8027,"Ġinexp":8028,"Ġbeginnings":8029,"rinth":8030,"Ġrejuvenated":8031,"Ġoperation":8032,"Ġadjusted":8033,"Grandma":8034,"Ġexpedition":8035,"Ġcontrast":8036,"ĠSunday":8037,"Ġlantern":8038,"Ġlabyrinth":8039,"Ġamusement":8040,"dre":8041,"lift":8042,"thank":8043,"wise":8044,"ĠYes":8045,"hend":8046,"Ġmuddy":8047,"oto":8048,"Ġbeard":8049,"Ġstalking":8050,"Ġonline":8051,"Ġuplift":8052,"Ġjagged":8053,"Ġoutst":8054,"Ġalright":8055,"Ġknelt":8056,"Ġlaws":8057,"qued":8058,"Ġtearing":8059,"Ġshowcase":8060,"âĢĶ":8061,"azed":8062,"ĠPer":8063,"ĠPat":8064,"Ġrainforest":8065,"ĠNature":8066,"Ġmonstr":8067,"Ġcreep":8068,"Ġguiding":8069,"Ġreturning":8070,"Ġsolving":8071,"Ġsprang":8072,"Ġpiqued":8073,"Ġtrips":8074,"Ġdeserts":8075,"Ġdirectly":8076,"Ġpraying":8077,"Ġinhabited":8078,"Ġhomeless":8079,"Ġfortune":8080,"Ġbleed":8081,"Ġeternal":8082,"Ġexhilarating":8083,"Ġinstruct":8084,"Ġgroaned":8085,"Ġgesture":8086,"Ġweighed":8087,"Ġmonstrous":8088,"Bl":8089,"ram":8090,"Ġtuna":8091,"Ġlecture":8092,"ĠTues":8093,"ĠSat":8094,"acob":8095,"Ġspill":8096,"Ġclust":8097,"Ġscri":8098,"Ġvet":8099,"Ġvul":8100,"elle":8101,"Ġtrink":8102,"Ġblast":8103,"ĠPrin":8104,"Ġkeeps":8105,"Ġbeds":8106,"Ġdrown":8107,"Ġsits":8108,"Ġwarri":8109,"Ġsolutions":8110,"Ġdestined":8111,"Ġmixing":8112,"Ġwiser":8113,"Ġtrails":8114,"Ġsensed":8115,"Ġmelodies":8116,"Ġswayed":8117,"Ġexpecting":8118,"Ġinnovation":8119,"Ġdefeated":8120,"Ġclutched":8121,"Ġsketching":8122,"Ġscurrying":8123,"Ġswallowed":8124,"Ġvictory":8125,"Ġinfectious":8126,"Ġinexplic":8127,"ĠTuesday":8128,"ĠSatur":8129,"Mon":8130,"ds":8131,"ixt":8132,"Ġheel":8133,"Ġinit":8134,"ĠSky":8135,"otion":8136,"sel":8137,"Ġforced":8138,"istic":8139,"Ġunp":8140,"ational":8141,"thur":8142,"Ġcontorted":8143,"bbled":8144,"Ġgrounding":8145,"Ġglory":8146,"Ġplans":8147,"Ġadventurers":8148,"ĠNana":8149,"Ġcountries":8150,"ĠOwl":8151,"ĠRock":8152,"Ġmarried":8153,"Ġpatience":8154,"Ġrecy":8155,"Ġencountering":8156,"Ġsupportive":8157,"Ġtroubles":8158,"Ġorganizations":8159,"Ġwhistling":8160,"Ġmirrors":8161,"Ġneighbour":8162,"Ġavoid":8163,"ubbles":8164,"Ġstunned":8165,"Ġdesperately":8166,"Ġpossessions":8167,"Ġpedal":8168,"Ġincreasing":8169,"Ġflavors":8170,"Ġfluttering":8171,"Ġsacrif":8172,"Ġcorpor":8173,"Ġdistractions":8174,"ĠRuby":8175,"Ġtapestry":8176,"Ġearthquake":8177,"Ġoutstretched":8178,"Ġvulner":8179,"Bella":8180,"Fred":8181,"Mar":8182,"vous":8183,"Ġoh":8184,"Ġmund":8185,"Ġstal":8186,"Ġdaydre":8187,"Ġlip":8188,"ĠLizzy":8189,"Ġallows":8190,"Ġspices":8191,"Ġknees":8192,"Ġdownstairs":8193,"Ġpebbles":8194,"Ġunspe":8195,"Ġopin":8196,"Ġcontest":8197,"Ġripped":8198,"Ġcovers":8199,"Ġsolution":8200,"Ġprick":8201,"Ġsupported":8202,"Ġorganization":8203,"Ġgemstone":8204,"ribed":8205,"undred":8206,"Ġafternoons":8207,"Ġprojects":8208,"Ġlatte":8209,"Ġprospect":8210,"Ġcomprehension":8211,"Leo":8212,"ĠSuzy":8213,"Ġglobe":8214,"Ġcurrent":8215,"Ġglistening":8216,"Ġscolded":8217,"Ġmischievous":8218,"bid":8219,"copes":8220,"mind":8221,"Ġfac":8222,"Ġfumbled":8223,"Ġmain":8224,"Ġmice":8225,"Ġmaint":8226,"Ġnon":8227,"Ġge":8228,"ids":8229,"idents":8230,"rily":8231,"Ġweeds":8232,"ĠAhmed":8233,"ueen":8234,"Ġcaves":8235,"Ġintention":8236,"Ġexpand":8237,"Ġunnot":8238,"Ġgrueling":8239,"ĠEliz":8240,"Ġdew":8241,"Ġturtles":8242,"Ġteaches":8243,"Ġskyline":8244,"Ġhost":8245,"Ġsettling":8246,"ĠCatherine":8247,"olving":8248,"Ġgrounded":8249,"Ġslapped":8250,"Ġsands":8251,"ĠKatie":8252,"Ġembers":8253,"Ġobsess":8254,"Ġconser":8255,"Ġconsider":8256,"Ġclearly":8257,"Ġmatted":8258,"Ġurging":8259,"Ġnervously":8260,"Ġerupted":8261,"Ġcircled":8262,"Ġrecording":8263,"Ġmushrooms":8264,"Ġdeciphering":8265,"ĠClimate":8266,"Ġwounds":8267,"Ġnavigating":8268,"Ġtwirled":8269,"Ġdesigning":8270,"Ġmalice":8271,"Ġtitle":8272,"Ġproduct":8273,"Ġscholars":8274,"ĠSaturday":8275,"Ġunspeakable":8276,"Ġunnoticed":8277,"pare":8278,"Ġsix":8279,"Ġhundred":8280,"ĠMilly":8281,"Ġmembers":8282,"Ġwanting":8283,"Ġspect":8284,"Ġremoved":8285,"ĠDave":8286,"Ġquack":8287,"ountable":8288,"Ġobl":8289,"Ġheading":8290,"ĠRed":8291,"Ġgrandpare":8292,"Ġhealed":8293,"Ġtouching":8294,"Ġzigzag":8295,"Ġeagle":8296,"Ġsprink":8297,"Ġseasons":8298,"Ġhonking":8299,"Ġdrinks":8300,"Ġmadness":8301,"Ġkisses":8302,"Ġportra":8303,"ĠAli":8304,"Ġgracefully":8305,"Ġinclude":8306,"Ġtelescopes":8307,"Ġdiamonds":8308,"Ġeducate":8309,"ounced":8310,"Ġcomprehend":8311,"Ġdesigned":8312,"Ġprevious":8313,"Ġscanned":8314,"Ġprivilege":8315,"Ġtinkering":8316,"Ġmundane":8317,"minded":8318,"Ha":8319,"gain":8320,"oves":8321,"rim":8322,"Ġsorted":8323,"Ġborn":8324,"Ġcasc":8325,"Ġmister":8326,"Ġmama":8327,"Ġhaven":8328,"Ġstumble":8329,"Ġaspect":8330,"Ġdoom":8331,"ĠBubbles":8332,"Ġfeared":8333,"ĠWalking":8334,"aster":8335,"Ġstray":8336,"Ġskies":8337,"Ġrealization":8338,"ĠDan":8339,"Ġcleared":8340,"Ġgloves":8341,"Ġpaints":8342,"Ġperhaps":8343,"Ġretrie":8344,"Ġguest":8345,"ĠDog":8346,"ĠGood":8347,"Ġtastes":8348,"Ġshores":8349,"Ġviolent":8350,"Ġmouths":8351,"Ġinvestig":8352,"Ġrecognizing":8353,"Ġparticip":8354,"Ġcommunicating":8355,"Ġinclusive":8356,"Ġsystems":8357,"Ġinev":8358,"Ġhabitats":8359,"ĠIsabella":8360,"Ġdisagree":8361,"Ġweekends":8362,"Ġimmersed":8363,"Ġapplaud":8364,"Ġbarriers":8365,"Ġbombarded":8366,"Ġinstructions":8367,"fishing":8368,"mm":8369,"uity":8370,"erted":8371,"verted":8372,"Ġsheets":8373,"ĠHarry":8374,"ĠMic":8375,"Ġlogs":8376,"Ġpeaches":8377,"Ġsuns":8378,"Ġamount":8379,"ction":8380,"Ġflat":8381,"Ġrocking":8382,"Ġarc":8383,"Ġcolours":8384,"Ġlanding":8385,"ĠPip":8386,"Ġmessages":8387,"Ġdresses":8388,"Ġpurples":8389,"Ġlasting":8390,"ĠFinny":8391,"uctantly":8392,"Ġresponsible":8393,"Ġmirac":8394,"Ġmirage":8395,"Ġvegetable":8396,"Ġbouncy":8397,"Ġtyp":8398,"ĠAmong":8399,"Ġassist":8400,"Ġconcern":8401,"Ġheavily":8402,"Ġselected":8403,"Ġlicks":8404,"Ġdotted":8405,"Ġhobby":8406,"Ġresourceful":8407,"ĠAbigail":8408,"Ġaboard":8409,"Woof":8410,"ker":8411,"lo":8412,"od":8413,"pic":8414,"Ġtingling":8415,"Ġpanting":8416,"Ġhy":8417,"ĠSun":8418,"Ġplag":8419,"elia":8420,"Ġneared":8421,"Ġspar":8422,"ardless":8423,"Ġexchan":8424,"Ġkindly":8425,"Ġtownspe":8426,"Ġexperts":8427,"Ġjourneys":8428,"Ġbabies":8429,"Ġlocated":8430,"Ġshops":8431,"Ġruin":8432,"Ġhits":8433,"Ġsparkle":8434,"Ġhonor":8435,"Ġcape":8436,"Ġguarded":8437,"Ġcharity":8438,"Ġchatted":8439,"Ġsorceress":8440,"Ġmesmerizing":8441,"Ġvelvet":8442,"Ġtownspeople":8443,"Peter":8444,"ler":8445,"wood":8446,"ndown":8447,"rence":8448,"Ġmult":8449,"ĠToto":8450,"Ġhour":8451,"alities":8452,"Ġhist":8453,"Ġhappiest":8454,"ĠBop":8455,"Ġintrig":8456,"Ġotherwise":8457,"Ġbru":8458,"Ġthrown":8459,"Ġoverfishing":8460,"Ġbliss":8461,"Ġflap":8462,"Ġpod":8463,"Ġtrapping":8464,"Ġdistress":8465,"Ġgrassy":8466,"Ġshopping":8467,"Ġdraws":8468,"Ġzipped":8469,"Ġsummon":8470,"Ġrundown":8471,"abeth":8472,"Ġcontented":8473,"Ġlifting":8474,"Ġregained":8475,"Ġbalc":8476,"Ġthrilling":8477,"Ġpatiently":8478,"Ġaccompan":8479,"Ġzookeeper":8480,"Ġoppos":8481,"Ġclutching":8482,"Ġpoems":8483,"Ġtriumphs":8484,"Ġnearer":8485,"ĠQueen":8486,"exist":8487,"Ġensuring":8488,"Ġengulfed":8489,"ĠArthur":8490,"annah":8491,"Ġgravestones":8492,"Ġtrinkets":8493,"Ġmaintain":8494,"Lena":8495,"ginal":8496,"ippy":8497,"lit":8498,"Ġwitches":8499,"Ġhumbled":8500,"storm":8501,"Ġstained":8502,"vere":8503,"Ġlily":8504,"indy":8505,"ĠMel":8506,"ula":8507,"Ġnostal":8508,"Ġconqu":8509,"Ġunity":8510,"Ġmold":8511,"ĠFear":8512,"Ġdecades":8513,"Ġteen":8514,"olve":8515,"Ġdraped":8516,"Ġfullest":8517,"Ġvisible":8518,"Ġpromote":8519,"Ġleaders":8520,"Ġcompleted":8521,"Ġcontents":8522,"ĠZor":8523,"Ġworthwhile":8524,"Ġavo":8525,"Ġsafari":8526,"Ġpeeking":8527,"Ġintroverted":8528,"Ġhunting":8529,"Ġdescri":8530,"Ġtexture":8531,"Ġembarrass":8532,"Ġmermaids":8533,"ĠOlivia":8534,"Ġunicorns":8535,"Ġinsistent":8536,"ĠMillie":8537,"Ġdeveloping":8538,"Ġlaunched":8539,"Ġpeanuts":8540,"Ġaspiring":8541,"ĠRosie":8542,"Ġcommitment":8543,"Ġsacrifice":8544,"Ġvulnerable":8545,"Ġnostalg":8546,"Bird":8547,"Ch":8548,"Lisa":8549,"Would":8550,"nam":8551,"Ġsore":8552,"Ġsus":8553,"Ġwaft":8554,"Ġwaded":8555,"Ġdazz":8556,"atched":8557,"ators":8558,"Ġbefriend":8559,"Ġstale":8560,"Ġraged":8561,"Ġropes":8562,"Ġwhirl":8563,"uming":8564,"Ġroaring":8565,"Ġcoexist":8566,"Ġscroll":8567,"Ġmane":8568,"Ġgovern":8569,"Ġdeco":8570,"ĠJacob":8571,"oline":8572,"Ġglinted":8573,"Ġglint":8574,"Ġslice":8575,"Ġwrist":8576,"beat":8577,"Ġstopping":8578,"Ġjoyful":8579,"Ġmarginal":8580,"Ġfireman":8581,"Ġtails":8582,"Ġempow":8583,"Ġsnowball":8584,"Ġcelebration":8585,"Ġastronomers":8586,"Ġcampa":8587,"ĠAnnie":8588,"Ġgiggling":8589,"Ġsoldiers":8590,"Ġrumored":8591,"Ġastronauts":8592,"Ġmillions":8593,"Ġunfold":8594,"Ġruled":8595,"Ġsatisfied":8596,"Remy":8597,"Ġwillingness":8598,"Ġappearance":8599,"friendly":8600,"Ġdisagreed":8601,"mission":8602,"Ġphenomen":8603,"Months":8604,"Ġbalcony":8605,"Ġopposite":8606,"aves":8607,"gment":8608,"Ġsire":8609,"hast":8610,"hael":8611,"isman":8612,"oral":8613,"Ġnom":8614,"Ġghast":8615,"enty":8616,"Ġonwards":8617,"Ġreass":8618,"Ġkites":8619,"gets":8620,"ĠWally":8621,"osh":8622,"Ġtreehouse":8623,"Ġbrushes":8624,"Ġconcre":8625,"icky":8626,"Ġadult":8627,"ildren":8628,"ĠDanny":8629,"Ġhoot":8630,"spired":8631,"Ġcheering":8632,"Ġtalisman":8633,"ĠOf":8634,"Ġplanting":8635,"Ġdripping":8636,"Ġfireworks":8637,"Ġterrit":8638,"Ġzones":8639,"Ġbites":8640,"Ġsolar":8641,"Ġresearcher":8642,"Ġintervie":8643,"Ġcrossing":8644,"ĠBee":8645,"Ġsafer":8646,"Ġnursing":8647,"Ġmeditation":8648,"Ġenchanting":8649,"Ġfocusing":8650,"Ġsigned":8651,"Ġpotatoes":8652,"Ġacorns":8653,"Ġundead":8654,"ĠOliver":8655,"Ġbrowsed":8656,"Ġgrinned":8657,"Ġpunished":8658,"Ġoptim":8659,"Ġbenefits":8660,"ĠSteve":8661,"Blue":8662,"Ġgrandparents":8663,"Ġphenomenon":8664,"Ġsiren":8665,"Ġghastly":8666,"Ġconcrete":8667,"duous":8668,"Ġimb":8669,"Ġtended":8670,"Ġserv":8671,"Ġmort":8672,"Ġpounce":8673,"ĠTur":8674,"orus":8675,"Ġgaunt":8676,"atiable":8677,"ĠBook":8678,"ulous":8679,"ager":8680,"ckets":8681,"Ġven":8682,"Ġvow":8683,"Ġabund":8684,"Ġkneeled":8685,"Ġstrings":8686,"Ġgoods":8687,"Ġdecisions":8688,"Ġchorus":8689,"Ġpockets":8690,"Ġarduous":8691,"Ġpeacefully":8692,"Ġdonating":8693,"Ġwaits":8694,"Ġcolored":8695,"Ġhealer":8696,"iber":8697,"Ġpotions":8698,"Ġsailors":8699,"Ġdedicating":8700,"Ġpetted":8701,"Ġinsatiable":8702,"Ġtemperature":8703,"Ġfoggy":8704,"Ġexamining":8705,"Ġdecorations":8706,"Ġfragility":8707,"Ġrumble":8708,"Ġescaping":8709,"Ġdisconnect":8710,"Ġnegative":8711,"Ġmurky":8712,"ĠFox":8713,"Ġencouragement":8714,"hearted":8715,"Ġbasic":8716,"Ġfragrance":8717,"Ġfarther":8718,"Ġinjustice":8719,"Ġrapidly":8720,"Ġmythical":8721,"Ġluxury":8722,"Ġcluster":8723,"Ġinexplicable":8724,"ixture":8725,"Ġnostalgia":8726,"Fo":8727,"Intrigued":8728,"Ok":8729,"down":8730,"phan":8731,"ruck":8732,"ware":8733,"Ġiv":8734,"Ġeth":8735,"Ġwed":8736,"ints":8737,"Ġmood":8738,"enuity":8739,"orded":8740,"Ġinher":8741,"ĠSh":8742,"Ġsticking":8743,"Ġrasp":8744,"Ġplat":8745,"Ġweeping":8746,"umst":8747,"usty":8748,"Ġcode":8749,"Ġves":8750,"Ġwhoever":8751,"ĠEur":8752,"Ġorphan":8753,"Ġdism":8754,"aker":8755,"angs":8756,"Ġgreatness":8757,"Ġstead":8758,"Ġstoryt":8759,"Ġheadstones":8760,"ĠRay":8761,"Ġactively":8762,"Ġclawing":8763,"Ġgroups":8764,"Ġpastel":8765,"Ġcollective":8766,"Ġconflic":8767,"Ġcaptiv":8768,"Ġdevour":8769,"Ġcampfire":8770,"Ġfiltered":8771,"Ġcondition":8772,"Ġjudgment":8773,"uddles":8774,"Ġmelod":8775,"Ġhunted":8776,"Ġmedit":8777,"Ġphysically":8778,"Ġbusinesses":8779,"Ġcircumst":8780,"Ġvolunteer":8781,"Ġrhythmic":8782,"Ġingenuity":8783,"Ġexhilaration":8784,"Ġfueled":8785,"Ġrepeated":8786,"Ġsketch":8787,"Ġscanning":8788,"Ġexhibition":8789,"Ġapplause":8790,"Ġmentioned":8791,"Ġsummoned":8792,"Ġaimlessly":8793,"Ġscholarship":8794,"gainst":8795,"Ġdazzling":8796,"Ġmarginalized":8797,"cling":8798,"lost":8799,"mous":8800,"Ġta":8801,"Ġwob":8802,"Ġbun":8803,"Ġbattered":8804,"Ġwaist":8805,"Ġhearing":8806,"Ġheaven":8807,"ishes":8808,"isdom":8809,"acific":8810,"rian":8811,"vey":8812,"Ġonward":8813,"Ġrely":8814,"ĠLater":8815,"Ġanom":8816,"ĠBaby":8817,"gettable":8818,"Ġsched":8819,"Ġbrushing":8820,"Ġparks":8821,"Ġunfor":8822,"ĠEd":8823,"Ġgoodness":8824,"ishy":8825,"Ġcares":8826,"Ġwatches":8827,"ĠDr":8828,"Ġponder":8829,"umpt":8830,"Ġdarkened":8831,"Ġairpl":8832,"Ġglimmered":8833,"Ġslick":8834,"Ġattending":8835,"Ġsyn":8836,"Ġbowed":8837,"Ġbusyness":8838,"Ġrecently":8839,"Ġrecorded":8840,"Ġdepic":8841,"Ġsisters":8842,"Ġinterr":8843,"Ġvanish":8844,"Ġinserted":8845,"Ġchills":8846,"Ġequality":8847,"Ġclasses":8848,"Ġyearned":8849,"Ġdesigner":8850,"Ġcommunication":8851,"Ġrewarding":8852,"Ġscratched":8853,"Ġcostumes":8854,"Ġcustomer":8855,"Ġvariety":8856,"Ġperformed":8857,"Ġmurm":8858,"Ġintensity":8859,"Ġ15":8860,"Ġsimpler":8861,"ĠQu":8862,"Ġfetch":8863,"rimination":8864,"Ġunforgettable":8865,"Word":8866,"eks":8867,"hill":8868,"zens":8869,"Ġtumbled":8870,"Ġfangs":8871,"itched":8872,"Ġmixture":8873,"Ġlitt":8874,"isure":8875,"Ġgad":8876,"Ġstall":8877,"Ġforbid":8878,"ĠMandy":8879,"Ġweren":8880,"Ġloss":8881,"Ġworthy":8882,"Ġleisure":8883,"aging":8884,"Ġclick":8885,"ĠWas":8886,"estruck":8887,"Ġoverpow":8888,"Ġwatering":8889,"Ġgrabbing":8890,"Ġflapping":8891,"Ġimposing":8892,"oys":8893,"Ġendang":8894,"ĠPacific":8895,"Ġpermission":8896,"Ġslowing":8897,"Ġinvolved":8898,"ĠGrowing":8899,"Ġconnecting":8900,"Ġyellowed":8901,"Ġcovering":8902,"Ġtighter":8903,"onymous":8904,"Ġawestruck":8905,"ĠZigzag":8906,"Ġregardless":8907,"ĠOnly":8908,"Ġrichness":8909,"Ġcartoon":8910,"Ġempt":8911,"Ġhunters":8912,"Ġpersistence":8913,"Ġvolunteers":8914,"Ġcroiss":8915,"Ġpressure":8916,"Ġvendors":8917,"changing":8918,"ĠRobby":8919,"Ġconsciousness":8920,"ouncy":8921,"Ġtriumph":8922,"Ġcritic":8923,"Ġapplied":8924,"Ġconferences":8925,"Whether":8926,"Ġaston":8927,"Ġweaving":8928,"Ġbleeding":8929,"ĠElizabeth":8930,"Ġimbued":8931,"Ġivy":8932,"Ġplatform":8933,"Ġvessel":8934,"bel":8935,"band":8936,"lu":8937,"rr":8938,"uke":8939,"Ġwield":8940,"Ġwicked":8941,"rees":8942,"Ġdying":8943,"Ġdapp":8944,"Ġstitch":8945,"acity":8946,"Ġplaytime":8947,"Ġkitty":8948,"ĠLiz":8949,"iles":8950,"Ġbackward":8951,"Ġlapt":8952,"oses":8953,"Ġchap":8954,"Ġevenings":8955,"Ġmagician":8956,"Ġdeepened":8957,"ĠCla":8958,"Ġgrounds":8959,"Ġunearth":8960,"Ġgardening":8961,"Ġdistinct":8962,"Momo":8963,"Ġjoking":8964,"Ġrefuse":8965,"Ġarmed":8966,"Ġstarfish":8967,"Ġinstit":8968,"Ġparked":8969,"Ġventuring":8970,"Ġpolished":8971,"Ġdeserve":8972,"Ġprovides":8973,"Ġillness":8974,"ĠStr":8975,"Ġmentor":8976,"Ġwrapping":8977,"Ġchewing":8978,"Ġmuseums":8979,"Ġlegends":8980,"Ġknocking":8981,"Ġsketches":8982,"Ġagreement":8983,"Ġcouples":8984,"Ġadvert":8985,"Ġaffect":8986,"Ġscurried":8987,"Ġisolated":8988,"Ġolive":8989,"Ġovertook":8990,"Ġacknowledge":8991,"Ġimproved":8992,"Ġincreasingly":8993,"Ġarcane":8994,"Ġhistor":8995,"Ġcampaign":8996,"ĠEurope":8997,"Ġ1500":8998,"Ġleisurely":8999,"May":9000,"Panic":9001,"Tr":9002,"erer":9003,"wr":9004,"Ġest":9005,"Ġaid":9006,"reen":9007,"rehouse":9008,"Ġwarehouse":9009,"Ġnapping":9010,"Ġgown":9011,"Ġhub":9012,"ĠSpr":9013,"atching":9014,"Ġeast":9015,"vered":9016,"unning":9017,"inda":9018,"Ġboom":9019,"Ġcoff":9020,"Ġskipping":9021,"Ġputrid":9022,"Ġchoo":9023,"Ġbookshop":9024,"Ġhowls":9025,"Ġslither":9026,"Ġretired":9027,"Ġindul":9028,"Ġdevast":9029,"Ġcartoons":9030,"Ġinflu":9031,"Ġsurvived":9032,"Ġcharged":9033,"Ġsleek":9034,"Ġguessed":9035,"Ġcafes":9036,"Ġdemanded":9037,"Ġfragrant":9038,"Ġscraping":9039,"Ġdaydreaming":9040,"Ġobsessed":9041,"Ġinevitable":9042,"ĠMichael":9043,"Ġgadgets":9044,"Ġendangered":9045,"!'":9046,".'":9047,"bed":9048,"dled":9049,"fy":9050,"face":9051,"nies":9052,"pon":9053,"inery":9054,"Ġbore":9055,"Ġcoo":9056,"Ġcuddled":9057,"Ġnook":9058,"Ġhue":9059,"imal":9060,"Ġbeamed":9061,"Ġultimately":9062,"Ġraces":9063,"Ġplenty":9064,"Ġjaws":9065,"Ġwhipping":9066,"Ġfeast":9067,"!\",":9068,"Ġbye":9069,"Ġoverall":9070,"Ġunner":9071,"Ġtrace":9072,"Ġblink":9073,"Ġdisrep":9074,"Ġdismiss":9075,"ĠDid":9076,"Ġowners":9077,"Ġsteaming":9078,"Ġunexpl":9079,"Ġfirsthand":9080,"Ġprotest":9081,"Ġappreciating":9082,"Ġreluctantly":9083,"Ġjobs":9084,"Ġdragging":9085,"Ġemergency":9086,"Ġcircus":9087,"ĠZoe":9088,"Ġinsights":9089,"Ġdoctors":9090,"Ġpillows":9091,"Ġinfant":9092,"Ġjungles":9093,"Ġhealthier":9094,"Ġspoons":9095,"Ġrelaxation":9096,"Ġbottles":9097,"Ġpinched":9098,"Ġfans":9099,"Ġtexts":9100,"Ġregularly":9101,"Ġeducating":9102,"Ġnegat":9103,"Ġtempting":9104,"Ġdocumentaries":9105,"Ġheavier":9106,"Ġapologized":9107,"Ġdoubt":9108,"Ġcircumstances":9109,"Ġdisrepair":9110,"Curiosity":9111,"Yum":9112,"cred":9113,"mates":9114,"ĠX":9115,"Ġais":9116,"Ġwink":9117,"Ġboo":9118,"Ġdow":9119,"Ġlect":9120,"ĠTony":9121,"anged":9122,"otte":9123,"Ġeight":9124,"verty":9125,"igned":9126,"enting":9127,"ppers":9128,"Ġrecover":9129,"ĠBree":9130,"ĠBouncy":9131,"ĠMo":9132,"ĠMon":9133,"Ġshines":9134,"Ġshuffling":9135,"Ġroses":9136,"Ġmanner":9137,"ĠWisdom":9138,"Ġunm":9139,"Ġunison":9140,"Ġfond":9141,"Ġchuck":9142,"Ġgraff":9143,"Ġteasing":9144,"Ġhandful":9145,"Ġstreak":9146,"Ġproven":9147,"Ġheadlines":9148,"Ġdeliber":9149,"Ġresults":9150,"Ġcommotion":9151,"Ġhunched":9152,"Ġarrive":9153,"lights":9154,"Ġedges":9155,"Bobby":9156,"Ġsurfing":9157,"Johnny":9158,"Ġreverence":9159,"Ġhoning":9160,"Ġlower":9161,"Ġmachinery":9162,"Ġgasps":9163,"Ġinscript":9164,"ĠBehind":9165,"Ġgrind":9166,"Ġseconds":9167,"Ġdisplayed":9168,"Ġsausages":9169,"Ġwizards":9170,"Ġdemonic":9171,"Ġsimilar":9172,"Ġimmersing":9173,"Ġbenefit":9174,"Ġverd":9175,"Ġrevolutionize":9176,"Ġpredator":9177,"buried":9178,"ĠRocky":9179,"Ġrecycling":9180,"Ġoblig":9181,"Ġdownt":9182,"Happy":9183,"ah":9184,"lived":9185,"nov":9186,"Ġtables":9187,"ndeterred":9188,"ream":9189,"erity":9190,"ĠTed":9191,"ĠSqu":9192,"Ġsacred":9193,"Ġbehold":9194,"entials":9195,"eland":9196,"ĠLooking":9197,"ils":9198,"ioned":9199,"agram":9200,"antage":9201,"Ġnoon":9202,"Ġovercoming":9203,"Ġblown":9204,"Ġdreary":9205,"Ġkeen":9206,"Ġdeepest":9207,"Ġlets":9208,"Ġtowns":9209,"Ġarts":9210,"Ġcruel":9211,"Ġmarching":9212,"Ġartic":9213,"Ġguy":9214,"Ġinches":9215,"Ġzone":9216,"Ġhumanoid":9217,"Ġsails":9218,"Ġcompleting":9219,"Ġcalmness":9220,"Ġtravelled":9221,"Ġstriking":9222,"Ġharmon":9223,"ĠPeanut":9224,"Ġengra":9225,"Ġchilled":9226,"Ġpacking":9227,"ĠStar":9228,"Ġblows":9229,"Ġrenewal":9230,"Ġdetect":9231,"Ġachievements":9232,"Ġsystemic":9233,"Ġcopy":9234,"Ġconducted":9235,"Ġnarrowly":9236,"Ġdesires":9237,"Ġincreased":9238,"Ġnails":9239,"Ġcrunchy":9240,"Ġdiscussing":9241,"Ġfailed":9242,"Ġcontributed":9243,"Ġsimulations":9244,"Ġdwind":9245,"Ġclammy":9246,"Ġdissipated":9247,"Ġconcerns":9248,"Ġanomaly":9249,"Ġlectures":9250,"Ġgraffiti":9251,"Ġdowntown":9252,"Dog":9253,"parable":9254,"yles":9255,"hello":9256,"Ġawards":9257,"Ġbid":9258,"ĠTw":9259,"omp":9260,"Ġhus":9261,"Ġsting":9262,"Ġstacks":9263,"ĠHop":9264,"Ġkill":9265,"ĠLike":9266,"ĠBoth":9267,"Ġsew":9268,"ĠMoon":9269,"Ġloaf":9270,"Ġoutsm":9271,"Ġtheirs":9272,"Ġscoop":9273,"isten":9274,"Ġlap":9275,"Ġenrolled":9276,"Ġprec":9277,"ĠFerris":9278,"rmed":9279,"Ġflora":9280,"Ġpoking":9281,"Ġpoverty":9282,"Ġcompos":9283,"Ġcrim":9284,"Ġhopeless":9285,"Ġraw":9286,"Ġwaitress":9287,"plash":9288,"Ġtrib":9289,"Ġdrives":9290,"Ġclaw":9291,"Ġclawed":9292,"Sammy":9293,"Ġlung":9294,"Ġteamwork":9295,"Ġwither":9296,"Ġawak":9297,"Ġmatching":9298,"Ġtomes":9299,"Ġinteract":9300,"Ġstands":9301,"Ġbloodcurdling":9302,"Ġships":9303,"hole":9304,"Ġcoastline":9305,"Ġbehaved":9306,"Ġfiltering":9307,"Ġlifest":9308,"Ġmentally":9309,"Ġinjuries":9310,"Ġperformers":9311,"Ġinseparable":9312,"Ġanxiety":9313,"Ġdiscrimination":9314,"Ġpalp":9315,"Ġessentials":9316,"Ġdemanding":9317,"Ġleaped":9318,"Ġastrophysic":9319,"Ġrelentless":9320,"Ġwaffles":9321,"Ġdrifting":9322,"Ġphotography":9323,"Ġadvancements":9324,"ĠFrank":9325,"Ġtraditional":9326,"Ġrequires":9327,"Ġunearthly":9328,"Ġverdant":9329,"Ġoutsmart":9330,"--":9331,"Jen":9332,"Maggie":9333,"Moral":9334,"Ultimately":9335,"back":9336,"bug":9337,"please":9338,"rat":9339,"well":9340,"Ġtents":9341,"Ġtugged":9342,"inated":9343,"Ġtorm":9344,"Ġcac":9345,"Ġlimes":9346,"Ġheight":9347,"Ġgrove":9348,"Ġherd":9349,"Ġbells":9350,"rils":9351,"Ġplot":9352,"Ġwears":9353,"ĠLou":9354,"Ġdozens":9355,"ĠAd":9356,"Ġsec":9357,"Ġalb":9358,"Ġclung":9359,"Ġscaring":9360,"Ġcatches":9361,"Ġintim":9362,"Ġcontort":9363,"Ġtraps":9364,"Ġimper":9365,"Ġaccol":9366,"merse":9367,"ĠPo":9368,"Ġwrink":9369,"Ġbraved":9370,"Ġimmerse":9371,"weed":9372,"Ġacting":9373,"Ġwellbeing":9374,"Ġladybug":9375,"Ġpots":9376,"Ġrule":9377,"Ġsources":9378,"Ġconsid":9379,"Ġserving":9380,"Ġgiants":9381,"Ġtests":9382,"Ġstrolling":9383,"Ġcautious":9384,"ĠStanding":9385,"Ġrenew":9386,"ĠUsing":9387,"Ġengineering":9388,"Ġlingering":9389,"Ġhabitat":9390,"Ġcompanions":9391,"Ġseparated":9392,"Ġflooded":9393,"Ġfantastic":9394,"Ġpaddled":9395,"Ġconvince":9396,"Ġannounced":9397,"Ġafford":9398,"Ġtendrils":9399,"Ġsacrific":9400,"Ġcorpse":9401,"Ġretreated":9402,"Ġthousands":9403,"Ġgaping":9404,"ĠSparky":9405,"Ġlullaby":9406,"Ġdodging":9407,"Ġflashing":9408,"Ġinnocent":9409,"Ġviolently":9410,"Ġsparked":9411,"Ġteenagers":9412,"Follow":9413,"Ġinherited":9414,"Ġsynonymous":9415,"Ġemptiness":9416,"ĠStrange":9417,"Ġpalpable":9418,"Ġcacoph":9419,"Ġaccolades":9420,"Am":9421,"Cat":9422,"Sp":9423,"Watch":9424,"laze":9425,"oken":9426,"Ġtot":9427,"Ġcough":9428,"erie":9429,"Ġlack":9430,"Ġlining":9431,"ĠTe":9432,"aris":9433,"imag":9434,"iders":9435,"Ġrall":9436,"adise":9437,"ulate":9438,"ulated":9439,"ĠWatch":9440,"Ġablaze":9441,"Ġdefied":9442,"ĠFriend":9443,"Ġblade":9444,"Ġteem":9445,"Ġhandwr":9446,"ĠCuddles":9447,"Ġbubbling":9448,"Ġworker":9449,"Ġdads":9450,"Ġparties":9451,"Ġimportantly":9452,"Ġbroom":9453,"Ġfrost":9454,"ĠRa":9455,"Ġresidents":9456,"Ġapprehension":9457,"Ġtouches":9458,"Ġbelongings":9459,"Ġparadise":9460,"Ġtireless":9461,"Ġhonored":9462,"Ġwishing":9463,"Ġcelebrating":9464,"Ġbalancing":9465,"Ġtested":9466,"Ġprepar":9467,"Ġgemstones":9468,"Ġtransf":9469,"Ġmeasuring":9470,"Ġsubm":9471,"Ġcomplexities":9472,"Ġpaying":9473,"Ġfauna":9474,"ĠSomeone":9475,"Ġvolunteered":9476,"Ġdisconnected":9477,"Ġgaining":9478,"Ġconversations":9479,"Ġwaterfalls":9480,"Ġtombstone":9481,"Ġcharacter":9482,"Ġdamaged":9483,"ĠJoey":9484,"Ġblessed":9485,"Ġembraced":9486,"Ġconference":9487,"Ġdisease":9488,"Unfortunately":9489,"Ġselflessness":9490,"Ġopinion":9491,"Ġwedding":9492,"Ġlaptop":9493,"Ġcacophony":9494,"Ġteeming":9495,"lin":9496,"top":9497,"ubbed":9498,"Ġsite":9499,"Ġheights":9500,"orp":9501,"Ġnour":9502,"Ġeco":9503,"ĠHannah":9504,"Ġthorn":9505,"Ġlied":9506,"Ġreus":9507,"ĠLuke":9508,"ĠMart":9509,"choo":9510,"Ġtreated":9511,"Ġcarouse":9512,"apan":9513,"ĠJessie":9514,"ĠJosh":9515,"ĠJapan":9516,"Ġrunes":9517,"Ġreaders":9518,"Ġheartbeat":9519,"Ġchem":9520,"Ġlandm":9521,"Ġdreamer":9522,"Ġcontinues":9523,"ĠParis":9524,"ixed":9525,"Ġpromises":9526,"Ġfinishing":9527,"Ġbiting":9528,"Ġshrug":9529,"Ġparan":9530,"Ġbattling":9531,"Ġdeadlines":9532,"Ġpolit":9533,"Ġsentin":9534,"Ġcamps":9535,"Goodbye":9536,"Ġaccord":9537,"Ġsneaked":9538,"Ġentranced":9539,"Ġformation":9540,"Ġambiance":9541,"Ġcontribution":9542,"Ġinventor":9543,"Ġstamps":9544,"Ġlimited":9545,"Ġtypes":9546,"Ġperformer":9547,"Ġhabits":9548,"Ġmurals":9549,"Ġobscuring":9550,"Ġdemands":9551,"ĠCharlotte":9552,"ĠShadow":9553,"Ġwiggle":9554,"Ġwafting":9555,"Ġmurmur":9556,"Ġforbidden":9557,"Ġdappled":9558,"Ġnegativity":9559,"Ġreusable":9560,"Car":9561,"Ducky":9562,"Miss":9563,"Pe":9564,"Qu":9565,"fia":9566,"sy":9567,"teland":9568,"vill":9569,"vity":9570,"vation":9571,"Ġtens":9572,"Ġaimed":9573,"Ġfare":9574,"erlin":9575,"Ġden":9576,"Ġwasteland":9577,"arison":9578,"Ġstumbling":9579,"ĠHappy":9580,"sell":9581,"veling":9582,"Ġthird":9583,"ĠBug":9584,"Ġseep":9585,"Ġloaded":9586,"Ġshimmer":9587,"Ġroast":9588,"Ġunrel":9589,"Ġcomfy":9590,"Ġhomemade":9591,"Ġdisp":9592,"Ġreds":9593,"aren":9594,"spass":9595,"Ġcomparison":9596,"Ġsnarled":9597,"ĠPl":9598,"creen":9599,"Ġcleaner":9600,"shold":9601,"ĠKeep":9602,"Ġlaying":9603,"boat":9604,"Ġzomb":9605,"Ġswims":9606,"Ġthreshold":9607,"Ġfarmhouse":9608,"ĠWhatever":9609,"Ġregion":9610,"Ġregain":9611,"Ġbalanced":9612,"Ġscrubbed":9613,"harted":9614,"Ġexter":9615,"Ġextended":9616,"Andy":9617,"Ġprayer":9618,"Ġtoughest":9619,"Ġweightless":9620,"Ġpencils":9621,"Ġmajor":9622,"Ġuncharted":9623,"Ġscratches":9624,"Ġsuffered":9625,"Ġmuffins":9626,"hetic":9627,"Ġgrasping":9628,"Ġdelivered":9629,"Ġbatteries":9630,"Ġbuzzed":9631,"Ġargued":9632,"Ġsituations":9633,"Ġrituals":9634,"Ġgraduation":9635,"Ġpreviously":9636,"Ġswallow":9637,"Ġstroke":9638,"Ġarranged":9639,"Ġproperly":9640,"wolf":9641,"Ġcreepy":9642,"Ġportraits":9643,"Ġaspects":9644,"Ġconflict":9645,"Ġchapter":9646,"Ġhusband":9647,"Ġintimid":9648,"Ġrenewable":9649,"Ġtransfixed":9650,"Ġcarousel":9651,"ville":9652,"Ġfarewell":9653,"Cl":9654,"Out":9655,"Sha":9656,"Using":9657,"dis":9658,"eal":9659,"iac":9660,"mo":9661,"pane":9662,"pnot":9663,"run":9664,"Ġtumbling":9665,"Ġbars":9666,"Ġdune":9667,"ĠTara":9668,"ĠSn":9669,"Ġult":9670,"Ġstol":9671,"Ġstern":9672,"acies":9673,"Ġrumbling":9674,"Ġreun":9675,"Ġrewards":9676,"Ġnoticing":9677,"ĠBo":9678,"ĠAgainst":9679,"Ġwerewolf":9680,"Ġloom":9681,"Ġouter":9682,"agious":9683,"Ġmaniac":9684,"ĠWater":9685,"istine":9686,"Ġareas":9687,"estial":9688,"Ġunimag":9689,"Ġcarav":9690,"ĠEle":9691,"Ġblazing":9692,"Ġampl":9693,"Ġthanking":9694,"Ġcontagious":9695,"Ġtwin":9696,"Ġharvest":9697,"Ġhardship":9698,"Ġparted":9699,"Ġbearing":9700,"Ġraising":9701,"Ġsoftware":9702,"Ġbroad":9703,"Ġtricked":9704,"Ġquicken":9705,"Ġrestoring":9706,"ĠOcean":9707,"Ġyelling":9708,"Ġwindowpane":9709,"Ġincorp":9710,"Ġbarista":9711,"Ġthicket":9712,"Ġsolid":9713,"Ġspiral":9714,"Ġbathing":9715,"Ġreply":9716,"Ġurg":9717,"Ġinterests":9718,"Ġdeadly":9719,"Ġbandits":9720,"Ġevolving":9721,"Ġmercy":9722,"Ġmotiv":9723,"ĠStop":9724,"ĠStitch":9725,"Ġalleyways":9726,"Ġthreats":9727,"Ġthrived":9728,"atively":9729,"Ġeffortlessly":9730,"Ġnovels":9731,"Ġflourished":9732,"Ġgradually":9733,"Ġcelestial":9734,"Ġwounded":9735,"Ġripples":9736,"Ġwires":9737,"Ġcontributions":9738,"Ġcackling":9739,"Ġradiating":9740,"Ġolives":9741,"Ġpurchased":9742,"Ġscreech":9743,"Ġsculptures":9744,"Ġparticipate":9745,"Ġhypnot":9746,"Ġaccompanied":9747,"Ġmortal":9748,"Ġabundance":9749,"Ġalbum":9750,"Ġrallied":9751,"Ġlandmark":9752,"Ġcampsite":9753,"Ġunrelenting":9754,"discovery":9755,"Ġultimate":9756,"Ġstolen":9757,"Ġcaravan":9758,"Jo":9759,"Remember":9760,"ander":9761,"bly":9762,"cended":9763,"fit":9764,"gal":9765,"uard":9766,"vies":9767,"Ġtin":9768,"Ġwider":9769,"Ġfal":9770,"Ġcul":9771,"Ġmural":9772,"Ġmasks":9773,"ĠTake":9774,"Ġgir":9775,"Ġhaze":9776,"ĠInd":9777,"Ġepic":9778,"rified":9779,"neath":9780,"Ġdaylight":9781,"allic":9782,"ados":9783,"rab":9784,"umm":9785,"Ġtrespass":9786,"Ġscamp":9787,"Ġlapped":9788,"Ġlakes":9789,"Ġshallow":9790,"Ġagency":9791,"Ġpeers":9792,"Ġmovies":9793,"Ġpristine":9794,"Ġswooped":9795,"Ġchamp":9796,"Ġchains":9797,"ĠDare":9798,"Ġwindy":9799,"Time":9800,"Ġsurprising":9801,"Ġlighter":9802,"Ġglanced":9803,"Ġmetallic":9804,"Ġperme":9805,"Ġremembers":9806,"Ġentering":9807,"Ġwomen":9808,"Ġposition":9809,"Ġcommitted":9810,"ĠGina":9811,"ĠGreen":9812,"Ġrelics":9813,"Ġwildly":9814,"Benny":9815,"Ġduckling":9816,"Ġsignific":9817,"Ġwarp":9818,"ouraged":9819,"Ġindic":9820,"Ġdived":9821,"Ġbiases":9822,"Ġcapacity":9823,"Ġpanicked":9824,"Ġzooming":9825,"Ġrisky":9826,"Ġaccountable":9827,"Ġrelaxing":9828,"Ġalleys":9829,"ĠAlways":9830,"ĠCatty":9831,"Ġdescribed":9832,"Ġcrackling":9833,"Ġfriendships":9834,"Ġorigins":9835,"Really":9836,"Ġencouraging":9837,"Ġinventions":9838,"Ġplunging":9839,"Ġsignaling":9840,"Ġinstinctively":9841,"Ġfluttered":9842,"Ġprosperity":9843,"Although":9844,"Ġoptions":9845,"Ġintentions":9846,"Ġidentify":9847,"Ġabsor":9848,"Ġoverlooked":9849,"Ġcascading":9850,"Ġplagued":9851,"Ġawakened":9852,"Ġpreparation":9853,"Ġincorpor":9854,"Exc":9855,"James":9856,"Mrs":9857,"Mmm":9858,"Our":9859,"Poppy":9860,"Sandy":9861,"lif":9862,"nie":9863,"ration":9864,"Ġaward":9865,"eded":9866,"erts":9867,"Ġmingling":9868,"Ġdue":9869,"Ġlitter":9870,"Ġwasted":9871,"Ġni":9872,"anor":9873,"ĠIzzy":9874,"Ġsage":9875,"ethe":9876,"Ġbeads":9877,"acting":9878,"Ġrac":9879,"ĠHenny":9880,"elvet":9881,"Ġneon":9882,"Ġneither":9883,"Ġspi":9884,"asked":9885,"Ġtrembled":9886,"ifying":9887,"uses":9888,"Ġdoggy":9889,"Ġtraded":9890,"Ġhomework":9891,"Ġbloss":9892,"uckily":9893,"Ġunderneath":9894,"Ġcuis":9895,"Ġlookout":9896,"Ġneedles":9897,"Ġstreaking":9898,"Ġeats":9899,"Ġgardener":9900,"Ġcontinuing":9901,"ĠPinky":9902,"iversity":9903,"Ġproduce":9904,"Ġbirdsong":9905,"Ġjoining":9906,"Ġsinger":9907,"Ġmuscle":9908,"Ġearning":9909,"ogo":9910,"Ġvisitor":9911,"Ġconsul":9912,"Ġstripes":9913,"Ġbattles":9914,"Ġintricacies":9915,"Ġbuckets":9916,"Ġrainbows":9917,"Ġglasses":9918,"Ġstatues":9919,"Ġconduct":9920,"mina":9921,"Ġdestroying":9922,"Ġformula":9923,"Ġdinosaurs":9924,"Ġtickle":9925,"Ġwrites":9926,"ĠCarla":9927,"Ġpedals":9928,"Ġavocados":9929,"ĠMissile":9930,"Ġscattering":9931,"Ġriddles":9932,"Ġdivided":9933,"Ġglobal":9934,"Ġdodged":9935,"Ġcubes":9936,"Ġdrowned":9937,"Ġhundreds":9938,"Ġnomads":9939,"Ġraspy":9940,"Ġairplane":9941,"Ġinterrupted":9942,"ĠClaire":9943,"Ġcoffin":9944,"Ġastrophysicist":9945,"Ġunimaginable":9946,"Ġchampion":9947,"lifetime":9948,"'.":9949,"Henry":9950,"jam":9951,"paper":9952,"rupt":9953,"sive":9954,"shest":9955,"Ġsled":9956,"ingu":9957,"ĠTiti":9958,"isha":9959,"Ġnets":9960,"Ġnicer":9961,"Ġhint":9962,"Ġhated":9963,"ĠSplash":9964,"athetic":9965,"lets":9966,"Ġrats":9967,"seek":9968,"ĠLove":9969,"urry":9970,"ĠMerlin":9971,"Ġmeowing":9972,"Ġspit":9973,"Ġoutc":9974,"Ġvoy":9975,"Ġsunken":9976,"quet":9977,"Ġunleas":9978,"Ġgrows":9979,"ĠFirst":9980,"Ġdecides":9981,"Ġpredic":9982,"Ġuses":9983,"Ġanytime":9984,"Ġfoyer":9985,"Ġdisbel":9986,"ĠDuck":9987,"Ġteased":9988,"Ġimpending":9989,"cial":9990,"ĠCon":9991,"ĠCindy":9992,"Ġarcha":9993,"Ġchef":9994,"Ġchefs":9995,"Ġgloom":9996,"Ġripe":9997,"Ġseaweed":9998,"ĠOther":9999}