#version: 0.2
Ġ t
h e
Ġ a
Ġ s
Ġ w
n d
Ġt he
i n
e d
Ġ b
Ġa nd
r e
Ġt o
Ġ f
o u
h a
Ġ c
i t
Ġw a
e r
Ġ o
Ġ m
Ġ d
in g
Ġ l
Ġ p
Ġ T
Ġ he
e n
Ġwa s
a r
o m
a y
l l
i s
o r
Ġ n
Ġ g
Ġ h
o n
Ġ ha
ĠT he
i m
a n
Ġ in
Ġ I
Ġ S
e s
i d
Ġo f
Ġs a
a t
l e
e t
o t
l d
č Ċ
i r
Ġ e
Ġ it
Ġhe r
ha t
v er
o w
Ġb e
a m
Ġ u
i g
s t
l y
Ġs t
u t
a c
it h
Ġw ith
e nd
Ġt hat
r i
Ġs he
en t
Ġ r
n e
Ġ H
o o
Ġp l
p p
ĠS he
i c
Ġd ay
k e
ĠThe y
s e
v e
Ġha d
k ed
Ġt h
ĠH e
Ġo n
Ġ y
Ġ "
n t
Ġl i
Ġf or
a l
a ll
Ġw e
Ġpl ay
ou nd
u n
Ġsa id
ou ld
Ġ re
f t
ver y
Ġh is
a d
he r
Ġu p
Ġy ou
c e
e l
ĠT im
i ly
h t
Ġn e
' s
ou t
Ġ k
Ġn ot
Ġb ig
Ġ L
Ġthe y
u r
Ġa n
o re
Ġb ut
Ġa s
Ġha pp
ri end
Ġf riend
Ġd o
x t
Ġm y
Ġ B
Ġs o
i nd
it t
Ġ A
Ġs e
Ġm om
Ġ M
Ġm e
Ġwa nt
Ġs m
Ġsa w
O ne
i l
v ed
e xt
ĠI t
o ft
< |
| >
end oft
endoft ext
r a
Ġt im
Ġthe re
Ġwe re
Ġtim e
c h
Ġhapp y
i ll
om e
Ġ j
Ġa ll
Ġ very
Ġl o
o p
e c
itt le
u re
Ġc ould
Ġl ittle
a ke
id e
Ġa t
ou g
Ġw or
i on
ĠL ily
am ed
Ġs p
Ġs h
Ġb o
r om
u l
a in
ar t
l p
ac k
T he
h ing
Ġn amed
ig ht
he d
Ġ out
Ġhe lp
Ġw h
. "
u g
am e
Ġe x
u m
Ġ is
a s
ir d
Ġl e
u e
Ġto o
r y
Ġfriend s
Ġa l
Ġb ird
ar d
r ound
Ġwant ed
Ġf e
Ġt re
w ay
n ce
t er
Ġl oo
a g
u st
oo d
c k
ar k
Ġup on
ĠT om
Ġw ent
r o
! "
Ġthe ir
Ġc a
i f
' t
g et
Ġc l
ac e
el t
es s
O nce
Ġf elt
Ġc an
ou r
Ġr o
Ġf rom
i e
on g
get her
f e
k ing
ow n
Ġb ack
Ġd id
Ġc o
e p
Ġw ould
Ġto y
Ġf ound
Ġse e
ir l
Ġf un
he n
Ġto gether
on e
Ġs c
Ġg irl
Ġm an
Ġg o
Ġc at
u d
an t
Ġin t
Ġ v
Ġthe m
re at
Ġ W
is t
om et
Ġsm all
Ġa b
u s
Ġne w
s ide
Ġa re
Ġk ne
es t
Ġh im
Ġbe c
Ġdo g
Ġl a
Ġs ha
Ġs omet
Ġkne w
Ġli ke
Ġha ve
ha n
Ġlo ved
t her
ou s
oug h
f ul
Ġa round
g e
Ġb all
o s
m y
ĠB ut
er s
Ġloo ked
Ġplay ed
ing s
at e
Ġb y
l ow
it y
ad e
Ġex p
Ġsomet hing
Ġn o
Ġwa l
? "
Ġe very
Ġint o
Ġo ther
n ed
Ġtre e
ĠS am
ic e
Ġfe el
a st
a x
Ġm ake
ac h
Ġst art
Ġa g
Ġbo y
Ġm ade
Ġwh o
Ġsa d
Ġwor ld
nd er
Ġw hat
Ġb r
oug ht
Ġd own
ec t
Ġp e
oo k
Ġs un
Ġth r
Ġp ark
Ġf ind
q u
b le
u c
A s
Ġk n
Ġc on
Ġth is
l ed
Ġab out
Ġo ver
Ġu n
Ġc ame
i z
s s
Ġc ar
at ion
ri ed
Ġg r
Ġthr ough
ĠS ue
w n
e ll
d en
Ġstart ed
all y
Ġit s
Ġ E
en ed
Ġ One
ĠM ax
ic k
i le
Ġc om
Ġst r
way s
Ġt r
Ġa way
ĠA s
or t
Ġh ome
Ġag ain
ou se
Ġ en
Ġal ways
i a
Ġp re
Ġm o
Ġm ore
it e
ar ed
pp ed
Ġsm il
Ġle ar
Ġli ked
Ġli ved
v es
Ġg ood
Ġas ked
Ġd e
Ġ F
Ġth ought
i ve
i es
Ġd ec
l f
a p
Ġb l
Ġs ome
Ġs ur
Ġo ne
Ġs k
Ġp r
Y ou
Ġu s
Ġs w
Ġwa y
Ġtoo k
Ġbe a
Ġth ings
ĠB en
im p
Ġo ld
ar a
Ġsmil ed
Ġf ore
Ġ J
Ġo p
Ġplay ing
Ġthe n
is h
Ġkn ow
Ġr an
Ġbea ut
v en
Ġw hen
p ot
Ġ Ċ
o b
u ch
Ġo r
a nd
ou d
Ġa d
Ġexp l
Ġs ay
Ġli fe
Ġ čĊ
c o
Ġ our
Ġbec ame
Ġne ver
Ġa m
v ing
Ġt ake
Ġan y
Ġf o
Ġp ut
Ġc ha
Ġg et
op h
id ed
Ġmom ent
is e
Ġla ug
Ġc reat
Ġa pp
ft er
Ġd is
ud den
Ġt ried
Ġc h
Ġl ong
se lf
Ġman y
u ck
Ġd re
u ll
he re
ĠS pot
Ġwa ter
c t
n y
it ed
Ġdec ided
Ġh ouse
Ġt ur
Ġt han
Ġj ust
Ġg ra
l ing
Ġre m
en se
a k
r m
udden ly
Ġre al
Ġw ill
i ld
Ġsc ared
n ing
t y
Ġbo x
g ed
Ġro om
v ent
Ġb ot
Ġ ke
t h
Ġg ot
Ġw o
Ġtoy s
Ġ if
Ġyou r
m b
Ġca re
Ġwa t
Ġex c
Ġhe ard
in e
Ġfore st
ar s
Ġe y
Ġf l
Ġ D
op le
Ġr un
Ġe ach
Ġb ook
Ġs ound
Ġp ic
ĠA nd
Ġbe en
a ve
Ġcould n
Ġp o
, "
Ġin side
f ore
um p
uc y
Ġt e
ĠS ara
as s
Ġwal ked
Ġh ow
Ġout side
Ġu nder
Ġ qu
ure s
n ess
Ġw ind
Ġr ed
Ġ You
Ġg re
Ġm ag
Ġsk y
al s
u se
ag e
ĠS oph
Ġha nd
Ġlear ned
Ġpe ople
er ed
Ġbe fore
Ġe ven
Ġh o
ĠW e
Ġbe g
ar y
a king
Ġl ot
m ent
Ġey es
T im
an ce
Ġcon t
ĠM ia
Ġt ra
L ily
Ġst or
w ard
Ġd ark
Ġc le
Ġ imp
Ġb est
Ġc u
ou nt
Ġs ense
iz ed
Ġk ind
Ġsh ow
Ġmag ic
Ġloo k
Ġof f
o y
Ġm uch
f f
Ġbot h
m ed
ĠL ucy
a ble
in k
Ġan im
Ġde ep
Ġne ar
n g
p r
a re
b b
Ġcl os
um b
Ġne ed
Ġsay s
c hed
Ġf ast
Ġt w
a use
Ġpre t
Ġha r
â Ģ
an ge
Ġl et
Ġe nd
Ġs et
Ġdo or
p t
a z
ĠS o
B ut
Ġro ck
c i
ĠI n
an g
s p
Ġh ug
b y
Ġto wn
Ġto ld
ac hed
Ġwh ile
Ġfeel ing
Ġst re
Ġ C
Ġpl ace
Ġre ad
Ġb et
ot her
Ġad vent
Ġbec ause
n a
Ġbeg an
at ed
Ġc ome
Ġa ir
Ġw here
Ġf low
Ġf ill
ĠB ob
Ġlaug hed
o l
Ġt ry
Ġj ump
Ġa c
Ġd if
Ġexc ited
Ġe at
Ġsur pr
re e
in y
i al
co ver
Ġl ight
i re
o se
i p
l es
Ġa r
Ġb u
Ġle a
Ġreal ized
Ġg round
Ġhe art
ĠM om
Ġhar d
ĠSoph ie
Ġo wn
ĠH er
Ġn ight
Ġg ave
Ġwor k
Ġanim als
r ed
ĠSara h
he s
Ġf ace
le w
Y es
d y
in ally
Ġl ist
Ġst ill
Ġwa rm
en ce
a v
Ġn ice
The y
at h
Ġa fter
Ġf am
n na
T om
t ing
i ous
Ġd ad
Ġc he
Ġe ver
or s
Ġbet ter
Ġsp ec
Ġco l
fe re
if ul
is ed
Ġt al
Ġbeaut y
Ġbeaut iful
Ġtre es
Ġh ig
Ġf ar
t hing
Ġdid n
a se
umb led
Ġop ened
Ġdif fere
Ġbe ing
Ġp ow
Ġg l
ac t
Ġstr ange
Ġcu ri
Ġyou ng
Ġf r
Ġc ity
Ġs or
ant ha
Ġpret ty
Ġtur ned
Ġd ra
ward s
l ess
Ġf ood
Ġop en
Ġwal k
ch ing
Ġlo ve
oo l
Ġf ish
Ġfill ed
Ġso on
Ġlo st
Ġh id
Ġs l
Ġc all
Ġst umbled
ic ed
Ġon ly
Ġexpl or
Ġspec ial
Ġd es
et er
in ed
ll ow
han k
Ġn ow
m er
Ġp ass
Ġu ne
Ġsor ry
Ġcom p
Ġ ide
Ġg reat
Ġn at
Ġsp ent
s o
Ġsha re
ard en
u ed
Ġdis cover
Ġg arden
Ġal so
Ġu nt
st er
ĠE very
Ġp art
Ġne xt
Ġb reat
im b
ĠH is
ĠSam antha
ect ed
Ġhapp ened
Ġl oud
Ġs n
Ġw ood
ĠE m
I t
Ġc r
Ġpl an
Ġsee med
ow s
Ġpic ked
Ġnot iced
ĠF rom
Ġg low
Ġla nd
Ġ -
Ġimp ort
Ġide a
Ġdre am
ug ht
Ġg i
Ġunt il
Ġto wards
Ġd ist
Ġwo nder
Ġsa fe
us h
Ġfam ily
Ġf ig
Ġfo llow
Ġcl imb
u ff
ĠW hen
Ġcont in
Ġm et
Ġ P
ĠA my
Ġm or
ro ss
Ġexpl ore
Ġc ry
g ry
Ġst e
c re
i ver
ir st
Ġpe ace
Ġexp er
Ġp ain
Ġsa t
Ġcle an
Ġclos er
Ġh op
Ġf lew
Ġd on
Ġm ust
Ġother s
h is
Ġst ay
an c
Ġpow er
h ind
Ġj our
Ġhig h
a ir
is s
a il
' m
s h
ll s
or n
Ġsha d
t ed
Ġcare ful
Ġher self
Ġbe hind
T hank
Ġsh ould
Ġh ur
Ġv o
Ġf ly
t s
is hed
Ġstr ong
Ġbl ue
i x
Ġr ain
x p
ĠA nna
Ġbe ar
Ġw r
Ġlea ves
Ġke ep
Ġgre w
Ġc ake
g y
S uddenly
ĠThe n
Ġr a
Ġrem ind
Ġso ft
Ġca st
m ore
Ġune xp
Ġlot s
Ġp er
Ġpr oud
Ġany more
Ġp ro
Ġbr ight
ne y
Ġfig ure
i v
Ġcuri ous
Ġunexp ected
Ġg ive
M om
o ck
Ġb ug
b e
ig n
e ars
ar ing
Ġbird s
Ġadvent ure
Ġse en
ion s
ĠS uddenly
Ġimport ant
Ġb ra
Ġco ld
Ġsa nd
Ġf irst
Ġ N
Ġre ached
Ġmo st
Ġbe l
Ġlist en
Ġstor y
Ġwa it
at ter
Ġch ild
Ġan other
e mb
at her
Ġb ad
ir ed
Ġb ro
Ġo b
Ġwood s
Ġjour ney
Ġexplor ing
Ġhid den
j oy
W hen
Ġthan ked
Ġc han
Ġu se
Ġsh iny
Ġdiffere nt
ve l
d ay
Ġvo ice
Ġse cre
Ġwat ched
Ġst o
Ġf ull
Ġday s
Ġsurpr ised
m a
our s
eter m
Ġflow ers
Ġf ro
Ġm on
Ġrem emb
Ġsur round
Ġha s
L et
Ġs low
Ġhe ad
ate ful
Ġ ri
Ġevery one
Ġhelp ed
Ġc ount
ust ling
Ġ K
Ġac ross
Ġc re
is p
Ġwor ked
Ġgr ateful
Ġbo at
Ġc ra
Ġp ur
Ġh or
p l
Ġ im
Ġb re
Ġj o
Ġgr ow
Ġmy ster
Ġt ri
Ġb ed
Ġcontin ued
er ing
um my
Ġwal king
Ġam az
Ġhe ar
Ġal one
k ay
k s
Ġjump ed
Ġqu ick
at ing
Ġcom ing
Ġ ent
ou p
on s
q ue
Ġse a
Ġcall ed
Ġre st
Ġlear n
Ġexper i
Ġhug ged
Ġmy self
Ġhe re
Ġhur t
Ġs qu
Ġs imp
Ġsw e
Ġk id
i ed
Ġst ud
Ġj oy
Ġnat ure
Ġmo ve
Ġ O
us hed
ĠM ary
Ġfl o
Ġsto pped
Ġshow ed
z e
Ġw om
an e
b r
h y
Ġsm ile
Ġapp ro
Ġgre en
I n
Ġhand s
et s
Ġp ull
i ble
Ġno ise
Ġen joy
Ġwom an
Ġ R
m p
Ġus ed
Ġd eterm
Ġh ours
Ġfe ll
d ed
ce an
Ġpic t
Ġgo ing
un ny
Ġbreat h
Ġal ong
Ġtre as
Ġcreat ure
ĠL et
uff y
Ġst ick
Ġo cean
Ġs ing
Ġm aking
Ġm ar
itt y
i ent
Ġs u
am p
Ġb us
le ase
Ġtur n
N o
c ap
Ġme an
Ġno d
Ġpr ot
Ġhapp ily
re n
ie ld
Ġm ess
ĠS ally
Ġh um
Ġloo king
Ġkid s
Ġtry ing
at er
Ġre t
Ġh ill
Ġar t
Ġbook s
Ġwh isp
ĠEm ily
Ġfor g
y ing
en c
w e
Ġd el
Ġbra ve
Ġg ent
Ġmagic al
i ke
Ġbu ild
Ġf inally
re l
Ġst ep
t en
Ġa ct
Ġr ight
Ġsha r
Ġtw o
ĠThe re
Ġke pt
H e
Ġfro g
Ġunder st
l ves
Ġmoment s
Ġco ll
o on
bb it
p ite
nt s
Ġst ore
Ġdark ness
l uffy
o h
e m
C an
Ġv is
Ġre s
Ġb en
Ġha t
ĠW ith
Ġpre s
Ġappro ached
Ġapp re
Ġle ft
Ġper f
Ġp os
Ġra bbit
Ġto w
z y
Ġt ell
Ġg ame
A fter
Ġd r
W e
Ġha ir
Ġan gry
Ġcol or
Ġprot ect
Ġca ught
Ġg u
Ġany thing
Ġwat ch
in ation
Ġth ink
oh n
Ġthe se
and ing
Ġf av
Ġsha red
ll en
Ġevery thing
Ġsp end
Ġy ummy
er t
Ġbe ach
Ġcol ors
Ġt all
Ġf as
Ġcha llen
Ġho ld
Ġst ars
Ġtr uck
Ġpo nd
Ġcat ch
Ġha ving
Ġgra ss
t le
Ġm ouse
Ġp ers
Ġat e
ount ain
Ġf ix
Ġappre ci
in s
Ġp ushed
T hat
Ġy ears
Ġh ot
ad y
en s
Ġy ell
Ġcreat ures
Ġin v
Ġto p
ĠD o
ĠK itty
Ġret ur
ang er
Ġp rom
Ġflo or
Ġfe w
ĠF luffy
ill y
Ġread y
Ġsm ell
Ġdiscover ed
Ġcom m
Ġm ind
ac es
Ġwat ching
Ġst op
pp ort
Ġfo ot
Ġsl ide
ri es
le ep
Ġwind ow
c ess
or ite
Ġen er
o nd
Ġshad ows
Ġsc re
i et
Ġfav orite
Ġste pped
b in
pp ing
Ġagain st
ation s
u nt
ci ent
Ġt aking
im es
Ġquick ly
Ġca bin
Ġf ur
Ġth ing
Ġan cient
Ġ âĢ
Ġhe ld
k en
Ġneed ed
Ġnod ded
Ġc orn
Ġc ool
Ġre f
Ġm us
A t
ne ct
it c
Ġin c
Ġ G
an k
Ġfas c
Ġc ook
ir rel
Ġmor ning
Ġh un
m e
W hat
Ġdist ance
The n
Ġho le
Ġe as
Ġnear by
Ġm iss
Ġnot hing
Ġsun ny
Ġpl ant
m ing
Ġsurpr ise
Ġsqu irrel
ac ed
Ġcl ose
cap e
Ġb unny
Ġsh o
Ġre l
ul t
ak es
Ġtreas ure
Ġp ath
il ity
ain ed
Ġin sp
Ġswe et
Ġst ood
Ġener gy
Ġgra nd
Ġl ay
Ġca ve
H i
Ġflow er
âĢ Ŀ
re ed
e ar
Ġbr ing
Ġt ired
g es
Ġw ild
it ies
Ġdra w
Ġqu iet
Ġat t
Ġre sp
Ġf ield
Ġle g
ay be
Ġk itc
Ġkitc hen
Ġd ri
ĠT his
Ġfollow ed
Ġun iver
Ġtr an
Ġdre ss
L ook
Ġb a
or y
Ġfasc in
b o
Ġke y
ĠN ow
Ġp are
Ġhe al
Ġf in
Ġcl a
Ġfun ny
Ġf ree
Ġmom my
S he
Ġwor d
Ġfe et
Ġse ar
Ġmus ic
un ity
Ġm ountain
Ġlo c
B en
es pite
Ġgr oup
Ġforg ot
Ġstor ies
Ġb ag
in ing
i er
on ed
Ġgi ft
Ġc ut
Ġf ire
Ġf air
Ġd ir
ur al
Ġto uch
Ġb ar
Ġ ice
Ġrun ning
Ġim ag
S am
Ġsurround ed
Ġfe ar
o om
Ġs leep
Ġof ten
g er
Ġtal k
Ġwa nder
Ġen c
Ġtw ist
Ġsp ot
Ġt er
Ġs ong
Ġappreci ate
o st
Ġd uck
Ġpart y
Ġsimp le
Ġt ast
Ġo kay
Ġcast ing
ĠC an
or m
S ara
Ġ z
Ġs y
Ġp a
Ġpur p
Ġdeterm ined
Ġeas y
as h
Ġfore ver
Ġfriend ly
Ġpare nts
Ġt able
Ġli ving
Ġwo ke
Ġpass ion
ap er
Ġj ob
Ġdeep er
Ġclimb ed
Ġs it
Ġs ign
Ġth ose
Ġsw im
Ġbel ie
Ġm ight
ĠJ ane
k es
Ġr ace
Ġf all
i b
w here
bb ed
S o
Ġro ll
ĠT o
Ġsecre ts
Ġbre ak
u ally
w l
Ġbro ken
Ġb it
se lves
W ith
Ġchan ge
Ġhelp ing
ug g
Ġcl ot
Ġgent le
Ġn ame
ell o
ed ic
Ġclos ed
re ss
H ello
Ġd anger
Ġmor al
Ġt iny
Ġfascin ated
Ġbr ought
Ġuniver se
Ġwa lls
il a
ĠâĢ ľ
Ġbl ock
Ġe mb
Ġv ast
Ġun l
Ġl ess
c om
Ġd anc
Ġcon nect
Ġchild ren
Ġag reed
Ġw ise
Ġdo ll
F rom
Ġg en
ĠSoph ia
us ed
Ġexperi enc
Ġ es
Ġre ach
ll y
Ġg one
av y
Ġwith in
ĠJ ack
Ġyell ow
Ġhum an
Ġt ail
Ġe ar
' re
Ġy ard
Ġar ri
Ġhop e
o c
Ġhor iz
Ġb ustling
Ġche st
y ond
e ver
Ġsa me
Ġpr in
Ġcry st
a ught
Ġv ill
ull y
Ġf ight
ust le
D on
Ġcolor ful
Ġwe ll
he ad
Ġlist ened
Ġf re
j ect
Ġbe yond
Ġwa ves
Ġth ick
Ġsh out
ud e
Ġl ady
Ġwe e
Ġfor get
Ġa rm
Ġhoriz on
Ġslow ly
Ġrememb er
e ared
op e
Ġcu p
Ġst ar
ain t
Ġbut ter
Ġwas h
Ġsha ke
ĠM r
Ġsh ore
Ġn est
am es
Ġp ot
f ully
Ġco ver
g ing
i que
ir p
it ing
Ġd ance
on t
Ġw he
Ġsome one
Ġglow ing
Ġwor ry
Ġperf ect
Ġsp ace
th s
Ġle ave
Ġpull ed
os ity
Ġpict ure
W ow
Ġm atter
âĢ Ļ
Ġd one
st r
ree ze
F inally
Ġs uc
Ġp ick
ĠEm ma
al m
Ġplan et
f ort
r or
Ġfre sh
Ġab and
Ġcar s
Ġp ink
Ġp aper
Ġcreat e
Ġhe avy
u it
Ġb reeze
iz e
ĠM y
by e
Ġland s
Ġpain t
Ġri ver
Ġsa il
Ġhun gry
Ġarri ved
Ġsomet imes
Ġdo es
m an
Ġs ight
Ġsound s
Ġal ive
Ġsw ing
Ġe mp
Ġchallen ges
Ġdel ic
Ġs il
vent ually
Ġpos s
Ġcorn er
Ġgen er
Ġs ure
Ġexc ite
Ġdra g
Ġst anding
Ġaband oned
Ġbl ack
l ight
Ġa nt
Ġk ing
Ġ ed
Ġben e
Ġp u
Ġlaug h
itt ing
t e
is ter
ĠT hat
Ġtr ue
Ġsh op
s it
Ġwait ing
ĠJ ohn
W hy
Ġexcite ment
Ġp ast
art h
Ġre pl
Ġgra bbed
S oph
Ġp lease
ri ll
Ġcl oud
Ġe l
Ġw et
is y
M ax
r ow
Ġhe sit
as k
le ct
d le
or d
Ġab le
Ġfr ont
Ġpeace ful
ĠA fter
Ġword s
Ġbo dy
Ġgood bye
a pp
f fe
Ġnat ural
ĠTim my
Ġc ried
ĠD ad
Ġs ide
Ġdo ing
Ġne ck
Ġr ustling
Ġj e
A nna
Ġsecre t
Ġe ag
Ġunderst and
S ue
Ġsha p
Ġgo ld
l ice
Ġpret end
w or
Ġsw am
c ome
Ġw ished
Ġc ent
Ġcryst al
led ge
Ġb ow
Ġvill age
ri c
Ġrememb ered
Ġmyster ious
Ġapp le
Ġf aint
Ġun ique
c le
Ġth in
Ġli ves
Ġo wl
Ġamaz ed
Ġinc red
n own
if e
Ġpers on
Ġbutter f
ĠA ll
d er
l and
ac ing
Ġsk in
Ġadvent ures
Ġt ight
Ġca nd
Ġbene ath
ic h
Ġfr uit
Ġp ie
Ġtra in
Ġknow ledge
n er
Ġeag er
Ġs uddenly
Ġon ce
Ġkn own
Ġblock s
ic y
e ad
Ġknow ing
Ġm ist
Ġstre ets
Ġwa r
Ġl un
Ġor ange
s ed
Ġm ap
Ġbelie ve
Ġle ad
one y
Ġretur ned
Ġstay ed
Ġw ish
itt en
ch o
t o
u ly
Ġb lew
o ke
Ġwa ll
Ġst uck
pp y
Ġbro ke
Ġw in
Ġtr uly
uck y
Ġcoll ect
Ġkind ness
Ġs um
ag es
Ġth re
Ġli on
Ġbig ger
o g
Ġso l
er v
Ġo pport
Ġfor ward
Ġwh ite
Ġwe l
Ġe cho
st ep
Ġcre am
Ġdream s
Ġcuri osity
s ion
Ġd ro
Ġstre et
i an
Ġtra vel
ffe e
in ess
er y
Ġg az
Ġincred ible
Ġr u
ur ed
Ġcomp le
Ġvis it
a b
Ġc e
ke y
Ġwh y
Ġwee ks
Ġf ut
Ġc alm
Ġco ffee
Ġtre at
Ġcare fully
Ġcle aring
Ġsn ow
Ġturn s
Ġs ch
Ġmo on
out h
mb ol
Ġd est
Ġbec ome
Ġd in
Ġtra ve
Ġsy mbol
Ġcon f
Ġwa g
ĠD espite
step s
Ġstr ugg
Ġba by
Ġh ide
Ġis land
ĠBob o
o ve
Ġcha ir
Ġbu y
Ġel se
Ġfoot steps
Ġd ust
Ġv i
Ġc ur
ĠA t
Ġenjoy ed
Ġgl ad
Ġcast le
Ġp ound
Ġfut ure
Ġs itting
Ġsp l
Ġen v
Ġrock s
Ġli ve
ro om
Ġla st
u es
Ġjo in
Ġsp r
Ġm outh
Ġthan k
Ġb ur
Ġse es
ou ra
ir on
Ġin st
Ġdis app
Ġdiffere nce
ĠEvery one
Ġp ri
Ġmo ved
Ġexperi ence
Ġlook s
Ġs our
Ġlear ning
Ġm id
Ġpower ful
Ġh it
Ġme et
ĠIn side
Ġen ough
Ġour selves
Ġsc ary
Ġhim self
Ġro ad
J ust
Ġsh ining
Ġfar m
Ġget ting
Ġwo nd
Ġbus y
Ġshout ed
Ġm akes
Ġas k
Ġrepl ied
Ġte am
Ġa str
Ġstud ying
Ġpict ures
Ġf ing
Ġstor m
co very
Ġch irp
Ġwa ited
Ġbuild ing
M ia
Ġl ate
Ġbot tle
Ġsch ool
i pped
Ġg ames
Ġpres ent
k nown
Ġclot hes
h ile
ac her
Ġth ough
Ġed ge
Ġp at
Ġst one
Ġpl aces
Ġshar ing
ĠMom my
ĠL ila
Ġremind er
Ġto day
Ġsp ark
Ġth ree
T his
Ġdist ant
Ġtwist ed
Ġemp ty
Ġm ark
Ġwith out
Soph ie
Ġwor king
Ġcont ent
Ġob s
Ġdir ty
Ġto uc
Ġe er
Ġc our
Ġd ense
Ġdanger ous
Ġwr ong
Ġfair y
Ġsp ir
ul ar
Ġcom fort
Ġa head
Ġm ix
Ġs uch
ac ked
Ġbutterf ly
a isy
z z
Ġli ft
Ġon to
Ġes cape
in es
Ġsuc cess
Ġless on
is es
ĠW hat
H er
Ġho pped
Ġpound ing
on es
Ġcon s
Ġamaz ing
ud dy
u al
Ġdis covery
Ġl ed
on y
Ġfast er
s et
Ġmyster ies
Ġwas n
Ġprom ised
he l
ate ly
f ound
Ġg ather
Ġun known
Ġl ar
th y
O kay
Ġob ject
Ġbr other
Ġanim al
Ġcar ry
ig h
Ġtouc hed
Ġman sion
Ġdrag on
" .
Ġevery where
Ġspir it
r ig
Ġcour se
ic al
Ġdre w
Ġpass ed
Ġdanc ed
Ġset ting
Ġstre t
Ġcla pped
Ġp h
Ġthre w
w s
Ġdre amed
Ġw on
ha nt
Ġpo in
Ġm ay
c es
O h
Ġpie ce
le as
L ucy
ĠF in
Ġmo ving
Ġhapp en
Ġplant s
e y
Ġcomm unity
Ġcover ed
Ġfin ished
Ġw it
ĠF inally
Ġwa ved
Ġr ide
Ġr ound
Ġeer ie
it ude
Ġmountain s
ra p
Ġremind ed
as p
u p
Ġe le
s ing
Ġbel ong
Ġchan ged
Ġloc al
Ġr ust
el f
Ġd ry
Ġtal king
Ġcent er
Ġapp eared
if ic
Ġbl ank
i ence
re ad
Y ears
Ġli kes
Ġv al
Ġdes ert
Ġcook ies
Ġp i
ang u
Ġread ing
Ġd edic
Ġe mer
Ġloud er
Ġl angu
Ġe ff
o ot
Ġimp act
Ġtal ked
Ġpr act
Ġme m
Ġ ve
Ġwh ich
Ġlaug hing
Ġs in
Ġadvent ur
Ġg h
Ġsa l
Ġl ater
Ġscre am
Ġ ind
Ġshar p
Ġastr on
Ġa w
Ġd a
Ġcha os
Ġcle ar
an ch
Ġmon ths
Ġadventur ous
Ġsp read
Ġmon ster
Ġl one
ig ate
Ġus ing
Ġsp e
t on
Ġc ir
Ġre c
Ġre se
Ġsc ent
Ġlea f
Ġm at
Ġbr anch
Ġun cover
S pot
o lly
Ġsing ing
Ġsh r
Ġdelic ious
iron ment
w hel
Ġc her
Ġlet ter
Ġwond ers
Ġst ri
Ġcreat ing
Ġenv ironment
Ġbe e
Ġre ally
Ġgh ost
ot s
Ġs elf
b s
d om
Ġhig her
re st
im mer
Ġcha nce
Ġsn ack
Ġnot e
Ġland ed
Ġwander ing
Ġenc ount
Ġha rm
ĠA lice
Ġc ult
Ġwe ar
Ġsum mer
et h
less ly
Ġtow er
B ob
Ġp en
ĠD aisy
anc hes
Ġrese ar
it ion
Ġsu pport
ck et
Ġsc ient
Ġlands cape
Ġd ep
Ġbr anches
Ġvi br
bo ard
Ġd i
ce pt
Ġcount less
Ġdeterm ination
Ġn ap
ĠB uddy
Ġtri p
l s
Ġm um
Ġfly ing
Ġwhisp ers
Ġpi ec
Ġsear ching
om ing
Ġcomp ass
Ġref lect
ur ing
Ġent ered
T o
Ġad m
un g
Ġa we
Ġspend ing
Ġqu est
Ġp et
Ġe arth
Ġcount ry
it ive
or ed
Ġm a
D o
f ic
Ġown er
Ġchirp ing
Ġpurp ose
oura ge
m s
Ġp ar
Ġh i
Ġwant s
ĠSo on
b er
Ġopport unity
Ġl ake
Ġexperienc es
Ġs ister
Ġnew found
Ġsur f
o e
Ġw ings
Ġben ch
Ġarm s
Ġpiec es
el s
Ġse as
Ġab ove
s ity
ht er
Ġlaug hter
Ġp ush
Ġfo x
Ġsm art
Ġwor ried
Ġwho le
Ġt ire
Ġw ide
Ġsa ve
Ġey e
Ġy et
os p
Ġs ick
Ġad v
Ġexplor ed
Ġvibr ant
y ard
il ities
Ġgener ations
J ohn
Ġre ve
ent s
a ked
s w
Ġ Z
Ġs ou
ĠR e
Ġm other
Ġh on
g an
ss ed
Ġball oon
Ġretur n
Ġdin ner
Ġco zy
Ġsee k
Ġbr own
Ġpur s
g g
oo se
Ġbre ad
Ġpurp le
Ġb at
ac hing
Ġm in
Ġprom ise
Ġre co
ul f
Ġan sw
Ġlea ving
ĠJ ust
Ġb ou
et y
Ġto m
Ġover whel
Ġlong er
Ġpro ble
Ġre g
Ġre p
Ġcontin ue
rig ued
Ġlangu age
ic es
Ġmon key
Ġsymbol s
Ġb ite
Ġtr ou
Ġs ang
Ġl ying
ĠL e
Ġmess age
Ġl ow
Ġp our
ld er
Ġint e
Ġor gan
Ġhold ing
at itude
Ġunl ike
if f
ed dy
or ing
ĠM aybe
Ġold er
ĠJ en
Ġm ud
Ġm oney
Ġin ter
Ġex amp
g n
ir ing
Ġwel come
Ġp leas
Ġend less
Ġleg s
H is
Ġp ig
Ġst and
Ġdr ink
Ġshap es
l ic
Ġbe low
Ġy es
Ġeat ing
Ġlar ge
w ed
Ġs er
Ġm il
b it
Ġp ud
Ġp ages
ĠH ow
ow ed
Ġcon st
ro ll
Ġm ach
ell a
Ġway s
ist s
Ġpain ting
Ġte a
Ġdra wn
Ġres ist
Ġexamp le
Ġw ore
Ġdif fic
Ġcall ing
Ġw is
Ġfur ther
ra nd
Ġthin king
Ġje w
Ġm ail
Ġu r
Ġgr atitude
A my
end ing
im i
ot e
W hile
Ġg asp
Ġha unt
Ġs oup
Ġm el
im e
Ġinv est
Ġlone ly
Ġcompass ion
Ġear ly
Ġdiffic ult
Ġtran qu
Ġter ri
Ġtim es
g round
in ary
Ġc ot
Ġe gg
Ġconnect ion
Ġinte rest
Ġl ur
Ġsk ill
Ġstrong er
ĠS ure
Ġsmil es
le br
Ġher o
Ġinsp ired
Ġro b
Ġce lebr
Ġdir t
t age
Ġs illy
Ġm ad
in ning
Ġb al
Ġbow l
Ġk itten
Ġbut ton
Ġgent ly
Ġb ask
Ġca pt
Ġmiss ion
Ġreve al
r ace
Ġj u
Ġpow ers
Ġblank et
Ġc ard
Ġe ventually
Ġl it
Ġch o
Ġdust y
Ġhop ing
ort ed
Ġsn ake
Ġm ine
ll a
ic ked
ĠIt s
Ġsp ell
Ġsp oke
p er
Ġcom es
iv al
Ġsho es
Ġreco gn
m ost
Ġfeel s
uc t
Ġfl ash
Ġmar ine
Ġhesit ation
Ġth rill
Ġk ite
Ġv an
Ġbe at
Ġte eth
Sara h
Ġwa ve
Ġwh ist
Ġtra pped
Ġcot tage
Ġa p
Ġc ross
Ġco at
Ġla b
Ġshad ow
ĠO n
Ġde ad
Ġhop ed
Ġrel ie
Ġj ar
Ġstre ng
ĠP e
we en
Ġt ap
pp er
Ġ ign
Ġresp ons
. âĢĿ
Ġf ulf
ĠB illy
Ġbet ween
Ġfulf ill
lp h
ib ility
Ġb ath
o gy
Ġst aring
Ġcry ing
Ġsc r
Ġint ric
Ġgold en
Ġdo lls
Ġr acing
Ġsh iver
Ġb ike
Ġdo lph
Ġte ch
Ġroll ed
oc ked
Ġwag ged
Ġfing ers
Ġpat ient
ag ed
Ġda ily
Ġm ir
ĠS omet
Ġwor th
Ġal most
Ġsw ings
Ġany one
Ġstud y
Ġsp ine
Ġor d
h ip
Ġb uck
Ġr are
Ġr ope
Ġhill s
ll ie
Ġhapp iness
Ġb and
Ġp op
Ġcand y
Ġf it
Ġf is
Ġf ier
Ġgi ant
Ġscre amed
k ers
Ġfar mer
ol ogy
Ġwo lf
Ġdiscover ing
Ġbar ked
ha r
Ġb i
om ed
at or
Ġen g
Ġc ow
Ġsa ved
Ġe xt
ci ous
Ġtast y
id es
Ġv ent
g ly
ĠM imi
Ġplan e
iv ity
Ġsimp ly
Ġinst ead
Ġsou l
ut e
Ġemer ged
Ġsh ook
Ġwarm th
Ġpres ence
Ġcollect ing
Ġc ourage
ĠB l
ĠWith out
Ġsong s
erv ous
an y
Ġin s
Ġtri ck
' ll
Ġp ool
g r
Ġbask et
P lease
Ġte acher
Ġmid dle
Ġf aces
or row
Ġfield s
With out
Ġf le
Ġd iver
Ġn ervous
id ent
Ġli br
ort s
Ġpo l
Ġtra il
Ġresp ect
Ġter ror
A nd
D espite
M aybe
at o
Ġt est
Ġstreng th
Ġb ustle
Ġcomple te
Ġresear ch
Ġb one
oo king
Ġdo ct
O ver
Ġne igh
Ġse ed
Ġswim ming
Ġp ile
m on
Ġno se
Ġcountry side
Ġneigh b
t ory
Ġd im
Ġpre p
Ġcra b
Ġsa ck
Ġcar ried
ir th
ad ed
Ġsh y
ch ie
Ġte mp
Ġac com
Ġhid ing
Ġgrand ma
f low
Ġp atter
Ġon es
Ġac cept
Ġunderst anding
Ġme ant
if act
Ġdro pped
Ġobs er
n ot
Ġimport ance
Ġart ifact
Ġthr ow
ak en
Ġtech n
Ġca p
Ġgr ant
Ġtow ering
u b
Ġ Y
st ac
Ġv ie
Ġob stac
Ġgather ed
u ri
Ġa f
Ġs ens
Ġl ucky
ent ion
ĠF or
Ġimag ination
B e
ious ly
Ġsurf ace
Ġgra ve
Ġrem ained
Ġtran sp
immer ing
! âĢĿ
c c
Ġh ustle
Ġexper im
Ġpud dle
irth day
am a
Ġpos itive
Ġfix ed
Ġa ut
ĠW he
Ġoff ered
Mom my
Ġecho ing
Ġsour ce
st em
Ġhug e
Ġgu ard
Ġastron om
ant s
wor ld
Ġwonder ful
Ġunl ock
Ġst air
Ġas ks
ĠJ oe
Ġinvest igate
r ot
Ġp ill
Ġb ush
Ġe v
Ġst ra
Ġno ises
Ġfo g
Ġch ill
Ġt aught
i ft
Ġbl ood
Ġtreas ures
Ġbr ush
Ġrun s
his kers
Ġa v
med i
Ġtast e
Ġs udden
ĠThe ir
Ġgrow ing
Ġwhisp er
Ġit self
un a
ĠTom my
Ġfollow ing
Ġapp les
Ġe qu
Ġbec oming
Ġfind ing
Ġfam ous
Ġlibr ary
Ġb irthday
ic s
os en
Ġch osen
ĠTo gether
le t
Ġdream ing
Ġp ack
Ġk iss
Ġri ch
c hes
Ġexpl ained
Ġse at
us hing
Ġexperienc ed
Ġlun ch
c us
Ġro se
Ġfier ce
Ġdoct or
M y
Ġtr ust
Ġele p
world ly
Ġfl ick
Ġwind ows
Ġstre am
Ġsil ence
O f
or ies
Ġr aced
Ġwonder ed
Ġim medi
Ġcut e
Ġtrave led
Ġr ad
Ġball s
Ġother worldly
Ġenjoy ing
Ġt eddy
ir t
Ġlo ck
Ġsh ip
Ġbl oom
Ġmach ine
Ġcr ay
Ġcomm un
Ġspot ted
Ġl ine
Ġp an
iz ation
Ġtire lessly
as is
h o
Ġp acked
umb er
Ġune ase
a ur
p ect
Ġt aken
Ġrain b
i ar
s hing
Ġco ast
Ġtell ing
Ġcloud s
Ġap art
Ġf ence
Ġn et
at es
Ġso ci
ĠA n
Ġgl ass
Ġfight ing
Ġg em
ĠW hiskers
Ġtur tle
ment s
ĠC h
vel op
Ġtranqu ility
Ġm er
Ġme ad
Ġrob ot
ĠT hank
Ġposs ible
Ġmil k
Ġpatter n
Ġt ent
ir ation
Ġgra b
Ġpo cket
Ġlisten ing
Ġpu zz
ĠB e
ra id
Ġwander ed
i ant
ump y
Ġnight m
Ġtal ent
Ġhis tory
Ġex am
Ġwr ite
ĠBl ue
Ġo asis
Ġn aught
it al
en a
Ġg ate
id ge
Ġte ach
Ġcook ie
ĠPe ople
Ġst roll
Ġgr ay
Ġnaught y
il ed
Ġbal ance
Ġimmedi ately
N ow
d ing
ĠM ark
Ġnightm are
ot ic
Ġking dom
Ġaccom pl
id er
ĠB ella
Ġdisapp eared
en ing
Ġemb race
Ġaf raid
Ġche ered
u bb
Ġwhat ever
Ġdes er
b all
Ġa chie
Ġf aced
Ġthink s
n c
Ġf ra
Ġe lder
Ġu gly
Ġwould n
Ġde v
Ġpro v
Ġwhisp ered
Ġduck s
Ġdro ve
Ġb rill
ay s
ne ver
ĠE ven
Ġtw ig
Ġshad e
Ġencount ered
Ġju ice
Ġcl ass
Ġsm oot
Ġca ut
Ġc art
ri b
Ġcontent ment
ĠF red
Ġeven ing
ib ilities
Ġsmoot h
a f
es e
Ġsc en
Ġdec ay
az e
Ġp ace
Ġvie w
Ġ et
ig g
Ġy ear
Ġfor ce
ack s
Ġcl iff
Ġun us
ell y
Ġelder ly
Ġin f
ĠM ar
Ġco in
Ġwalk s
oo f
ĠLe o
Ġs ent
Ġb ark
Ġn ut
ant ly
Ġrainb ow
n al
er p
Ġsh immering
Ġb an
Ġd at
Ġha ll
Ġal i
Ġgi ven
u nd
Ġtreat s
J ack
Ġwe ak
co l
Ġrock et
Ġc amp
Ġso ot
Ġsear ched
Ġd ire
Ġz oom
Ġprin cess
Ġdelic ate
Ġord inary
Ġbrill iant
Ġg ri
Ġdog s
Ġmiss ed
Ġroll ing
Ġshe ll
Ġthem selves
Ġunus ual
Ġsun light
iz ing
b ble
Ġst at
Ġre ce
Ġstr uck
Ġe m
Ġj ung
atter ed
Ġlift ed
os y
Ġt akes
Ġheal thy
Ġspl as
Ġcir cle
E m
Ġfr ight
L ila
i ved
Ġs ust
Ġnot ice
Ġheal th
Ġgaz ing
is a
Ġbe ha
Ġintric ate
Ġ icy
Ġc or
ĠS p
Ġv ol
mb er
Ġexc iting
Ġtw ins
Ġtrave ling
Ġha ng
Ġdri ve
Ġ que
Ġd ig
ic t
Ġtran s
Ġelep hant
Ġdire ct
iv il
Ġwhist le
Ġf il
Ġc ivil
Ġsa f
Ġshe lf
Ġr ing
Ġexp an
wor k
G ood
Ġst ir
Ġgr umpy
Ġimp ress
Ġflash light
O n
Ġr is
Ġman aged
Ġent ire
Ġobstac les
Ġb are
er ry
Ġli f
Ġdri ver
O K
f or
Ġm ot
Ġcan not
Ġmyster y
Ġpleas ures
Ġrespons ibility
Ġdes ign
un k
Ġbo ard
Ġdat a
a ly
Ġback yard
Ġb ought
Ġbe ll
Ġgre et
Ġstre ss
Ġconf used
Ġskill s
h ood
z ing
Ġbus hes
Ġ ill
le v
Ġj elly
Ġstr ing
Ġpain ted
ip s
Ġecho ed
nt rigued
Ġch oose
Ġmar ve
Ġpu ppy
Ġph one
Ġsust ain
l ter
Ġexpan se
r act
Ġn av
Ġr ude
Ġsho ot
ĠS t
ac hes
Ġcl own
Ġpe e
Ġhar sh
Ġp it
Ġe ars
Ġshe lter
Ġsc ience
Ġhor se
Ġimag ined
b led
op s
ert ain
Ġoverwhel ming
Ġbuck et
Ġco nd
Ġmag n
Ġac c
Ġdiver sity
k in
l ies
Ġo cc
Ġm aybe
Ġwor ries
Ġbeg inning
Ġtemp le
Ġque en
ut ion
Ġup set
Ġfe ather
Ġpre ssed
Ġinterest ing
Ġs ne
Ġcr isp
Ġmean ing
ĠE arth
ĠMom o
Ġcult ures
Ġlur king
c ked
u ce
Ġsp un
Ġche ese
Ġb low
id ing
Ġre ne
Ġwr iting
x c
ent ial
Ġsp o
ol og
Ġswe at
Ġemb ar
Ġjew el
a le
s m
Ġdes pite
Ġcha sed
g gy
Ġsh ut
Ġevery day
Ġhon est
p ack
t led
Ġbe ck
Ġglow ed
Ġdraw ing
Ġmem ories
m in
Ġr ise
Ġex ist
Ġlight s
Ġbug s
Ġh oney
Ġbo ss
Ġpart ic
Ġjo g
Ġp ort
end ed
Ġsu pp
Ġinsp iration
Ġclot h
Ġjung le
S ure
Ġwas hed
ĠIn st
Ġhum ble
Ġpurs ue
Ġtransp orted
Ġsoot hing
Ġo ven
Ġsa v
Ġam ong
anc y
Ġpres er
Ġpers pect
Ġproble m
o ld
Ġ er
Ġh osp
il t
Ġhug s
iv id
Ġbare ly
H ow
S t
l ine
ĠL ena
Ġsp oon
Ġcreat ive
Ġfin ish
iz zy
Ġmead ow
Ġint ro
Ġoff er
Ġdedic ation
Ġfright ened
s ure
Ġn ur
ut h
Ġme as
Ġsu b
Ġmir ror
iz z
Ġwind ing
ĠG rand
ĠHow ever
Ġm aze
Ġsand w
Sam antha
Ġmist ake
Ġstret ched
Ġcaut iously
Ġr ush
Ġpr ay
Ġcr ow
Ġf aded
Ġm edic
Ġamaz e
Ġwel com
Ġmeet ing
oo p
Ġsmell y
Ġph ot
Ġlo se
Ġde af
Ġdr ank
Ġdep ths
Ġthrill ed
uri ous
Ġatt ention
h ouse
Ġstr anger
Ġtr ud
Ġde er
Ġj ud
Ġshe lls
Ġact ions
Ġhi king
F or
r ors
Ġstat ue
Ġto ug
Ġp air
Ġg al
Ġmark et
ĠWhe ther
Ġd ug
Ġe c
ĠL isa
ĠM olly
ast ic
ang ers
Ġself ish
Ġhosp ital
Ġd ish
at ure
Ġhelp ful
ud d
Ġbea k
Ġrel ax
Ġsin ister
Ġmel o
' ve
u able
Ġpass ing
Ġsear ch
Ġban an
Ġl ad
Ġsp in
z ed
Ġ U
Ġw ha
Ġw ing
id y
Ġwhe el
Ġseas he
Ġet ched
S oon
c ope
Ġcomp et
Ġjour nal
Ġref used
Ġdanc ing
Ġin ha
Ġcher ish
Ġall ey
Ġtr uth
Ġspe ak
Ġgal ax
ĠI ntrigued
Ġwe ight
il iar
Ġchallen ge
oom y
Ġcomple x
Ġdest ination
L ater
os s
Ġposs ibilities
Ġsnow man
Ġmem ory
Ġtrou ble
Ġgreet ed
Ġsee m
Ġthrough out
Ġcivil ization
Ġm ent
Ġshap e
r ay
Ġp ay
Ġr ough
ht aking
Ġpre cious
co nd
Ġcle ver
Ġbreat htaking
He y
Ġcre aked
ĠAn n
ĠInst ead
Ġtrud ged
ĠA l
Ġche er
Ġmid st
Ġpoin ted
ĠSomet imes
Ġs ke
Ġb ak
Ġf ancy
Ġm ass
Ġas king
Ġso ck
d e
Ġf act
Ġent r
Ġinv ited
Ġfruit s
Ġcommun ic
xc ited
Ġamaze ment
p s
Ġbelong ed
Ġastronom y
ion al
Ġsur v
Ġstud ied
Ġinsp ire
Ġsleep y
Ġh unt
Ġtom orrow
E ventually
i o
Ġin j
ĠB ird
Ġfe ed
Ġgr ace
Ġmo d
Ġdre ad
orm al
Ġlad der
Ġf a
Ġp ul
Ġwe ather
Ġsh irt
Ġle mon
Ġco b
and y
Ġjump ing
Ġsurround s
Ġact ion
Ġval uable
in ted
Ġm ed
The re
ust r
Ġperf orm
Ġt un
Ġm elt
all ey
Ġart ist
Ġdest ro
Ġneighb or
i pping
Ġfor m
Ġgu it
Ġloc ked
Ġwit ch
ĠRe my
itt er
Ġv alley
joy ed
hy s
Ġl amp
Ġp hys
Ġtre acher
Ġsw ord
Ġstick s
Ġspark ling
Ġtreacher ous
Ġs na
Ġse cond
Ġgr own
umb ling
Ġbu ilt
ĠO llie
In side
Ġmess y
Ġbur st
Ġterri ble
Ġali en
Ġhe at
Ġspl ash
b ook
el ing
Ġz oo
Ġr ug
ĠW ill
ĠE lla
Ġad d
Ġcha r
Ġcha mber
Ġbot t
Ġrust ed
Ġguit ar
Ġth irst
ĠL una
Ġsee king
Ġwar ning
Ġcob we
d uc
n ces
Ġo min
Ġsun set
Ġomin ous
o ppy
Ġcha sing
Ġgi ving
Ġspr ay
Ġvan ished
Ġan aly
Ġad or
Ġch ick
Ġfresh ly
ro ve
Ġcra w
Ġsight s
Ġghost ly
u ne
Ġwa ke
Ġst un
Ġint ell
Ġthought s
Ġbright er
d o
l a
Ġenc hant
C ome
Ġw rap
in t
Ġre aching
Ġsmil ing
Ġdad dy
Ġbra very
Ġcoll e
Ġtoug h
Ġb ound
Ġforest s
Ġcra shing
irp y
Ġstrugg led
Ġve get
ce ed
Ġpo or
Ġafter n
Ġpour ed
Ġrece ived
p e
ou ch
Ġwe al
Ġse ll
Ġwor m
Ġcr un
aught er
Ġgaz ed
Ġtap e
Ġeng ine
Ġapart ment
a pping
ĠT h
Ġn ormal
ĠC at
Ġforg ive
Ġinc l
Ġtechn ology
Ġp in
Ġe man
Ġdec or
Ġdolph in
ll o
Ġwe aring
Ġsp icy
Ġover come
Ġjo ined
Ġpers ist
Ġnest led
Ġlead ing
Ġgrant ed
S ally
i or
r ough
Ġfur ry
Ġhesit ated
Ġsuccess ful
m other
Ġreveal ing
Ġfra g
e f
ar led
on nect
Ġnow here
Ġgo at
Ġcat erp
Ġsmell ed
Ġhun g
Ġpa w
Ġprin ce
Ġcelebr ate
Ġcaterp ill
y l
ĠS ome
Ġr oof
Ġlo omed
Ġab ility
Ġscen e
Ġt idy
Ġse al
um s
Ġvis ited
Ġpa id
Ġtun ne
Ġb ase
un ities
um e
Ġkn ocked
Ġpretend ed
Ġsoci ety
Ġintell ig
er a
Ġl ush
Ġdress ed
Ġobser ving
Ġsaf ety
Ġc am
Ġd aughter
ĠE ach
Ġgi ves
Ġansw er
Ġkn ife
Ġcreat ed
ĠC ome
? âĢĿ
Ġwa nd
Ġh om
Ġsp ider
Ġsh ift
ol ent
Ġfig ures
Ġforgot ten
Ġopport unities
Ġm is
Ġp ure
Ġdes c
Ġbuild ings
Ġspr ing
Ġbou nc
Ġcha se
bo x
Ġcla ws
Ġpri or
Ġwit ness
Ġev il
Ġpuzz le
Ġt ie
Ġf ake
ver s
Ġartifact s
Ġpartic ular
Ġc hat
Ġst ones
Ġshe ep
ug ar
Ġwonder ing
Ġbag s
Ġdestro y
p es
in a
it s
Ġg igg
Ġcom b
Ġclean ed
Ġdel ight
Ġwhe never
Ġsuc ceed
ĠCh irpy
Ġin se
Ġco sm
Ġbreat he
Ġwr ote
ĠDad dy
Ġpl ate
Ġth reat
Ġmet al
Ġper se
Ġvast ness
Ġsail or
Ġur ge
Ġaccept ed
Ġrene wed
Ġc age
is ion
Ġg un
Ġsh one
eterm ined
Ġtast ed
Ġconnect ed
Ġdeser ted
Ġcaterpill ar
ĠT V
Ġth ri
Ġback wards
Ġbreat hing
Ġcra sh
Ġprin t
Ġrelie ved
Ġpill ow
a ut
y al
Ġf an
ac y
ri ck
ĠHe re
Ġan x
Ġstart ing
Ġyour self
ĠD ucky
Ġcr ack
iss ors
o ons
Ġs ugar
in al
Ġre ward
Ġres il
Ġn umber
Ġreal ity
Ġstep s
Ġexperim ent
Ġw ra
Ġg n
ĠI f
el es
Ġput s
ĠR ose
Ġwhisp ering
Ġvent ured
i ves
o ff
v ie
at ive
Ġsc issors
Ġgo es
Ġgo al
Ġen orm
Ġboss y
Ġt ext
Ġt eles
el p
Ġsc ar
Ġover joyed
Ġlove ly
Ġunderst ood
n ival
Ġrock y
Ġsin ce
Ġp enc
ir ts
Ġpro ject
ens ive
To gether
Ġgasp ed
izz a
Ġshe lves
Ġso ld
Ġex h
Ġcar nival
ĠBen ny
Ġpic n
Ġbus iness
Ġmat ch
Ġpenc il
k y
Ġm en
Ġr ag
Ġsh ort
Ġro ar
Ġfo cus
Ġsurround ings
hy th
Ġdedic ated
Ġc ouch
Ġla zy
Ġgl itt
Ġgrand mother
Ġstair s
ĠMar ia
Em ily
u ries
Ġres our
Ġprotect ing
Ġbott om
Ġf ather
Ġr ot
os aur
Ġdiscover ies
Ġsol ve
Ġmix ed
Ġsnack s
Ġma j
Ġse ver
Ġbr idge
Ġpa le
Ġpot ential
Ġcir c
K itty
Ġcl ock
Ġun c
az or
Ġgl ue
Ġdes k
Ġdin osaur
Ġbou nce
Ġcray ons
Ġsever al
Ġex otic
Ġover head
Ġdis pl
Ġbu ried
Ġsqu are
Ġneck l
Ġcompassion ate
Ġh orn
Ġr hyth
Ġdr um
Ġhappen ing
Ġspell s
flow ers
Ġentr ance
Ġto r
Ġr um
ic ally
Ġfl ag
Ġhor ror
ĠDo ggy
Ġwee k
Ġeff ort
l ooking
m osp
Ġp ir
am ond
ĠB unny
Ġat mosp
Ġspec ies
Ġsu per
ab les
Ġatmosp here
Ġp ushing
is hing
Ġset tled
Ġche w
Ġvo ices
Ġsil ver
Ġscr at
g s
u nder
Ġf ool
Ġd et
Ġfriends hip
Ġdi amond
Ġwis hes
Ġm use
Ġas yl
Ġor ig
Ġneed s
Ġres c
ĠGrand ma
Ġgn arled
Ġasyl um
Ġs ort
it ions
at s
Ġth ro
ĠB r
Ġmo der
oph y
Ġyell ed
ĠâĢ ĵ
Ġrec ord
Ġorgan ized
ĠJen ny
Ġwha le
Ġprior it
Ġenorm ous
f all
Ġt ask
Ġr azor
bb les
ush room
Ġemb ark
Ġlun ged
Ġspirit s
Ġfis her
Ġmedic ine
Ġfool ish
H elp
c ase
Ġp izza
ur b
ĠB y
Ġout s
ĠW hy
ĠG o
Ġpri ze
Ġwelcom ed
Ġmoder n
s hed
Ġa nts
Ġreal m
Ġdoor s
Ġhor rors
Ġpaint ings
Ġrelie f
Ġsplas hed
Ġt ick
ha med
Ġas hamed
Ġexp ensive
Ġfr ustr
Ġwr itten
Ġcomplete ly
velop ed
Ġsustain able
oo ked
Ġk icked
Ġcar rot
Ġwood en
Ġplan ets
Ġsurround ing
Ġstret ch
Ġstri ve
Ġaccompl ish
D etermined
l t
Ġw ip
Ġd izzy
Ġplay ful
un es
Ġlo yal
Ġqu ite
Ġcand le
Ġstrugg ling
Ġlo ves
Ġref re
Ġfing er
f ish
Ġb ake
Ġp ump
Ġhe llo
Ġin n
ĠJ erry
Ġcarry ing
Ġfis hing
Ġcosm os
f ied
st ore
Ġy og
as er
Ġpr ide
Ġreg ular
Ġperse ver
M ary
Ġbook store
Ġcomp any
Ġbright ly
Ġbar n
Ġproble ms
ĠM ama
Ġbo ot
Ġle an
ak y
Ġfall ing
Ġsens ation
Ġgri p
Ġm ushroom
Ġha lls
um in
Ġclos et
unt e
Ġwild flowers
Ġvol unte
St op
Ġstun ning
Ġdispl ay
Ġs ig
Ġs uff
Ġf ought
Ġback pack
ĠJ im
mb ling
Ġtri es
Ġmean s
Ġtow el
Ġneckl ace
Ġ 3
Ġs le
Ġco st
Ġsw an
ip her
sh ine
Ġma lev
Ġtom ato
Ġrhyth m
Ġha lf
Ġbr ings
ĠJ ill
Ġcont ro
Ġset s
Ġsn ap
Ġsil ent
Ġje ep
Ġsal ty
Ġquest ions
Ġmeas ure
Ġaftern oon
re ady
ĠT iny
Ġal ready
Ġatt ract
Ġes cap
ic ing
Ġwe ird
ust ing
Ġno isy
uc ked
Ġfill ing
Ġatt ic
Ġbelie ved
Ġthro at
Ġstill ness
Ġremind ing
Ġfro ze
Ġsail ed
Ġcomfort able
Ġscient ists
Ġachie ve
Ġembar ra
Ġpicn ic
Ġglitt ering
Ġb oring
Ġc ro
it her
Ġbe an
Ġjo ke
Ġeman ating
Ġp ier
Ġpic king
ĠBob by
Ġshould er
ĠTo day
Ġpop ular
Ġfrag ile
p a
Ġas leep
Ġme al
ter ed
ag g
Ġare a
Ġexplor ation
Ġgrow l
Ġthank ful
Ġastron aut
Ġill umin
Ġinha bit
a ff
c ha
i pp
Ġst age
Ġle ather
Ġcl ay
Ġcur sed
Ġsc are
Ġsun shine
Ġdec ipher
Ġdiffere nces
Ġquick ened
Ġegg s
Ġcho col
o ved
ot ed
Ġe vent
Ġr ushed
ust om
Ġsmall er
Ġdist urb
Ġmust y
Ġvis ion
Ġhaunt ed
Ġtrick s
Ġinse ct
Ġfor th
Ġwr it
Ġsy stem
Soph ia
Ġnote book
Ġsandw ich
Ġdis c
Ġste al
Ġremind s
Ġrecogn ize
Ġseashe lls
Ġcontro l
at ory
Ġsm oke
Ġrem ain
ĠC urious
Ġgasp ing
Ġanaly zing
E very
k irts
Ġm ill
Ġcre aking
ber ry
Ġstra w
osy stem
Ġec osystem
Ġouts kirts
re ne
Ġc ustom
Ġun f
Ġtr unk
Ġappreci ation
Ġless ons
Ġmelo dy
Ġmaj est
Ġf ountain
Ġk ick
Ġtra p
Ġuse ful
Ġchocol ate
Ġc em
Ġdo ve
Ġworld s
Ġpe ar
Ġgr ot
ĠE ventually
ia ble
eter y
Ġspe ed
Ġpol ite
Ġflick ering
Ġbak ery
Ġcem etery
re t
it ch
Ġr ustle
Ġth under
Ġj am
Ġsur ge
Ġcha rm
erv ation
ĠRe x
Ġpriorit ize
e e
u el
Ġs que
Ġclimb ing
be ing
Ġleg acy
com fort
Ġoverwhel med
Ġnav igate
n ight
Ġm ast
Ġm uff
Ġh ike
id st
Ġst ared
Ġr out
Ġback ground
Ġdis g
Ġcra wl
Ġeff orts
Ġscient ific
m it
Ġm ask
Ġst om
ĠL ife
Ġv ict
Ġshow ing
ĠP lease
Ġgener ous
Ġstrugg les
Ġcheer ful
Ġ Once
Ġst uff
Ġfor t
Ġso ap
Ġv ase
Ġsha king
Ġext ra
Ġocc as
p h
im ate
Ġbe ast
Ġse ren
Ġint rigued
Ġgreat er
Ġste ak
anc ed
Ġdolph ins
Ġgrave yard
Ġpattern s
agg ie
Ġseren ity
in ct
en ny
Ġg ro
es que
ut es
ep ing
Ġpre ss
Ġmusic ian
Ġscar f
Ġgrot esque
i ally
Ġg ained
ĠB u
ĠB ear
Ġclos ing
Ġdes per
cre am
ĠN o
Ġpot ato
Ġconst antly
Ġenchant ed
he t
Ġc ries
Ġtw ink
Ġpract iced
Ġhaunt ing
Ġseed s
Ġb er
Ġan g
Ġhelp less
Ġv ines
Tom my
Ġsu it
Ġrep air
Ġshadow y
Ġcrow d
Ġtunne l
Ġber ries
Ġj ol
Ġreal ize
ĠD on
ĠAnd y
bo dy
Ġpa ws
Ġcent uries
up id
Ġmalev olent
Ġr ul
Ġsay ing
Ġshar k
Ġteles cope
b re
ag ull
Ġcr own
Ġgu ide
Ġmiss ing
Ġem ot
Ġhom es
Ġfrustr ated
u ing
Ġo w
Ġd ull
Ġg oose
Ġag o
Ġbed room
Ġinsp iring
Ġleg end
Ġtight ly
n it
Ġb ored
Ġb itter
re r
Ġf at
Ġl uck
Ġp il
Ġor der
Ġsound ed
Ġbring ing
Ġcraw led
Ġveget ables
n ow
he st
Ġb ul
er ness
ill ed
Ġexpl ain
Ġcreat ivity
Ġhard er
Ġchallen ging
Ġsho e
Ġfall en
Ġcam era
st ri
Ġim m
Ġgaz e
Ġfact ory
o v
ad o
Ġall ow
Ġcl ap
Ġkn ight
Ġsing le
Ġwild erness
Ġwis dom
Ġment al
c orn
Ġs way
re p
Ġp age
Ġst upid
Ġrest less
Ġcomm on
Ġval ue
Ġdirect ion
Ġjud ge
Ġo ak
Ġoff ice
âĢ ľ
Ġsl ipped
Ġmight y
Ġhuman s
Ġdim ly
Ġacc ident
Ġintro duc
Ġwra pped
c ed
Ġf ine
il ar
op us
ct opus
Ġsor ce
Ġwag on
Ġsal ad
Ġmin utes
Ġign ore
g est
Ġd amp
Ġmom s
ra in
Ġall owed
ro be
Ġor n
Ġinhabit ants
d d
Ġto es
Ġpr op
az z
Ġind ivid
Ġjew els
Ġperspect ive
Ġstom ach
D ad
Ġm ic
Ġp or
Ġheart s
Ġgreat est
pl ace
Ġba ld
Ġeager ly
Ġf acing
Ġl ined
is ing
is on
Ġg ust
ĠM any
ep end
ĠSam my
Ġrem ote
Ġsat is
Ġeff ect
Ġbanan a
Ġdisg usting
c y
Ġt ag
Ġs ending
ed ient
Ġb le
Ġbe es
Ġtre mbling
Ġsee ing
Ġun comfort
Ġsome where
Ġgra sp
Ġhand le
Ġide as
Ġscre en
Ġguard ian
Ġmass ive
Ġmuse um
t i
u le
Ġt ig
Ġh ous
st ig
el ess
Ġpe ered
Ġpe bble
Ġpre stig
Ġadm iring
it ation
Ġo ctopus
Ġp al
Ġg ain
al ity
ad ing
ra ft
Ġhelp s
Ġfe ars
Ġab ilities
Ġcon vers
Ġwater s
Ġcare er
Ġorig inal
ĠBr own
al ous
Ġse rene
Ġroom s
Ġstor my
Ġclean ing
Ġscient ist
Ġtrou bled
Ġmel on
' d
Ġb ones
or ry
Ġha y
Ġcat s
Ġam b
Ġob edient
Ġent h
Ġpull ing
Ġcommunic ate
Ġuncomfort able
Ġprestig ious
f ast
Ġbe ings
Tim my
Ġcomp ut
Ġdel iver
Ġdri ving
Ġje alous
Ġdep end
s c
t ain
w ater
Ġpo lice
He re
Ġwhe at
Ġshr oud
Ġanx ious
Ġresil ience
Ġpump kin
n at
ĠW hile
Ġclose ly
Ġnut s
Ġport al
Ġt ied
Ġd uring
Ġd angers
id ence
Ġde f
Ġthought ful
Ġcont rib
Ġent er
Ġwin ter
Ġlive ly
Ġencount er
et ime
The ir
Ġla w
Ġknow s
Ġwater fall
Ġend ing
Ġhead ed
Ġsqu ash
Ġfur nit
Ġpar rot
Ġpop corn
Ġfurnit ure
J ane
t able
Ġg ar
im ed
ig or
Ġst aff
Ġro ots
us i
Ġno vel
Ġshow s
Ġhair s
Ġhuman ity
Ġind epend
Ġchick en
Ġbul b
Ġenth usi
Ġt apping
Ġr at
sh ips
Ġgu ess
Ġadm ire
Ġadv oc
ĠSomet hing
Ġ ess
Ġa unt
Ġn ar
us ing
Ġcha nt
ang le
Ġexperim ents
bre aking
Ġb atter
am ing
Ġlight ning
Ġgl oomy
Ġcra zy
Ġcobwe bs
Ġresour ces
c ing
p aced
Ġc ours
Ġde m
Ġpo st
ĠO ver
Ġpoin t
Ġcross ed
flow er
Ġspo iled
Ġhous es
R e
r ots
Ġt ucked
Ġhe ars
Ġin e
Ġbig gest
ĠM ay
Ġfo ld
Ġpo ll
ĠC ar
Ġbreat hed
Ġjelly fish
Ġmarve ling
Ġintellig ent
c are
Ġ ing
Ġc op
Ġl at
Ġp alm
ĠT r
um ed
ie f
Ġam idst
Ġte ars
Ġground breaking
ma id
Ġcre pt
Ġcond uc
Ġdet ail
Ġembarra ssed
Ġtig er
A re
Ġst ubb
Ġse agull
Ġsp ac
ust ed
Ġco ins
Ġexp ress
Ġun sure
ĠC l
Ġche ap
Ġresp ected
Ġfin al
Ġjol t
Ġcomput er
Ġstubb orn
z ard
Ġd art
Ġp ine
Ġst ation
Ġbr ace
Ġsun flower
Ġstr uct
Ġwill ing
Ġac orn
Ġloud ly
ĠP oppy
Ġste ep
Ġenc oura
Ġcons ervation
Ġreflect ion
Ġequ ip
Ġmer maid
Ġstroll ed
Ġescap ed
Ġintroduc ed
Ġt attered
Ġu mb
Ġmo vie
Ġwhere ver
ath y
Ġsafe ly
Ġpast a
Ġlun gs
Ġaw are
Ġsne e
Ġequip ment
Ġumb re
i ving
t ling
Ġ '
Ġa ge
Ġlo oming
Ġco co
Ġcar rots
Ġimag ining
Ġpa used
Ġsal t
Ġdi ary
Ġweal thy
Ġnar row
b l
Ġin vent
Ġsp aces
Ġex ha
Ġcomp l
Ġlar ger
Ġfeather s
Ġpreser ve
Ġnur se
ums y
Ġindepend ent
x ible
Ġha ts
Ġli zard
Ġre ef
ĠM aggie
ec raft
Ġout do
Ġtr ack
Ġbeg in
Ġset tle
Ġinj ured
Ġspac ecraft
l ass
Ġc ush
il ing
Ġle ap
Ġch ur
Ġfr own
br ush
Ġprotect or
Ġmind ful
Ġpath s
Ġed uc
Ġexam ined
Ġoccas ional
ĠS unny
Ġst amp
op ard
Ġfl uffy
Ġimp rove
Ġtell s
Ġharm less
Ġhang ing
udd led
Ġpor ch
Ġc one
ic ip
ag ers
Ġsc ale
Ġfore bo
Ġwo lves
Ġnight s
Ġprep ared
Ġprov ide
Ġforebo ding
a w
m pt
r s
Ġto ast
Ġto mb
ke ep
Ġtr acks
th ough
Ġter rain
Ġant icip
Ġdisapp ear
Ġshoot ing
c ast
p ort
Ġe lect
Ġcl umsy
Ġfl our
Ġkind s
Ġlet ting
Ġfam iliar
Ġgl imp
Ġkeep ing
Ġra ven
Ġtri pped
Ġmar ch
Ġvent ure
Ġbeck oned
I f
S orry
w al
Ġc al
am ent
Ġcoll ap
Ġhair y
Ġpen ny
Ġansw ered
How ever
z en
Ġf est
Ġl im
Ġp ause
Ġj ack
ap id
Ġtur ning
Ġfr ame
Ġpick s
Ġbeha ve
Ġthirst y
E xcited
W here
r id
Ġb rick
ft ed
Ġyour s
Ġche ss
Ġdes ire
ĠP eter
Ġsto ve
Ġsign s
ific ant
W ho
ar n
ill a
Ġro de
Ġad ded
Ġho se
Ġbu bbles
Ġboat s
Ġtall er
Ġser ious
Ġshroud ed
c used
Ġf reed
ent ly
Ġli e
Ġexp ect
ap ers
Ġbl ind
Ġfo cused
Ġwild est
Ġpract ice
Ġquest ion
Ġfle xible
Ġmot or
onnect ed
M olly
Ġd ough
Ġpl astic
ag het
Ġca se
Ġv ar
Ġboy s
Ġfire place
Ġcryst als
Ġposs ess
Ġpig e
Ġbath room
Ġpan ic
Ġsig hed
aghet ti
D ays
Ġt y
Ġs ink
Ġd ive
Ġl ing
Ġu nd
Ġsh ine
um n
Ġun able
Ġocean s
we et
Ġconst ant
Ġfulfill ment
ĠY our
Ġcray on
Ġpersist ent
Ġoutdo ors
g lass
l m
Ġa rom
Ġs end
co d
Ġtur key
Ġra ft
Ġba ked
Ġmail box
Ġcharm ing
Ġ iron
Ġs orts
Ġne g
Ġj ug
Ġappro ach
Ġwhe ther
Ġrust led
Ġrad io
Ġmagn ific
nat ural
Ġsp aghetti
Ġcl ub
Ġqu it
Ġjoy s
Ġcorn ers
Ġbar ber
Ġtor n
Ġinn ov
Ġsque e
g ress
it able
es h
es mer
Ġgo als
Ġkne e
Ġen vel
Ġrest ore
Ġru ined
Ġcur tain
Ġrust y
Ġimpress ive
Ġstress es
Ġresc ue
Ġumbre lla
Ġenvel ope
Ġ eter
Ġwe ap
ĠA m
Ġle opard
Ġkn ock
Ġen veloped
Ġsk ipped
ĠEvery where
Ġbreak fast
Ġpract icing
Ġaccomplish ment
Ġdepend able
d ies
f ather
Ġp ed
on ing
ic king
Ġball oons
ĠJ ul
Ġchild hood
Ġfro zen
Ġjo lly
Ġmar vel
Ġperf or
Ġinv iting
Ġsho cked
Ġemp athy
Ġign or
Ġscr am
Ġcro cod
Ġb in
Ġhe lm
Ġh ood
Ġal ert
Ġgr ad
Ġfl esh
Ġunder ground
Ġho pping
Ġfascin ating
Ġbutterf lies
Ġve il
Ġstri ke
f ying
t ter
Ġf our
le x
Ġpl aced
Ġy arn
Ġde ath
Ġar row
Ġsleep ing
gr own
Ġaut umn
Ġbloom ing
Ġmarve led
Ġexh ilar
M e
c ri
e k
p et
Ġb aking
Ġno body
Ġpre vent
ĠO l
Ġtwig s
Ġmeaning ful
Ġincl ud
Ġfisher man
Ġconvers ation
Ġcours ing
L ife
Ġc ooking
Ġm ater
Ġv end
Ġstart s
Ġdec ide
Ġget s
Ġgrow th
Ġdri ven
Ġgift ed
Ġjewel ry
Ġbrace let
Ġstruct ure
g u
Ġb orrow
Ġg all
Ġin str
Ġsh ield
Ġbo ots
Ġpe pper
Ġsun glass
Ġover grown
Ġimp oss
Ġbel t
Ġcount ed
Ġmove ment
Ġenv ious
Ġcons umed
Ġlif etime
Ġsunglass es
p ar
Ġwas te
Ġre ver
Ġca f
Ġv owed
Ġbu bble
air s
Ġbel oved
Ġent ity
Ġdisapp o
Ġspread ing
Ġcho ice
Ġimpress ed
keep er
Ġanticip ation
Ġignor ant
M ama
Ġh oop
ig ator
st airs
Ġas s
Ġdr op
Ġes p
Ġav oc
Ġaccompl ished
Ġblow ing
Ġdeaf ening
Ġchur ch
Ġs ip
re al
Ġf uel
Ġc ertain
Ġp ants
Ġfo lder
Ġbox es
Ġte ar
Ġte mpt
Ġfill s
Ġsoft ly
Ġchan ging
Ġimag ine
Ġunl ocked
gr am
Ġgalax y
Ġpige on
c han
ou nce
er able
Ġbr ows
Ġcare less
Ġgl immer
Ġpro gram
Ġdraw ings
Ġcand les
Ġkiss ed
Ġbeck oning
Ġgalax ies
Ġneighbor hood
Ġelect ric
Ġcrocod ile
B y
Ġo pp
Ġm ild
Ġp apers
Ġsp inning
ul u
Ġun pr
Ġexper t
Ġtri angle
Ġz ip
Ġpee k
Ġmis erable
Ġjack et
Ġarom a
en ry
ar ies
Ġg or
Ġsa ving
Ġe ither
ic orn
Ġtr ump
Ġor b
Ġte le
Ġsurpr ises
act ion
Ġsn iff
Ġhold s
Ġconf ident
Ġaw a
Ġhall way
olog ist
Ġalley way
Ġparticular ly
Ġunc ertain
Ġunpr edic
a pped
r ous
y m
ar m
Ġso ar
Ġcl o
Ġint ense
Ġam bit
Ġunder water
Ġhand ed
Ġhot el
Ġpat ch
Ġmod el
Ġsorce rer
sc rap
T h
c ut
Ġf ate
Ġc el
Ġc act
Ġp ian
Ġg ear
Ġg ym
Ġin cre
ter ing
Ġpe ach
Ġcont ained
Ġflo ating
Ġrel iable
Ġpoin ting
Ġharm ony
ber ries
Ġfulfill ed
Ġaut om
Ġfest ival
Ġmagnific ent
Ġc ooked
Ġn umb
Ġn osy
Ġlo g
Ġcha otic
Ġpro gress
Ġsquirrel s
Ġwond rous
Ġnap kin
for g
Ġsupp lies
Ġgrace ful
Ġsle pt
l k
Ġsa us
Ġca using
ess ie
Ġv ine
Ġcon c
Ġun icorn
Ġte aching
Ġsky scrap
Ġgrand father
Ġwar n
Ġobject s
Ġrep e
Ġmuff in
Ġimposs ible
M um
l ife
in king
Ġlo ll
Ġneed le
Ġhur ts
Ġsand cast
Ġconst ell
Ġtrans for
Ġfil thy
Ġcush ion
Ġtrump et
Ġpian o
s es
Ġc ell
Ġha bit
ĠThe se
Ġso il
Ġall igator
ter s
Ġgr in
Ġche ck
Ġgrow ling
Ġcult ure
Ġattract ive
Ġpal ace
i pper
t ime
z zy
Ġm ath
Ġsk ip
Ġuniver sity
Ġspl it
Ġenvironment al
Ġadm ired
Ġlur ked
Ġcrun ching
Ġlean ed
Ġmajest ic
Ġgar age
ĠMay a
Ġloll ip
. .
ĠM iss
Ġsw ung
ĠJ ake
bb ling
Ġbu zz
Ġnod s
Ġmoon light
Ġuncover ed
Ġadv ice
Ġpour ing
Ġser ve
Ġav ail
ubb y
Ġphot o
Ġsurv ive
Ġm esmer
Ġha m
ot h
Ġre qu
Ġcomp an
Ġdraw er
Ġpreser ving
Ġcolle ge
Ġconduc ting
Ġgor illa
Ġautom ob
Ġskyscrap ers
Ġw ool
Ġo tter
Ġh ues
et e
ec ially
Ġtoo l
Ġco al
Ġcar ing
Ġmo le
Ġunder brush
ff ic
Ġcup board
Ġrecogn ized
Ġpir ate
Ġpoll ution
Ġcoco a
x y
Ġal t
Ġcl ues
Ġlong ed
Ġpow der
Ġsl am
Ġact s
Ġsmell s
Ġvi ol
Ġstret ching
Ġglimp se
Ġw ound
Ġm ule
st ones
Ġr ays
Ġse par
il ty
Ġsc attered
Ġtra ining
Ġgu ilty
Ġspark led
Ġmark ings
Ġris ing
Ġthri ve
Ġesp ecially
d ling
Ġth ief
Ġnew sp
Ġtr ad
Ġde ar
Ġch ubby
Ġlot ion
ang es
ient s
Ġfear ful
Ġdoes n
Ġshr imp
har p
Ġbi ology
Ġboard ed
Ġencoura ged
G o
r in
Ġin k
Ġre nown
Ġun cle
iz ard
Ġde fe
Ġor anges
ink y
Ġfr idge
Ġopen ing
Ġri pp
cap es
Ġwar ned
Ġcur se
Ġins ist
Ġbounc ed
Ġpier cing
Ġrenown ed
m en
w ing
Ġc omet
Ġg um
Ġplay ground
Ġcl ut
Ġv ide
Ġsk et
Ġfl ame
Ġru bbed
Ġce iling
Ġador ned
Ġdisappo inted
Ġalt ar
r ing
Ġt ank
Ġd il
Ġher b
Ġex act
Ġcar pet
Ġen sure
Ġfl ood
Ġnice ly
Ġheal ing
Ġvill agers
Ġcollect ion
Ġpri ce
Ġstra ight
Ġspaces hip
Ġweap on
Ġambit ious
Ġw izard
ed y
Ġb ill
Ġpl un
Ġre j
Ġro le
Ġcha lk
Ġmag az
Ġdes ol
Ġra ised
Ġswe ater
ĠR ob
Ġlands capes
Ġcompet itive
Ġcolle ag
Ġtick et
o id
Ġw ire
Ġl icked
an ut
ĠL uc
Ġsc oot
Ġar g
Ġcra ft
Ġwhe els
Ġrad ish
Ġcliff s
Ġing red
Ġcact us
f orm
s harp
Ġs igh
Ġm ur
Ġp un
Ġbe ating
Ġbe aches
ĠL ulu
Ġfl ute
Ġred uc
Ġtra sh
bb er
Ġcold er
Ġbooks he
Ġele v
Ġador able
Ġfreed om
Ġcolleag ues
Ġh ive
Ġh uddled
am iliar
Ġr ather
um ent
Ġtoo ls
low er
Ġcar ved
Ġgra pes
Ġmatter s
Ġobs c
Ġreveal ed
Ġbeha v
Ġunf amiliar
Ġang el
Ġw ife
er c
Ġn ail
Ġg as
at ch
Ġcount ing
Ġinv igor
Ġfair ies
Ġsign al
Ġriver s
Ġru ins
Ġcomfort ing
Ġinter c
Ġrum ors
e w
Ġm ug
Ġd unes
Ġsh ot
ug ged
Ġag ree
Ġkn ot
Ġpo em
Ġqu ar
Ġtra ffic
Ġtal es
Ġfood s
Ġtow ered
ĠMr s
Ġdrag ged
Ġbur ning
Ġhi pp
Ġer aser
Ġcollap sed
Ġunpredic table
Ġconstell ations
Ġautomob ile
t ons
Ġb ull
Ġto e
ĠL ittle
us hes
low ly
Ġun se
Ġimp at
anc es
Ġhur ry
Ġmar ry
ugg est
Ġant ique
Ġce real
Ġcelebr ated
Ġnav ig
Ġpee ked
Ġperspect ives
Ġcompet ition
ĠTr ue
Ġseagull s
Ġnumb ers
Ã ©
Ġs uggest
Ġb ony
Ġst ack
Ġan ch
Ġbut tons
Ġj et
op l
Ġex erc
Ġv ivid
iv ated
Ġvis iting
Ġscream s
Ġshr ink
Ġcher ries
Ġbi ologist
Ġtalent ed
Ġmagn et
Ġdesc ended
Ġsatis f
Ġhelm et
Ġtransfor med
Ġimpat ient
B illy
c ur
u pt
Ġs ize
Ġm op
Ġl id
ar ian
an ic
ac he
Ġmy st
ĠM ill
ul if
Ġis s
Ġsee ms
Ġfind ings
ĠE xcited
Ġho les
Ġrest aur
Ġloc als
Ġcap able
Ġavail able
Ġinterc onnected
d les
h ow
m ered
u als
Ġa ud
Ġsp illed
Ġtre k
Ġca ulif
Ġro d
Be fore
Ġgem s
Ġcompl ain
Ġscram bled
Ġexact ly
Ġelev ator
l i
v a
Ġa er
er n
Ġsa mp
Ġan k
Ġsk ull
Ġfr ant
Ġsl ides
Ġpain ter
Ġinv itation
Ġmind s
Ġhesit ant
og rap
Ġcons cious
Ġpen gu
Ġlollip op
Ġdesol ate
Ġp ec
Ġsl id
Ġra ise
Ġexperienc ing
Ġposs ibility
Ġfle a
Ġdecor ate
y le
ver ing
ad es
ĠA lex
ul ance
as ed
ob y
Ġac cess
Ġpro found
ĠDo lly
Ġgrand pa
Ġgather ing
Ġve ins
Bob o
Ġdi ving
har l
Ġwip ed
Ġstraw berry
Ġamb ulance
Ġnewsp aper
Ġreduc ing
Ġbookshe lf
i um
w as
Ġb ent
Ġo il
Ġnew s
ive ly
Ġpo le
Ġshad es
Ġtow ers
Ġwild life
Ġtravel s
Ġmil es
Ġmer c
Ġphys ical
ophy s
Ġhipp o
Ġt en
ac ht
Ġfor ces
Ġpe ak
Ġcon v
Ġthan ks
Ġwork s
Ġpart s
Ġsimp lic
Ġfas h
Ġfall s
Ġastr ophys
Ġcard board
Ġlab el
Ġgigg led
ph one
Ġaccident ally
Ġviol in
Ġcaulif lower
Ġsimplic ity
A lice
Ġy acht
Ġtr ay
Ġdark er
Ġcool er
Ġrel ation
Ġprep aring
Ġpit ch
Ġexperiment ing
Ġinclud ing
Ġavoc ado
Ġtele phone
Ġfash ion
d ge
v as
Ġsa uce
ver n
il ess
Ġwor n
Ġhat e
Ġperson al
Ġtravel ers
Ġinst inct
Ġdish was
Ġwrit er
Ġdishwas her
Ġt ang
Ġn ation
Ġr ides
Ġcan vas
Ġbr ushed
Ġri bb
Ġpur se
Ġswing ing
Ġsum mit
Ġthre ad
Ġbur ned
Ġlab or
Ġelectric ity
Ġanch or
Ġsatisf action
Ġmyst ical
Ġmerc iless
M ummy
Ġa x
Ġb ump
Ġf ant
Ġg le
Ġbe nd
Ġwe igh
Ġstr angers
Ġend ed
Ġkeep er
Ġhair cut
Ġfoot pr
Ġlaugh s
Ġprep are
Ġflick ered
Ġvict im
a ul
ĠH enry
Ġrel ent
Ġbar rel
Ġcup s
Ġgener ation
Ġshiver ing
ĠY et
Ġstir red
Ġchant ing
Ġawa ited
Ġunse en
J im
i am
Ġt ide
Ġwa ff
Ġre v
Ġhapp ier
ĠF o
ab ility
Ġobs erv
Ġpet als
Ġsoci al
Ġexist ed
Ġyog a
Ġaer opl
F luffy
I s
Ġl imb
ar ry
Ġca fe
Ġkn ob
Ġcha in
az ing
Ġcra shed
Ġside wal
Ġghost s
Ġju icy
Ġshiver s
Ġmod est
Ġchar ac
Ġcrun ch
Ġsold ier
Ġillumin ated
Ġpil ot
G ive
u ven
Ġt ending
at ic
Ġr ushing
Ġhad n
Ġint ens
Ġmake up
Ġput ting
ĠP ete
unt ing
Ġenc ourage
Ġmist akes
Ġsol ace
Ġorgan ize
ĠBe fore
Ġrej uven
Ġm os
im mered
ir a
Ġr ows
al king
Ġex cept
Ġsc atter
Ġfeel ings
ĠE llie
Ġsl ip
Ġz ipper
Ġpast ry
Ġbur n
Ġbrother s
Ġpar ched
Ġsens es
Ġrefre shing
Ġpersever ance
Ġvar ious
Ġcel ery
Ġvide o
Ġmerciless ly
Ġthe ater
Ġf ade
is m
ec ause
Ġal arm
?" .
qu it
Ġlight house
Ġmove ments
ĠO r
Ġfloor board
Ġatt ack
Ġsit u
Ġtranqu il
Ġdesign s
ĠJim my
Ġcustom ers
Ġrout ine
Ġingred ients
N ature
a it
v est
he art
Ġb icy
Ġc oup
Ġd ess
ĠT oby
en ch
itt ens
Ġsp ear
ud ed
Ġflow ing
Ġcre aky
ord inary
Ġwar d
Ġresear ching
Ġinter ior
ĠWhe never
Ġnet work
lev ision
Ġbanan as
Ġhunt er
Ġpul s
Ġextra ordinary
Ġvend or
quit o
y er
Ġs ought
Ġto ur
Ġc ri
Ġbird c
Ġte levision
Ġchan ges
ĠK im
enc es
Ġletter s
Ġobser ve
Ġpuzz les
Ġcor rid
Ġadvoc ate
Ġcaf Ã©
Ġiss ues
, âĢĿ
Ġ 1
Ġha iled
ĠS now
st ers
Ġr it
Ġre leas
as ks
Ġun ra
Ġdec rep
Ġcont act
Ġpass ions
sh ip
Ġbre wed
Ġcoll ar
Ġlangu ages
Ġmin er
Ġterri fied
Ġbi kes
Ġmed al
Ġinsect s
Ġdem and
Ġmos quito
Ġcri cket
Ġdecrep it
e or
r oph
Ġc ows
Ġp ad
Ġp ip
ĠT weet
Ġh ut
Ġst ate
!" .
Ġun w
Ġapp ear
bb y
Ġcry pt
Ġact ivity
Ġpretend ing
Ġtravel er
ict ion
Ġvolunte ering
cha ir
Ġevent s
Ġrestaur ant
Ġconv in
Ġbirdc age
i est
Ġc rib
Ġd am
Ġe ase
Ġfor k
Ġran ge
Ġdis cus
Ġcol our
Ġcre eping
Ġear ned
Ġru bber
Ġstrugg le
Ġspe aking
Ġcher ry
Ġterri fying
uct ion
Em ma
Ġentire ly
Ġsell ing
Ġcost ume
ĠBu zz
ĠLuc as
Ġax e
W ell
Ġt ummy
Ġb acked
ar ity
Ġshe er
ĠB ill
il ies
Ġro ot
ie ce
Ġfl av
Ġhow ling
ĠO K
Ġmin ute
Ġansw ers
Ġcapt ure
uri osity
Ġphys ics
Ġyog ur
Ġpersever ed
Ġgrad u
Ġank le
Ġlabor atory
h in
Ġa pr
Ġf ara
Ġo dd
ĠT eddy
Ġme at
Ġex it
as y
Ġv ac
ect ure
Ġgl ove
Ġfull y
Ġloc ation
Ġbar ren
Ġru b
Ġconf idence
Ġpar ade
Ġfulfill ing
Ġmotor cy
Ġham mer
Ġfrant ically
Ġaeropl ane
Ġbicy cle
Ġyogur t
Ġfara way
c an
f a
in ked
er os
er ator
Ġhe lic
Ġh umbling
Ġde velop
ĠN ew
enc y
oc eros
Ġpack age
Ġsupp ly
Ġhood ed
Ġsaus age
Ġmagaz ine
cur dling
hin oceros
Ġhelic op
u let
Ġ V
Ġd aring
Ġl ic
or k
Ġh ook
ĠS lowly
Ġso fa
Ġis n
Ġle ash
Ġsome how
Ġany where
Ġfam ilies
Ġappro aching
rig erator
Ġembar ked
Ġsav oring
Ġsna pping
Ġrefre shed
Ġbatter y
Ġscoot er
Ġbehav ior
Ġlimb s
t ress
Ġl ime
Ġst able
Ġne at
Ġgo lf
Ġam ulet
Ġch im
th rough
Ġpo pped
ree k
Ġcast les
Ġcount er
Ġsimp l
Ġmat tress
Ġreg ret
Ġfa uc
Ġbase ball
Ġcirc les
Ġbackground s
Ġow ned
Ġcal ming
apid ated
Ġbrows ing
Ġexerc ise
i als
r op
Ġl end
Ġr hinoceros
Ġfe at
Ġcl imate
Ġro ared
iz ations
Ġset b
Ġhard ly
Ġdra in
Ġbre aking
Ġgu id
Ġref rigerator
ib ly
Ġsail ing
Ġstorm s
Ġprov ided
Ġsna pped
Ġlat est
Ġdil apidated
Ġrelation ships
Ġfauc et
L ittle
ou nc
er o
Ġg ates
st one
Ġon ion
el come
Ġv eter
Ġad ver
Ġdis hes
Ġch ose
Ġdre n
Ġreal ised
Ġfl ut
Ġsand y
Ġeas ily
Ġsho vel
Ġbreak through
Ġarm chair
Ġadv anced
Ġaut h
Ġcommun ities
Ġpray ed
Ġgro an
Ġeter n
Ġlic ense
e eling
f oot
Ġs ipped
Ġb es
Ġshe et
Ġso ak
Ġlo ad
if ied
Ġsmall est
ĠJ o
mp oo
ĠG ive
Ġtwist ing
Ġwall et
Ġspark ly
Ġbasket ball
Ġpol ish
ĠSp ike
Ġdelight ed
Ġble nd
Ġp ave
ht ub
Ġme chan
op es
Ġla un
Ġsw irl
Ġpro sp
Ġjo kes
Ġmar ched
Ġbat htub
omed ay
Ġdiver se
Ġunlock ing
Ġequ itable
Ġdev oted
ĠBird y
Ġmelt ed
Ġwitness ed
Ġmen acing
Ġrot ting
Ġaware ness
Ġslam med
Ġfloorboard s
Ġapr on
Ġchim ney
b les
c les
Ġf led
Ġh omet
Ġst ench
Ġso ared
ĠM um
Ġcl arity
Ġsee ming
ara ly
Ġfo li
Ġbeg un
Ġplan ned
Ġhop es
Ġper il
Ġpro f
Ġri ce
Ġtri ump
Ġmiss ile
Ġband age
Ġenthusi astic
Ġward robe
roph one
Ġhomet own
Ġfoli age
S ee
b on
c key
Ġ ig
Ġt une
Ġs on
Ġs omeday
er ature
Ġla wn
Ġfind s
Ġbl ess
Ġgra pe
Ġho ckey
Ġcont ain
Ġcre w
Ġtruck s
Ġsy mp
Ġdev ice
Ġpengu in
Ġhelicop ter
Ġetern ity
W ait
l oo
Ġs hat
Ġm ummy
Ġp ist
ĠS ha
Ġne are
Ġnot es
Ġan n
as ing
Ġch ore
Ġhow led
Ġshould ers
Ġfrog s
Ġinc ant
Ġgift s
Ġtwist s
Ġpassion ate
ĠJohn ny
Ġling ered
By e
Ġquar rel
Ġguid ance
Ġdren ched
araly zed
Ġig loo
c l
g en
l ike
Ġl umber
Ġn ames
Ġit ch
Ġli qu
Ġwor st
Ġwor se
iz es
Ġad ap
Ġoff ering
ol ute
cover ed
Ġcr acked
ĠP ipp
Ġpu bl
ĠY ork
Ġcobwe b
Ġsway ing
Ġreleas ed
Ġbes ide
Ġliqu id
A n
a id
in arian
Ġo k
Ġd ared
ĠI s
le ton
ic hes
Ġup stairs
itt ed
ul iar
Ġun pack
Ġdeep ly
Ġtw irl
ĠC harl
ĠEvery thing
Ġart ists
ric ane
ĠLe e
Ġsandw iches
Ġweal th
Ġmic rophone
Ġsepar ate
Ġpec uliar
ira ffe
Ġmotorcy cle
Ġpist ol
l ines
Ġf ail
Ġp aralyzed
an ny
et ty
Ġli ps
Ġca ble
Ġcar bon
Ġtr ophy
Ġbl inked
Ġreal izing
bb ing
Ġcomp re
Ġsn ar
Ġmust ache
Ġstud ents
Ġcoll ected
Ġblack board
Ġsplas hing
Ġocc ur
Ġske let
Ġske leton
Ġpir ates
Ġmast erp
Ġdesper ate
xy gen
r ise
Ġs an
Ġg ut
Ġg est
Ġr id
Ġre aches
Ġj unk
Ġca use
Ġro oted
Ġco ve
omet er
Ġno stri
Ġred uce
Ġdes ig
Ġste ady
Ġchirp ed
ĠZ oomy
Ġpleas ed
Ġbuck le
Ġvol can
Ġlif el
oop ed
ĠU n
Ġsidewal k
Ġdess ert
Ġveter inarian
Ġnostri ls
h ic
u be
Ġd are
Ġhe dge
om b
Ġre as
Ġne cess
ĠA va
Ġbo dies
Ġcat ching
Ġdown s
Ġpe anut
Ġtr ade
Ġdec ision
Ġjust ice
rm ometer
Ġunder foot
Ġtra ins
sp e
Ġshould n
Ġprot ected
Ġcut ting
Ġbee f
Ġbark ing
Ġcomplex ity
Ġbound aries
stri ch
Ġtempt ation
A l
O uch
Ġt ube
Ġa ff
ed s
re s
Ġf ab
Ġr ail
ic a
Ġup s
ep t
Ġsha mpoo
Ġsw itch
ors es
Ġrest ing
Ġstud io
Ġbreak s
Ġpeaceful ness
Ġsupport ing
Ġtransp ort
Ġske pt
eor ge
Ġvolcan o
l ish
in ite
Ġf ive
Ġo strich
ar oo
Ġk ang
Ġdo c
Ġsh ock
Ġsc ur
os ed
Ġde mon
Ġus ual
Ġop er
ct u
Ġcr ane
ĠP andy
Ġpare nt
Ġemb r
Ġpri v
Ġring ing
Ġopp ress
Ġpip e
Ġpave ment
Ġkang aroo
F in
h s
i qu
v ings
Ġst yle
Ġr ake
Ġr iding
ĠL ook
Ġsad ness
ĠF ro
Ġte asp
Ġar ray
Ġsl ight
Ġscre w
Ġsweet ie
Ġperfect ly
cle ar
To day
Ġpud dles
Ġskill ed
Ġcard s
Ġrespect ful
Ġstair case
ĠAl ong
Ġillumin ating
Ġindivid ual
Ġfootpr int
Ġsetb acks
z ag
Ġd iv
Ġpre v
Ġbl ouse
Ġhow ever
Ġcu be
Ġhig hest
Ġaw oke
Ġzoom ed
Ġindivid uals
Ġribb on
n es
Ġb as
it i
ig zag
her o
Ġcar ed
Ġbl ur
Ġsk irt
Ġpr unes
Ġopen s
Ġune asy
Ġstop s
Ġatt ach
Ġstar g
Ġdest r
Ġdest iny
Ġmonkey s
Ġsurv ival
Ġpear l
Ġorn ament
Ġmater ial
Ġplun ged
Ġsuggest ed
Ġpuls ating
Ġperil ous
f riend
Ġc ord
Ġo y
Ġh orses
Ġher bs
Ġplay er
as es
Ġsc an
ell ed
Ġsw amp
Ġdis ag
Ġho l
Ġdr ops
Ġconnect ions
Ġsol itude
Ġbur y
Ġblank ets
Ġseas on
Ġtrust ed
Ġcor al
Ġsuper hero
Ġcontrib ut
Ġteasp oon
h ou
h ony
s on
er ies
Ġm oss
Ġd ut
Ġwas hing
ĠB essie
Ġop t
Ġfoot ball
Ġsil hou
Ġchair s
Ġuncover ing
ĠZ ip
Ġbat he
Ġbat tle
Ġcho ices
Ġfra gr
Ġsucceed ed
Ġexh ib
Ġcompan ion
Ġsamp les
Ġsilhou et
d uce
Ġm al
Ġp ra
ĠS m
et ing
Ġhapp ens
Ġsun rise
Ġsw all
and a
Ġfast est
av id
Ġim age
Ġinv ite
Ġpast ries
Ġval ues
Ġmat ches
Ġinf orm
Ġsav or
Ġcrow ded
ĠBird s
Ġdestroy ed
Ġtwink ling
Ġrever se
Ġcorrid ors
M r
e er
p ed
Ġt end
Ġthe rmometer
Ġto me
ha ps
Ġit em
Ġr ises
ul ations
Ġar ch
Ġhur ried
Ġfasc ination
Ġdrag ons
Ġbelong ing
Ġbath robe
ĠBu zzy
Ġrul es
ĠJul ia
Ġshat tered
Ġlifel ong
re nder
it es
Ġm itten
Ġin ner
Ġbe et
Ġk ay
Ġme re
ĠE ng
ap a
Ġany way
Ġexcited ly
Ġcr uc
em emb
Ġsol ved
Ġsin king
Ġord ered
Ġdig ging
Ġtrans form
Ġthreat ened
Ġweek end
Th rough
Ġobserv atory
Ġminer al
Ġsymp hony
Ġchore s
Ġmasterp iece
Ġdestr uction
0 0
a by
b an
Ġg rill
ĠA re
as hed
Ġun ite
Ġhead s
Ġdri ft
Ġimag es
Ġda unting
Ġrec har
und ry
Ġhang er
Ġseashe ll
Ġsniff ed
Ġmesmer ized
Ġastrophys ics
iction ary
Ġdoc ument
z er
Ġ Q
Ġt ax
Ġs im
Ġto ile
Ġo xygen
Ġd ictionary
Ġp ony
Ġli ons
al ine
Ġhelp er
Ġca kes
Ġla undry
Ġpo ke
Ġcr it
ren aline
Ġact iv
Ġener g
Ġcabin et
Ġsign ificant
Ġrepl aced
Ġve hic
Ġur ban
Ġrecogn ition
Ġclass room
Ġfil m
Ġsub way
Ġfa ith
Ġbase ment
Ġgall ery
Ġunra vel
Ġauth or
Ġto oth
ĠT ina
or ient
ĠB etty
ĠM ummy
Ġex ists
Ġsc he
Ġun forg
Ġpo ppy
Ġqu aint
Ġjump s
Ġsl ipp
ĠP anic
Ġmon sters
Ġstud ies
Ġstick ers
Ġhum ming
Ġshout ing
wor king
Ġdecay ing
Ġsne ak
Ġphot ograp
Ġintellig ence
Ġscrat ching
Ġtwink le
Ġuncertain ty
upt ed
Ġskelet al
Ġhol id
Ġinform ation
ememb er
k i
in ting
Ġf ame
Ġd ou
Ġl aser
Ġhe av
Ġbe am
Ġst ad
Ġst are
Ġv est
Ġapp ar
Ġrem ove
Ġair port
ol ved
Ġste el
Ġpos it
Ġfree zer
Ġshop keeper
Ġinst ant
Ġcapt ivated
Ġintric ately
Ġobstac le
Ġcamp ing
Ġcond itions
Ġtomato es
Ġimm ense
Ġobsc ured
Ġcruc ial
Ġsche me
Ġunforg iving
J ill
L e
W elcome
b ound
e aring
Ġs ipping
Ġsa cri
Ġst rand
Ġre lease
Ġhur ricane
Ġgreen ery
Ġfav our
Ġdanc er
Ġshore line
Ġreflect ing
Ġmach ines
Ġinterest ed
Ġins ign
Ġfle eting
Ġastronom er
Ġcoast al
Ġali ens
Ġcor p
Ġchick ens
Ġemot ions
Ġimm ers
Ġvac ation
Ġkay ak
Ġtoile t
Ġslipp ery
Ġw ine
Ġb ud
Ġwa fted
se qu
Ġme owed
um ble
Ġle ak
Ġcon sequ
Ġsw ept
Ġdis orient
Ġfix ing
Ġshout s
Ġgener osity
ab or
Ġbelong s
Ġcapt ain
Ġrag ged
Ġlaw yer
Ġperfor ming
Ġcharac ters
Ġmechan ic
Ġreas on
Ġfavour ite
o le
Ġb erry
Ġto night
le nd
Ġlo sing
hen sion
us ive
Ġshow er
Ġblue berry
Ġpro cess
Ġjourney ed
Ġlead er
Ġpresent ed
Ġpract ices
Ġshr ugged
whel med
Ġachie ved
Ġdirect ions
Ġphot os
Ġsnee ze
Ġripp le
Ġwaff le
Ġbeet le
Ġstad ium
D id
f s
f ield
m ons
v et
Ġc reek
or a
Ġy ield
Ġre ci
ra w
Ġbo nd
Ġwh ip
ro s
Ġbr aced
ĠE lly
Ġad j
Ġad renaline
Ġcreat ion
Ġslow ed
Ġforg ave
Ġblock ing
Ġbene f
Ġcult iv
ĠZ oom
Ġmin t
ĠTh ough
Ġsuper natural
Ġsandcast le
Ġbill board
iqu es
Ġrechar ge
Ġposit ivity
Ġconsequ ences
m iss
Ġt asks
Ġo ats
ow ing
ht ray
Ġas h
Ġle mons
Ġtre m
Ġdis s
ĠC o
ol ution
Ġche cked
Ġsl ap
Ġsl ipping
ĠP aul
Ġproud ly
com m
Ġconf r
Ġcur led
Ġmix er
Ġsick ly
Ġign ored
Ġscen ery
Ġpin ch
Ġcrowd s
Ġexha usted
Ġbuzz ing
olute ly
Ġfab ric
Ġstarg azing
A ll
t les
Ġs izes
ĠS u
ig gly
Ġas ide
Ġso aked
Ġloo p
Ġsc al
Ġcar vings
ĠJ ess
Ġapp l
fore st
Ġhar ness
Ġgl ob
Ġdist ract
Ġflo ated
Ġstick er
Ġret reat
Ġpurs uing
Ġris ks
Ġfeed ing
Ġbean s
Ġdef end
Ġsan ctu
l ings
r ight
y ss
Ġt ub
Ġd ip
Ġn one
ĠS us
Ġre comm
Ġas htray
ĠB ig
Ġle vel
ark able
Ġsc rap
Ġint ently
ĠW ould
Ġab yss
Ġsur render
ĠJ ames
ĠJ azz
Ġgra bs
Ġpo ked
ĠO ur
Ġart work
Ġresp ite
Ġdim ens
Ġmot ion
Ġweather ed
Ġgro c
Ġdart ing
Ġeduc ation
Ġrit ual
Ġslight ly
Ġdut y
Ġholid ay
Ġstrand ed
Ġsanctu ary
N ext
S omet
Ġwa ving
ing ling
Ġg iraffe
ir m
Ġfor ms
Ġso aring
Ġse lect
ĠW here
ĠW ho
Ġbook case
Ġplan es
Ġfree ze
Ġspot s
Ġstream s
Ġwelcom ing
Ġominous ly
Ġcraw ling
Ġscrat ch
Ġstraw berries
aw ned
Ġtang led
Ġrelent lessly
Ġoy ster
O w
Y our
Ġto ng
Ġf ading
Ġc ack
er ous
or ious
Ġin ch
ac hel
ĠB ounce
Ġsp are
Ġco pper
Ġrem arkable
Ġadventure r
ĠO ut
Ġmar ked
Ġmus cles
Ġquiet ly
Ġcur re
Ġspo il
Ġwip e
Ġinvent ion
Ġblind ing
ĠPipp in
ros cope
c her
e x
t he
Ġc ities
Ġp ushes
st atic
Ġshe d
Ġy awned
ard ed
Ġsad ly
Ġthr ows
Ġun set
Ġfl ames
ol a
Ġeat en
Ġste pping
Ġbra in
Ġflo at
Ġact ually
ĠG race
Ġcla imed
app y
Ġspr inted
Ġmead ows
Ġsub ject
Ġpul sing
ĠWill iam
Ġrepe at
Ġseeming ly
Ġpriv ile
Ġvehic le
Ġinsign ificant
F eeling
G rand
Ġ ver
Ġn avy
ĠS andy
ut ation
ous and
Ġun ha
Ġun natural
Ġen s
Ġde al
ak able
Ġpo ison
eter red
Ġplan ning
Thank s
Ġpull s
ĠG r
Ġsure ly
Ġshap ed
Ġele ments
Ġcapt ured
Ġap olog
Ġinf inite
Jim my
Ġrev olution
Ġsitu ation
Ġnecess ary
Ġarch it
J oe
b ra
r ops
y ear
Ġb ri
Ġb ared
re ck
Ġd ried
ig i
ri e
Ġth ousand
ĠL illy
ĠM ars
ight s
Ġfe llow
Ġfore head
Ġte ase
Ġgre y
Ġdark est
Ġend s
Ġexplore rs
Ġstay ing
Ġsand box
Ġstri p
Ġrespons ibilities
Ġexam ine
Ġrug ged
Ġbounc ing
Ġfrown ed
Ġenerg ized
A S
Ġ ze
Ġt it
Ġn er
im ately
ĠS te
ac les
ri al
Ġwe ig
Ġas p
Ġlo cket
Ġsh immered
Ġpre y
Ġapp la
Ġfl ipped
Ġbeg ged
Ġdream t
Ġper ched
Ġtri pping
Ġalong side
Ġdel ay
iet y
ab ly
Ġsou ls
Ġneighb ors
Ġfisher men
Ġorn ate
Ġinnov ative
Ġtax i
Ġunset tling
c col
Ġ x
ou ched
Ġbe ep
ac on
un ately
us ole
Ġag es
Ġde g
Ġde veloped
ĠF l
ĠD avid
Ġtw ice
Ġwarm ly
Ġsn ugg
ĠP olly
Ġrain ed
Ġprom ising
Ġrepl ace
Ġmist y
Ġma usole
Ġrep utation
Ġur ged
Ġhero es
Ġexist ence
Ġchat ter
Ġine qu
Ġty pe
Ġneg lect
Ġsquee ze
Ġdefe at
Ġbri ef
Ġze bra
ccol i
M ark
a wn
a ws
Ġli es
um an
ter n
Ġcan e
Ġsc or
Ġexp ed
ĠE ver
Ġfl ies
ĠC uriosity
Ġcr umbling
Ġcount s
Ġplant ed
Ġemer ging
Ġreflect ed
Ġhi ked
Ġachie ving
ĠMar ie
Ġstir ring
Ġec static
Ġpul se
ĠTh rough
lt imately
Ġsuff oc
Ġecosystem s
Ġmic roscope
Ġess ential
Ġped est
Ġskept ical
" ,
J enny
W ill
ed nes
el ed
ur y
Ġso aking
ug e
Ġca lend
Ġsha ken
Ġsha kes
Ġcon fere
Ġpro duc
ĠN ext
Ġdel ved
Ġind ust
Ġmail man
Ġrece ive
Ġjog ged
ĠAl though
Ġdecor ated
Ġchat ting
ĠGo d
Ġconvin ced
Ġcolour ful
Ġincant ations
ĠEng lish
Ġtong ue
AS A
ednes day
Ġcalend ar
e ed
j ar
Ġt ug
Ġto ward
Ġm ention
ĠT illy
Ġr ow
Ġplay s
Ġint ent
Ġla id
Ġhow l
Ġste am
ĠN ASA
ert ies
Ġext r
Ġrad i
Ġgigg le
Ġprop erties
Ġlim its
Ġcoup le
Ġadap t
Ġtrem ble
Ġmausole um
a ven
r it
Ġt ut
Ġf ile
Ġl ick
Ġg ap
ĠA bby
ĠM ittens
Ġbo l
Ġran ch
Ġcall s
Ġexplore r
Ġcre ak
Ġstick y
Ġbeat s
Ġtechn olog
Ġtechn iques
Ġdisturb ed
Ġvict orious
Ġclo ak
Ġdisorient ed
Ġdeg ree
n ings
Ġt ack
Ġa jar
ll ed
Ġbe acon
Ġis ol
as c
Ġover looking
ell ing
Ġmo ves
Ġgot ten
Ġfl ight
Ġhar b
sp iring
Ġhard ships
Ġpass port
ĠK ate
ĠR u
ĠR achel
Ġperf ume
Ġba bbling
Ġcla im
Ġdisapp earing
Ġcoat s
Ġfle e
Ġbark s
ĠGrand pa
ĠU nder
Ġseal ed
Ġallow ing
Ġtrad itions
c ent
l ier
Ġt ink
Ġt ip
Ġb ang
Ġc rick
Ġo l
Ġpl ain
Ġsp raw
as m
Ġca vern
ĠW iggly
os ing
Ġpe eling
Ġcreat ions
Ġtal ents
Ġgl ist
ĠP apa
ĠG igi
Ġresp ond
Ġpound ed
bs olutely
Ġadm iration
ĠSp ark
Ġbak er
Ġlemon ade
Ġrout ines
Ġreef s
Ġleap t
Ġinsist ed
Ġarg ue
Ġinvigor ated
Ġaud ience
Ġtrek ked
Ġintens ified
Ġpra ised
Ġdou b
Ġcrick ets
r is
ĠS e
Ġfor mer
Ġre ind
ĠA bsolutely
op y
Ġsc old
Ġexp ected
Ġnear ly
Ġgl inting
Ġra ind
Ġpro ved
Ġbro ccoli
Ġcoll abor
ĠG eorge
Ġatt ached
Ġz ero
Ġprin ts
Ġthick er
Ġmap s
up s
Ġcher ished
Ġcapt uring
Ġthrow ing
Ġmen u
Ġdetail s
Ġexpress ion
Ġtorn ado
cri pt
Ġner ves
Ġindust ry
Ġreind eer
W he
e ep
Ġd ied
Ġp le
at ie
Ġca used
ĠW ednesday
Ġgra ves
Ġho llow
Ġche wed
Ġpass age
Ġstud ent
Ġhun ger
Ġclot hing
Ġwise ly
Ġemer ge
Ġmelt ing
ĠCar l
Ġdart ed
D aisy
D uring
Y ay
Y uck
Ġt rove
Ġw id
Ġf art
Ġf irm
Ġc ure
Ġd ot
Ġd ipped
Ġl ines
Ġth umb
Ġwe b
ur pr
Ġso cc
Ġsp ade
The se
Ġout line
um ents
Ġman age
Ġhard working
Ġblue berries
em pt
Ġpu p
Ġeer ily
Ġadv ance
Ġbat tled
Ġpleas ure
Ġwha les
Ġinj ust
Ġpersist ed
Ġshift ing
Ġsnee zed
Ġprof ess
ĠCharl ie
Ġtut or
Ġsocc er
C urious
f ree
h uman
Ġ ident
Ġs ir
Ġl ull
Ġp hen
om as
st al
Ġst ro
Ġdo omed
ĠM ike
Ġab s
ct ic
Ġgre edy
Ġar r
Ġcr ops
fort unately
Ġval ued
Ġflick er
Ġnightmare s
Ġsock s
Ġshift ed
Ġresil ient
Ġmajest y
Ġknight s
Ġess ence
Re ady
Ġclo aked
Ġadver sity
Ġraind rops
Ġphen om
f ire
t ural
Ġs ank
Ġw reck
Ġn um
Ġh ob
on se
Ġyou th
ĠB inky
Ġgirl s
Ġbr ook
Ġover night
ĠE nd
Ġop era
Ġad ding
Ġqu iz
Ġtra ined
Ġflow ed
Ġsl im
Ġbad ly
Ġmar ble
ater rest
Ġrabbit s
Ġresp onse
Ġfire f
Ġfire work
Ġbar ri
Ġpink s
Ġpurs ued
Ġser ies
Ġrob es
ĠFred dy
Ġjud ges
la imed
Ġresour ce
Ġhorn s
Ġremain s
Ġmast er
Ġprop er
Ġwarn ings
Ġrequ est
Ġinterconnected ness
Ġgut tural
Somet imes
Ġextr aterrest
Ġharb or
Ġspraw ling
Ġnum erous
a vering
in spiring
Ġm all
Ġp oring
ith ing
Ġr oo
ĠH ave
Ġth ud
Ġre act
ul ts
ag ged
Ġla z
ast ical
Ġag ony
Ġover t
Ġpr une
Ġlong ing
Ġcare free
Ġcomp elled
Ġwr ithing
ĠR o
Ġbreath s
ren ces
Ġref uge
Ġroad s
Ġstri ving
Ġeng ulf
Ġev idence
Ġsub st
Ġadd ress
Ġpil es
Ġexha ust
Ġbump ed
Ġfant astical
Ġoccur rences
Ġoppress ive
Ġpedest al
Ġextraterrest rial
an a
Ġher s
Ġdo d
ĠA r
Ġse cl
ĠM e
Ġsp ort
Ġsc ore
Ġche ek
sh op
ĠN ot
Ġflo ors
ert ips
com ing
Ġriver b
Ġfing ertips
Ġpurs uit
har ing
Ġpun ish
Ġnavig ated
Ġinstinct s
Ġfeat ures
Ġcultiv ate
Ġunha ppy
Ġbol ted
Ġsecl uded
E ven
N ot
S h
i ers
u zz
v al
Ġs ib
Ġto re
Ġh itting
un ate
Ġlo ving
Ġsh own
ry ing
Ġal though
Ġcan opy
Ġv ic
Ġbr id
Ġpr ed
ara ble
Ġcont em
Ġgarden s
Ġunt ouched
que aky
Ġres ult
Ġlay er
Ġcla pping
ugg age
Ġgen ie
Ġprin ted
wor ks
Ġincred ibly
Ġmat ched
Ġser ved
Ġtap est
Ġpatient s
Ġtunne ls
Ġthri ving
Ġdam age
Ġsimpl est
Ġappar ition
ĠSus ie
Ġcontem pl
B uddy
Y et
b ies
r al
Ġ ir
Ġa st
Ġs ides
Ġd w
Ġd ise
Ġl uggage
id ation
ad s
ur a
Ġro amed
us ion
Ġdoor way
Ġrest ed
Ġbrave ly
Ġear lier
Ġmatter ed
ab ella
Ġinter n
Ġwhist led
Ġgle aming
Ġwid ened
Ġlaz ily
i ki
p air
u x
Ġm ut
Ġd ie
ĠHe lp
Ġfor ming
Ġsh udd
Ġstart led
Ġun if
Ġmo an
Ġlear nt
Ġran g
Ġbot her
Ġfl ock
Ġcont ra
Ġyoung er
anc ing
ĠK ing
ĠR os
itc hes
Ġeas ier
Ġsweet heart
Ġhope ful
Ġperfect ing
Ġpoin ts
Ġscream ing
Ġshiver ed
Ġseat s
ho ld
Ġsustain ability
Ġspray ed
Ġsort ing
Ġenthusi asm
ĠCl ara
Ġbrick s
ĠJul ie
Ġexhilar ated
ĠOl ive
Ġsandcast les
Ġunw avering
ĠSha d
Ġsilhouet te
Ġscal es
ĠJess ica
g o
Ġa ck
Ġf und
Ġp anda
Ġhe els
Ġh ing
ot ten
ri age
Ġfor med
ĠB ow
if y
Ġsc ooped
ĠF r
Ġexc laimed
Ġpo lic
Ġdes pair
Ġpro d
Ġpro ve
Ġbra nd
Ġhor ri
br is
Ġatt empt
Ġsch ol
Ġwag ging
ĠZ ara
roll ed
Ġtent acles
Ġsav ored
Ġintro duce
Ġmedic al
Ġpossess ed
Ġembr acing
Ġsuffoc ating
Ġroo ft
Ġsib lings
Ġunif orm
Ġack now
Ġpolic ies
u ous
Ġb omb
Ġwa king
Ġp ets
ll ing
Ġbe ars
ĠH oppy
Ġpl ates
Ġme mber
um es
Ġde bris
ĠC he
ather ine
Ġdr inking
Ġpu b
Ġsum m
Ġpresent s
Ġlit erature
Ġpool s
Ġtrust y
Ġris k
Ġlif eless
Ġrul er
Ġeffect s
Ġtomb stones
Ġlim it
Ġmater ials
Ġgradu ated
Ġsnar ling
urpr ise
Ġexhaust ion
Ġriverb ank
Ġhing es
b ited
p ow
u eling
Ġt ale
Ġw igg
Ġf ed
Ġhe n
ar i
ĠS und
Ġy ucky
Ġat op
Ġex ce
Ġwho se
mb ers
Ġfollow s
ĠP enny
Ġrain y
Ġtri be
row th
Ġvisit ors
Ġmark s
Ġwit s
Ġbat hed
Ġfier y
Ġet here
Ġrelax ed
Ġsuff ering
Dad dy
Ġadvoc ating
Ġmindful ness
Ġsquee zed
Ġincre ase
forg otten
Ġdiscus s
An n
Ġbud ge
ĠCo co
Ġbrid ges
U n
a unt
Ġa ura
Ġst ark
ent ed
Ġr apid
Ġwe a
Ġwe ep
ĠL ucky
Ġmy th
ĠB ecause
Ġv ital
Ġgra zing
Ġfl as
Ġwind s
Ġgrow led
Ġvie ws
Ġgri pped
Ġnur t
Ġfort unate
Ġexpert ise
Ġinvigor ating
Ġflav or
Ġswirl ing
Ġdimens ion
Ġtack le
Ġethere al
M imi
g rowth
m ade
n ers
p an
w hile
Ġ vel
Ġa im
Ġc y
Ġp ang
an na
ĠS ee
ĠH ope
Ġy awn
Ġj ail
Ġwor ms
Ġsh ined
Ġwh ipped
Ġle ast
Ġal ike
Ġcl am
Ġpe ering
Ġover l
ol is
Ġhur ting
Ġri ches
Ġprotect ion
Ġatt end
Ġwin ner
Ġcons ume
ĠFin n
ĠBe ing
Ġinf ect
Ġmeas ured
Ġsna il
Ġbeast s
Ġcontrib ute
Ġblind ly
.. .
rop olis
Ġitem s
Ġdiss ip
Ġarchit ecture
Ġslim y
Ġshudd ered
h ift
l iz
p idation
w o
ha nts
Ġhe ctic
ĠS queaky
Ġj azz
Ġtre pidation
Ġloo se
Ġv room
Ġen velop
Ġunder growth
Ġbeg ins
Ġimp ro
Ġdist orted
Ġmet ropolis
Ġper mit
ĠR emember
Ġcomm it
ĠJohn son
Ġmakes hift
Ġtest ament
Ġobser ved
Ġhall ways
Ġjog ging
Ġmass age
Ġsteal ing
Ġmusician s
Ġemot ion
Ġfold ed
Ġpeak s
ĠFo llow
ĠSnow y
Ġpubl ished
ĠSm ith
Ġrecomm end
Ġsnugg led
B ecause
E lla
c ame
h med
k ins
Ġw est
Ġf et
er ris
Ġp ies
ic er
Ġhis sed
Ġbo ld
ist a
Ġover came
Ġwater ed
Ġcu b
Ġsn akes
Ġclimb s
Ġvo id
Ġrain ing
Ġact ed
Ġkey s
Ġforget ting
Ġpot ion
Ġwin ning
Ġround ed
Ġchill ing
Ġelep hants
Ġclown s
Ġsupp osed
Ġsuff er
Ġstuff ed
Ġinstr uments
ĠMill field
Ġneare st
ĠFro ggy
Ġreci pes
Ġscor ching
Ġtechnolog ies
Ġpub lic
S urprise
g ency
i ance
ha nd
Ġc ore
Ġo be
Ġl ux
is ions
is ible
Ġin human
Ġk icking
ĠA b
Ġbo lt
ant ing
Ġla pping
Ġun s
Ġun ited
Ġbl ocked
Ġour s
mb led
Ġsl iding
uff ling
Ġrememb ering
ĠK iki
Ġcra bs
Ġpur cha
Ġvis ions
Ġfear less
Ġsol o
Ġfarm ers
Ġschool s
Ġind eed
Ġreco iled
Ġorgan izing
Ġpig s
Over whelmed
ĠSp e
Ġer a
Ġmed ia
Ġresc ued
Ġinn oc
Ġemot ional
Ġlegend ary
Ġcurtain s
Ġtrad ition
Ġcrypt ic
Ġlaun ch
Ġbless ings
Ġactiv ities
Ġconfr ont
Ġinequ ality
Ġsubst ance
Ġrooft op
b u
r on
in o
in able
Ġd aisy
Ġl an
ĠS haring
ul pt
Ġsc ree
Ġsc ulpt
Ġab o
Ġgra vest
Ġho vering
Ġgl immering
Ġmar riage
Ġinv isible
Ġdri fted
Ġbelie fs
row ing
Ġinst antly
Ġdedic ate
Ġrec onnect
Ġself less
Ġseas ide
Ġtest ing
Ġprov iding
Ġtrans l
Ġvalley s
ĠTh omas
Ġthreat ening
Ġreward ed
Ġrag ing
Ġdesper ation
Ġjudge ment
Ġgall eries
Ġrequ ire
Ġgroc ery
Ġobe y
ĠSpe edy
Ġb ank
ing ing
ig ail
ut ions
ĠL ola
ter day
Ġla by
Ġexpl o
Ġam use
Ġch illy
Ġfl apped
Ġqu ality
iv ia
Ġgrow ls
Ġrest ored
Ġgu ided
Ġtall est
Ġprin ter
Ġwag s
Ġaw ake
Ġda wn
Ġearth qu
Ġbloom ed
Ġcivil izations
Ġamong st
Ġperform ance
Ġmis chie
Every one
Ġcustom s
ret ched
Ġpress ing
Ġine xp
Ġbegin nings
rin th
Ġrejuven ated
Ġoper ation
Ġadj usted
Grand ma
Ġexped ition
Ġcontra st
ĠSund ay
Ġlan tern
Ġlaby rinth
Ġamuse ment
d re
l ift
t hank
w ise
Ġ Yes
he nd
Ġm uddy
ot o
Ġbe ard
Ġst alking
Ġon line
Ġup lift
Ġj agged
Ġout st
Ġal right
Ġkne lt
Ġla ws
qu ed
Ġte aring
Ġshow case
âĢ Ķ
az ed
ĠP er
ĠP at
Ġrain forest
ĠN ature
Ġmon str
Ġcre ep
Ġgu iding
Ġretur ning
Ġsol ving
Ġspr ang
Ġpi qued
Ġtrip s
Ġdeser ts
Ġdirect ly
Ġpray ing
Ġinha bited
Ġhom eless
Ġfort une
Ġble ed
Ġeter nal
Ġexhilar ating
Ġinstr uct
Ġgroan ed
Ġgest ure
Ġweig hed
Ġmonstr ous
B l
r am
Ġt una
Ġl ecture
ĠT ues
ĠS at
ac ob
Ġsp ill
Ġcl ust
Ġsc ri
Ġv et
Ġv ul
ell e
Ġtr ink
Ġbl ast
ĠP rin
Ġkeep s
Ġbed s
Ġdr own
Ġsit s
Ġwar ri
Ġsol utions
Ġdest ined
Ġmix ing
Ġwis er
Ġtrail s
Ġsens ed
Ġmelo dies
Ġsway ed
Ġexpect ing
Ġinnov ation
Ġdefe ated
Ġclut ched
Ġsket ching
Ġscur rying
Ġswall owed
Ġvic tory
Ġinfect ious
Ġinexp lic
ĠTues day
ĠSat ur
M on
d s
i xt
Ġhe el
Ġin it
ĠS ky
ot ion
se l
Ġfor ced
ist ic
Ġun p
ation al
th ur
Ġcont orted
bb led
Ġground ing
Ġgl ory
Ġplan s
Ġadventure rs
ĠN ana
Ġcount ries
ĠO wl
ĠR ock
Ġmar ried
Ġpat ience
Ġrec y
Ġencount ering
Ġsupport ive
Ġtrou bles
Ġorgan izations
Ġwhist ling
Ġmir rors
Ġneighb our
Ġav oid
ubb les
Ġstun ned
Ġdesper ately
Ġpossess ions
Ġped al
Ġincre asing
Ġflav ors
Ġflut tering
Ġsacri f
Ġcorp or
Ġdistract ions
ĠRu by
Ġtapest ry
Ġearthqu ake
Ġoutst retched
Ġvul ner
B ella
F red
M ar
v ous
Ġo h
Ġm und
Ġst al
Ġday dre
Ġli p
ĠL izzy
Ġall ows
Ġsp ices
Ġkne es
Ġdown stairs
Ġpe bbles
Ġun spe
Ġop in
Ġcont est
Ġri pped
Ġcover s
Ġsol ution
Ġpri ck
Ġsupport ed
Ġorgan ization
Ġgem stone
rib ed
und red
Ġaftern oons
Ġproject s
Ġlat te
Ġprosp ect
Ġcompre hension
Le o
ĠSu zy
Ġglob e
Ġcurre nt
Ġglist ening
Ġscold ed
Ġmischie vous
b id
c opes
m ind
Ġf ac
Ġf umbled
Ġm ain
Ġm ice
Ġm aint
Ġn on
Ġg e
id s
id ents
ri ly
Ġwe eds
ĠA hmed
ue en
Ġca ves
Ġint ention
Ġexp and
Ġun not
Ġgr ueling
ĠE liz
Ġde w
Ġtur tles
Ġte aches
Ġsky line
Ġho st
Ġset tling
ĠC atherine
ol ving
Ġground ed
Ġsl apped
Ġsand s
ĠK atie
Ġemb ers
Ġobs ess
Ġcons er
Ġcons ider
Ġclear ly
Ġmat ted
Ġur ging
Ġnervous ly
Ġer upted
Ġcirc led
Ġrecord ing
Ġmushroom s
Ġdecipher ing
ĠCl imate
Ġwound s
Ġnavig ating
Ġtwirl ed
Ġdesig ning
Ġmal ice
Ġtit le
Ġprod uct
Ġschol ars
ĠSatur day
Ġunspe akable
Ġunnot iced
p are
Ġs ix
Ġh undred
ĠM illy
Ġme mbers
Ġwant ing
Ġsp ect
Ġrem oved
ĠD ave
Ġqu ack
ount able
Ġob l
Ġhead ing
ĠR ed
Ġgrand pare
Ġheal ed
Ġtouch ing
Ġz igzag
Ġeag le
Ġspr ink
Ġseas ons
Ġhon king
Ġdrink s
Ġmad ness
Ġkiss es
Ġport ra
ĠAl i
Ġgrace fully
Ġincl ude
Ġteles copes
Ġdiamond s
Ġeduc ate
ounc ed
Ġcompre hend
Ġdesig ned
Ġprev ious
Ġscan ned
Ġprivile ge
Ġtink ering
Ġmund ane
mind ed
H a
g ain
o ves
r im
Ġs orted
Ġb orn
Ġc asc
Ġm ister
Ġm ama
Ġha ven
Ġst umble
Ġas pect
Ġdo om
ĠB ubbles
Ġfe ared
ĠW alking
ast er
Ġstr ay
Ġsk ies
Ġreal ization
ĠD an
Ġcle ared
Ġgl oves
Ġpain ts
Ġper haps
Ġret rie
Ġgu est
ĠDo g
ĠG ood
Ġtast es
Ġshore s
Ġvi olent
Ġmouth s
Ġinvest ig
Ġrecogn izing
Ġpartic ip
Ġcommunic ating
Ġincl usive
Ġsystem s
Ġine v
Ġhabit ats
ĠIs abella
Ġdisag ree
Ġweekend s
Ġimmers ed
Ġappla ud
Ġbarri ers
Ġbomb arded
Ġinstruct ions
f ishing
m m
u ity
er ted
ver ted
Ġshe ets
ĠH arry
ĠM ic
Ġlo gs
Ġpe aches
Ġsun s
Ġam ount
ct ion
Ġfl at
Ġrock ing
Ġar c
Ġcol ours
Ġland ing
ĠP ip
Ġmess ages
Ġdress es
Ġpurp les
Ġlast ing
ĠFin ny
uct antly
Ġrespons ible
Ġmir ac
Ġmir age
Ġveget able
Ġbounc y
Ġty p
ĠAm ong
Ġass ist
Ġconc ern
Ġheav ily
Ġselect ed
Ġlick s
Ġdot ted
Ġhob by
Ġresource ful
ĠAb igail
Ġabo ard
W oof
k er
l o
o d
p ic
Ġt ingling
Ġp anting
Ġh y
ĠS un
Ġpl ag
el ia
Ġne ared
Ġsp ar
ard less
Ġexc han
Ġkind ly
Ġtown spe
Ġexper ts
Ġjourney s
Ġba bies
Ġloc ated
Ġshop s
Ġru in
Ġhit s
Ġspark le
Ġhon or
Ġcap e
Ġguard ed
Ġchar ity
Ġchat ted
Ġsorce ress
Ġmesmer izing
Ġvel vet
Ġtownspe ople
P eter
l er
w ood
nd own
re nce
Ġm ult
ĠT oto
Ġh our
al ities
Ġhis t
Ġhapp iest
ĠB op
Ġint rig
Ġother wise
Ġbr u
Ġthr own
Ġover fishing
Ġbl iss
Ġfl ap
Ġpo d
Ġtra pping
Ġdist ress
Ġgrass y
Ġsho pping
Ġdraw s
Ġz ipped
Ġsum mon
Ġru ndown
ab eth
Ġcontent ed
Ġlift ing
Ġreg ained
Ġbal c
Ġthrill ing
Ġpatient ly
Ġaccom pan
Ġzoo keeper
Ġopp os
Ġclut ching
Ġpoem s
Ġtriump hs
Ġneare r
ĠQ ueen
ex ist
Ġens uring
Ġengulf ed
ĠAr thur
anna h
Ġgravest ones
Ġtrink ets
Ġmaint ain
L ena
g inal
i ppy
l it
Ġw itches
Ġh umbled
st orm
Ġst ained
ve re
Ġli ly
ind y
ĠM el
ul a
Ġno stal
Ġcon qu
Ġun ity
Ġmo ld
ĠF ear
Ġdec ades
Ġte en
ol ve
Ġdra ped
Ġfull est
Ġvis ible
Ġprom ote
Ġlead ers
Ġcomple ted
Ġcontent s
ĠZ or
Ġworth while
Ġav o
Ġsaf ari
Ġpee king
Ġintro verted
Ġhunt ing
Ġdesc ri
Ġtext ure
Ġembarra ss
Ġmermaid s
ĠOl ivia
Ġunicorn s
Ġinsist ent
ĠMill ie
Ġdevelop ing
Ġlaun ched
Ġpeanut s
Ġasp iring
ĠRos ie
Ġcommit ment
Ġsacrif ice
Ġvulner able
Ġnostal g
B ird
C h
L isa
W ould
n am
Ġs ore
Ġs us
Ġwa ft
Ġwa ded
Ġd azz
at ched
at ors
Ġbe friend
Ġst ale
Ġr aged
Ġr opes
Ġwh irl
um ing
Ġro aring
Ġco exist
Ġsc roll
Ġman e
Ġgo vern
Ġdec o
ĠJ acob
ol ine
Ġgl inted
Ġgl int
Ġsl ice
Ġwr ist
be at
Ġsto pping
Ġjoy ful
Ġmar ginal
Ġfire man
Ġtail s
Ġemp ow
Ġsnow ball
Ġcelebr ation
Ġastronom ers
Ġcamp a
ĠAnn ie
Ġgigg ling
Ġsold iers
Ġrum ored
Ġastronaut s
Ġmill ions
Ġunf old
Ġrul ed
Ġsatis fied
Re my
Ġwilling ness
Ġappear ance
friend ly
Ġdisag reed
miss ion
Ġphenom en
Mon ths
Ġbalc ony
Ġoppos ite
a ves
g ment
Ġs ire
ha st
ha el
is man
or al
Ġn om
Ġg hast
ent y
Ġon wards
Ġre ass
Ġk ites
get s
ĠW ally
os h
Ġtree house
Ġbr ushes
Ġcon cre
ick y
Ġad ult
ild ren
ĠD anny
Ġho ot
sp ired
Ġche ering
Ġtal isman
ĠO f
Ġplant ing
Ġdri pping
Ġfire works
Ġter rit
Ġz ones
Ġbit es
Ġsol ar
Ġresear cher
Ġinter vie
Ġcross ing
ĠBe e
Ġsaf er
Ġnur sing
Ġmed itation
Ġenchant ing
Ġfocus ing
Ġsig ned
Ġpotato es
Ġacorn s
Ġund ead
ĠOl iver
Ġbrows ed
Ġgrin ned
Ġpun ished
Ġopt im
Ġbenef its
ĠSte ve
Bl ue
Ġgrandpare nts
Ġphenomen on
Ġsire n
Ġghast ly
Ġconcre te
d uous
Ġ imb
Ġt ended
Ġs erv
Ġm ort
Ġp ounce
ĠT ur
or us
Ġg aunt
at iable
ĠB ook
ul ous
ag er
ck ets
Ġv en
Ġv ow
Ġab und
Ġkne eled
Ġstr ings
Ġgood s
Ġdec isions
Ġch orus
Ġpo ckets
Ġar duous
Ġpeace fully
Ġdon ating
Ġwait s
Ġcolor ed
Ġheal er
ib er
Ġpot ions
Ġsail ors
Ġdedic ating
Ġpet ted
Ġins atiable
Ġtemp erature
Ġfog gy
Ġexam ining
Ġdecor ations
Ġfrag ility
Ġrum ble
Ġescap ing
Ġdisc onnect
Ġneg ative
Ġmur ky
ĠFo x
Ġencourage ment
heart ed
Ġbas ic
Ġfragr ance
Ġfart her
Ġinjust ice
Ġrapid ly
Ġmyth ical
Ġlux ury
Ġclust er
Ġinexplic able
ixt ure
Ġnostalg ia
F o
I ntrigued
O k
d own
p han
r uck
w are
Ġ iv
Ġ eth
Ġw ed
in ts
Ġm ood
en uity
or ded
Ġin her
ĠS h
Ġst icking
Ġr asp
Ġpl at
Ġwe eping
um st
ust y
Ġco de
Ġv es
Ġwho ever
ĠE ur
Ġor phan
Ġdis m
ak er
ang s
Ġgreat ness
Ġste ad
Ġstory t
Ġhead stones
ĠR ay
Ġact ively
Ġcla wing
Ġgroup s
Ġpast el
Ġcollect ive
Ġconf lic
Ġcapt iv
Ġdev our
Ġcamp fire
Ġfil tered
Ġcond ition
Ġjud gment
udd les
Ġmelo d
Ġhunt ed
Ġmed it
Ġphys ically
Ġbusiness es
Ġcirc umst
Ġvolunte er
Ġrhythm ic
Ġing enuity
Ġexhilar ation
Ġfuel ed
Ġrepe ated
Ġsket ch
Ġscan ning
Ġexhib ition
Ġappl ause
Ġmention ed
Ġsumm oned
Ġaim lessly
Ġscholars hip
gain st
Ġdazz ling
Ġmarginal ized
c ling
l ost
m ous
Ġt a
Ġw ob
Ġb un
Ġb attered
Ġwa ist
Ġhe aring
Ġhe aven
is hes
is dom
ac ific
ri an
ve y
Ġon ward
Ġre ly
ĠL ater
Ġan om
ĠB aby
get table
Ġsc hed
Ġbr ushing
Ġpark s
Ġun for
ĠE d
Ġgood ness
ish y
Ġcare s
Ġwat ches
ĠD r
Ġpo nder
ump t
Ġdark ened
Ġair pl
Ġgl immered
Ġsl ick
Ġatt ending
Ġsy n
Ġbow ed
Ġbusy ness
Ġrec ently
Ġrec orded
Ġdep ic
Ġsister s
Ġinter r
Ġvan ish
Ġins erted
Ġchill s
Ġequ ality
Ġclass es
Ġyear ned
Ġdesign er
Ġcommunic ation
Ġreward ing
Ġscrat ched
Ġcost umes
Ġcustom er
Ġvar iety
Ġperfor med
Ġmur m
Ġintens ity
Ġ1 5
Ġsimpl er
ĠQ u
Ġfet ch
rim ination
Ġunfor gettable
W ord
e ks
h ill
z ens
Ġt umbled
Ġf angs
it ched
Ġm ixture
Ġl itt
is ure
Ġg ad
Ġst all
Ġfor bid
ĠM andy
Ġwere n
Ġlo ss
Ġwor thy
Ġle isure
ag ing
Ġcl ick
ĠW as
est ruck
Ġover pow
Ġwater ing
Ġgra bbing
Ġfl apping
Ġimp osing
oy s
Ġend ang
ĠP acific
Ġper mission
Ġslow ing
Ġinv olved
ĠG rowing
Ġconnect ing
Ġyellow ed
Ġcover ing
Ġtight er
ony mous
Ġaw estruck
ĠZ igzag
Ġreg ardless
ĠOn ly
Ġrich ness
Ġcart oon
Ġem pt
Ġhunt ers
Ġpersist ence
Ġvolunte ers
Ġcro iss
Ġpress ure
Ġvend ors
chan ging
ĠRob by
Ġconscious ness
ounc y
Ġtriump h
Ġcrit ic
Ġappl ied
Ġconfere nces
Whe ther
Ġast on
Ġwea ving
Ġbleed ing
ĠEliz abeth
Ġimb ued
Ġiv y
Ġplat form
Ġves sel
b el
b and
l u
r r
u ke
Ġw ield
Ġw icked
re es
Ġd ying
Ġd app
Ġst itch
ac ity
Ġplay time
Ġk itty
ĠL iz
il es
Ġback ward
Ġla pt
os es
Ġcha p
Ġeven ings
Ġmagic ian
Ġdeep ened
ĠC la
Ġground s
Ġune arth
Ġgarden ing
Ġdist inct
Mom o
Ġjo king
Ġref use
Ġarm ed
Ġstar fish
Ġinst it
Ġpar ked
Ġvent uring
Ġpol ished
Ġdeser ve
Ġprov ides
Ġill ness
ĠSt r
Ġment or
Ġwra pping
Ġchew ing
Ġmuse ums
Ġlegend s
Ġknock ing
Ġsket ches
Ġagree ment
Ġcoup les
Ġadver t
Ġaff ect
Ġscur ried
Ġisol ated
Ġol ive
Ġovert ook
Ġacknow ledge
Ġimpro ved
Ġincreasing ly
Ġarc ane
Ġhist or
Ġcampa ign
ĠEur ope
Ġ15 00
Ġleisure ly
M ay
P anic
T r
e rer
w r
Ġ est
Ġa id
re en
re house
Ġwa rehouse
Ġn apping
Ġg own
Ġh ub
ĠS pr
at ching
Ġe ast
ver ed
un ning
ind a
Ġbo om
Ġco ff
Ġsk ipping
Ġput rid
Ġch oo
Ġbook shop
Ġhow ls
Ġsl ither
Ġret ired
Ġind ul
Ġdev ast
Ġcart oons
Ġinf lu
Ġsurv ived
Ġchar ged
Ġsle ek
Ġguess ed
Ġcaf es
Ġdemand ed
Ġfragr ant
Ġscrap ing
Ġdaydre aming
Ġobsess ed
Ġinev itable
ĠMic hael
Ġgad gets
Ġendang ered
! '
. '
b ed
d led
f y
f ace
n ies
p on
in ery
Ġb ore
Ġc oo
Ġc uddled
Ġn ook
Ġh ue
im al
Ġbe amed
Ġu ltimately
Ġr aces
Ġpl enty
Ġj aws
Ġwh ipping
Ġfe ast
!" ,
Ġby e
Ġover all
Ġun ner
Ġtr ace
Ġbl ink
Ġdis rep
Ġdis miss
ĠD id
Ġown ers
Ġste aming
Ġunexp l
Ġfirst hand
Ġprot est
Ġappreci ating
Ġrel uctantly
Ġjob s
Ġdrag ging
Ġemer gency
Ġcir cus
ĠZ oe
Ġins ights
Ġdoct ors
Ġpill ows
Ġinf ant
Ġjung les
Ġhealth ier
Ġspo ons
Ġrelax ation
Ġbott les
Ġpin ched
Ġfan s
Ġtext s
Ġregular ly
Ġeduc ating
Ġneg at
Ġtempt ing
Ġdocument aries
Ġheav ier
Ġapolog ized
Ġdoub t
Ġcircumst ances
Ġdisrep air
C uriosity
Y um
c red
m ates
Ġ X
Ġa is
Ġw ink
Ġb oo
Ġd ow
Ġl ect
ĠT ony
an ged
ot te
Ġe ight
ver ty
ig ned
ent ing
pp ers
Ġre cover
ĠB ree
ĠB ouncy
ĠM o
ĠM on
Ġsh ines
Ġsh uffling
Ġro ses
Ġman ner
ĠW isdom
Ġun m
Ġun ison
Ġfo nd
Ġch uck
Ġgra ff
Ġte asing
Ġhand ful
Ġstre ak
Ġpro ven
Ġhead lines
Ġdel iber
Ġres ults
Ġcomm otion
Ġhun ched
Ġarri ve
light s
Ġed ges
Bob by
Ġsurf ing
John ny
Ġreve rence
Ġhon ing
Ġlow er
Ġmach inery
Ġgasp s
Ġins cript
ĠBe hind
Ġgri nd
Ġsecond s
Ġdisplay ed
Ġsaus ages
Ġwizard s
Ġdemon ic
Ġsim ilar
Ġimmers ing
Ġbenef it
Ġver d
Ġrevolution ize
Ġpred ator
bu ried
ĠRock y
Ġrecy cling
Ġobl ig
Ġdow nt
H appy
a h
l ived
n ov
Ġt ables
nd eterred
re am
er ity
ĠT ed
ĠS qu
Ġsa cred
Ġbe hold
ent ials
el and
ĠL ooking
il s
ion ed
ag ram
ant age
Ġno on
Ġover coming
Ġbl own
Ġdre ary
Ġke en
Ġdeep est
Ġlet s
Ġtown s
Ġar ts
Ġcr uel
Ġmar ching
Ġart ic
Ġgu y
Ġinc hes
Ġz one
Ġhuman oid
Ġsail s
Ġcomple ting
Ġcalm ness
Ġtrave lled
Ġstri king
Ġharm on
ĠPe anut
Ġeng ra
Ġchill ed
Ġpack ing
ĠSt ar
Ġblow s
Ġrene wal
Ġdet ect
Ġachieve ments
Ġsystem ic
Ġcop y
Ġconduc ted
Ġnarrow ly
Ġdesire s
Ġincre ased
Ġnail s
Ġcrunch y
Ġdiscus sing
Ġfail ed
Ġcontribut ed
Ġsim ulations
Ġdw ind
Ġclam my
Ġdissip ated
Ġconcern s
Ġanom aly
Ġlect ures
Ġgraff iti
Ġdownt own
D og
p arable
y les
he llo
Ġa wards
Ġb id
ĠT w
om p
Ġh us
Ġst ing
Ġst acks
ĠH op
Ġk ill
ĠL ike
ĠB oth
Ġse w
ĠM oon
Ġlo af
Ġout sm
Ġtheir s
Ġsc oop
ist en
Ġla p
Ġen rolled
Ġpre c
ĠF erris
rm ed
Ġfl ora
Ġpo king
Ġpo verty
Ġcomp os
Ġcr im
Ġhop eless
Ġra w
Ġwait ress
pl ash
Ġtri b
Ġdri ves
Ġcla w
Ġcla wed
Sam my
Ġlun g
Ġteam work
Ġwit her
Ġaw ak
Ġmat ching
Ġtom es
Ġinter act
Ġstand s
Ġblood curdling
Ġship s
ho le
Ġcoast line
Ġbeha ved
Ġfil tering
Ġlif est
Ġment ally
Ġinj uries
Ġperform ers
Ġinse parable
Ġanx iety
Ġdisc rimination
Ġpal p
Ġess entials
Ġdem anding
Ġleap ed
Ġastrophys ic
Ġrelent less
Ġwaff les
Ġdrift ing
Ġphotograp hy
Ġadvance ments
ĠFr ank
Ġtradition al
Ġrequire s
Ġunearth ly
Ġverd ant
Ġoutsm art
- -
J en
M aggie
M oral
U ltimately
b ack
b ug
p lease
r at
w ell
Ġt ents
Ġt ugged
in ated
Ġto rm
Ġc ac
Ġl imes
Ġhe ight
Ġg rove
Ġher d
Ġbe lls
ri ls
Ġpl ot
Ġwe ars
ĠL ou
Ġdo zens
ĠA d
Ġse c
Ġal b
Ġcl ung
Ġsc aring
Ġcat ches
Ġint im
Ġcont ort
Ġtra ps
Ġimp er
Ġac col
mer se
ĠP o
Ġwr ink
Ġbra ved
Ġim merse
we ed
Ġact ing
Ġwell being
Ġlady bug
Ġpot s
Ġru le
Ġsour ces
Ġcons id
Ġser ving
Ġgiant s
Ġtest s
Ġstroll ing
Ġcaut ious
ĠSt anding
Ġrene w
ĠU sing
Ġengine ering
Ġling ering
Ġhabit at
Ġcompan ions
Ġsepar ated
Ġflood ed
Ġfant astic
Ġpad dled
Ġconvin ce
Ġann ounced
Ġaff ord
Ġtend rils
Ġsacri fic
Ġcorp se
Ġretreat ed
Ġthousand s
Ġgap ing
ĠSpark y
Ġlull aby
Ġdod ging
Ġflas hing
Ġinnoc ent
Ġviolent ly
Ġspar ked
Ġteen agers
Fo llow
Ġinher ited
Ġsyn onymous
Ġempt iness
ĠStr ange
Ġpalp able
Ġcac oph
Ġaccol ades
A m
C at
S p
W atch
l aze
o ken
Ġto t
Ġc ough
er ie
Ġl ack
Ġl ining
ĠT e
ar is
im ag
id ers
Ġr all
ad ise
ul ate
ul ated
ĠW atch
Ġab laze
Ġde fied
ĠF riend
Ġbl ade
Ġte em
Ġhand wr
ĠC uddles
Ġbu bbling
Ġwork er
Ġdad s
Ġpart ies
Ġimportant ly
Ġbro om
Ġfro st
ĠR a
Ġres idents
Ġappre hension
Ġtouc hes
Ġbelong ings
Ġpar adise
Ġtire less
Ġhon ored
Ġwis hing
Ġcelebr ating
Ġbal ancing
Ġtest ed
Ġprep ar
Ġgem stones
Ġtrans f
Ġmeas uring
Ġsub m
Ġcomplex ities
Ġpay ing
Ġfa una
ĠSome one
Ġvolunte ered
Ġdisc onnected
Ġgain ing
Ġconvers ations
Ġwaterfall s
Ġtomb stone
Ġcharac ter
Ġdam aged
ĠJo ey
Ġbless ed
Ġembr aced
Ġconfere nce
Ġdise ase
Un fortunately
Ġselfless ness
Ġopin ion
Ġwed ding
Ġlapt op
Ġcacoph ony
Ġteem ing
l in
t op
u bbed
Ġs ite
Ġhe ights
or p
Ġn our
Ġe co
ĠH annah
Ġth orn
Ġli ed
Ġre us
ĠL uke
ĠM art
ch oo
Ġtre ated
Ġcar ouse
ap an
ĠJ essie
ĠJ osh
ĠJ apan
Ġrun es
Ġread ers
Ġheart beat
Ġche m
Ġland m
Ġdream er
Ġcontin ues
ĠP aris
ix ed
Ġprom ises
Ġfin ishing
Ġbit ing
Ġshr ug
Ġpar an
Ġbat tling
Ġdead lines
Ġpol it
Ġsent in
Ġcamp s
Good bye
Ġacc ord
Ġsne aked
Ġentr anced
Ġform ation
Ġamb iance
Ġcontrib ution
Ġinvent or
Ġstamp s
Ġlim ited
Ġty pes
Ġperfor mer
Ġhabit s
Ġmur als
Ġobsc uring
Ġdemand s
ĠCharl otte
ĠShad ow
Ġwigg le
Ġwaft ing
Ġmurm ur
Ġforbid den
Ġdapp led
Ġnegat ivity
Ġreus able
C ar
D ucky
M iss
P e
Q u
f ia
s y
t eland
v ill
v ity
v ation
Ġt ens
Ġa imed
Ġf are
er lin
Ġd en
Ġwas teland
ar ison
Ġst umbling
ĠH appy
se ll
ve ling
Ġth ird
ĠB ug
Ġse ep
Ġlo aded
Ġsh immer
Ġro ast
Ġun rel
Ġcom fy
Ġhome made
Ġdis p
Ġred s
are n
sp ass
Ġcomp arison
Ġsn arled
ĠP l
cre en
Ġclean er
sh old
ĠK eep
Ġlay ing
bo at
Ġz omb
Ġswim s
Ġthre shold
Ġfarm house
ĠWhat ever
Ġreg ion
Ġreg ain
Ġbal anced
Ġscr ubbed
har ted
Ġext er
Ġext ended
And y
Ġpray er
Ġtoug hest
Ġweight less
Ġpencil s
Ġmaj or
Ġunc harted
Ġscrat ches
Ġsuff ered
Ġmuff ins
het ic
Ġgrasp ing
Ġdeliver ed
Ġbatter ies
Ġbuzz ed
Ġarg ued
Ġsitu ations
Ġrit uals
Ġgradu ation
Ġprev iously
Ġswall ow
Ġstro ke
Ġarr anged
Ġproper ly
wo lf
Ġcreep y
Ġportra its
Ġaspect s
Ġconflic t
Ġchap ter
Ġhus band
Ġintim id
Ġrenew able
Ġtransf ixed
Ġcarouse l
vill e
Ġfare well
C l
O ut
S ha
U sing
d is
e al
i ac
m o
p ane
p not
r un
Ġt umbling
Ġb ars
Ġd une
ĠT ara
ĠS n
Ġu lt
Ġst ol
Ġst ern
ac ies
Ġr umbling
Ġre un
Ġre wards
Ġnot icing
ĠB o
ĠA gainst
Ġwere wolf
Ġlo om
Ġout er
ag ious
Ġman iac
ĠW ater
ist ine
Ġare as
est ial
Ġun imag
Ġcar av
ĠE le
Ġbl azing
Ġam pl
Ġthan king
Ġcont agious
Ġtw in
Ġhar vest
Ġhard ship
Ġpart ed
Ġbear ing
Ġra ising
Ġsoft ware
Ġbro ad
Ġtri cked
Ġquick en
Ġrest oring
ĠO cean
Ġyell ing
Ġwindow pane
Ġinc orp
Ġbar ista
Ġthick et
Ġsol id
Ġspir al
Ġbat hing
Ġrep ly
Ġur g
Ġinterest s
Ġdead ly
Ġband its
Ġev olving
Ġmer cy
Ġmot iv
ĠSt op
ĠSt itch
Ġalley ways
Ġthreat s
Ġthri ved
ative ly
Ġeffort lessly
Ġnovel s
Ġflour ished
Ġgrad ually
Ġcel estial
Ġwound ed
Ġripp les
Ġwire s
Ġcontribut ions
Ġcack ling
Ġradi ating
Ġol ives
Ġpurcha sed
Ġscree ch
Ġsculpt ures
Ġparticip ate
Ġhy pnot
Ġaccompan ied
Ġmort al
Ġabund ance
Ġalb um
Ġrall ied
Ġlandm ark
Ġcamps ite
Ġunrel enting
dis covery
Ġult imate
Ġstol en
Ġcarav an
J o
R emember
a nder
b ly
c ended
f it
g al
u ard
v ies
Ġt in
Ġw ider
Ġf al
Ġc ul
Ġm ural
Ġm asks
ĠT ake
Ġg ir
Ġha ze
ĠI nd
Ġe pic
ri fied
ne ath
Ġday light
all ic
ad os
ra b
um m
Ġtre spass
Ġsc amp
Ġla pped
Ġla kes
Ġsha llow
Ġag ency
Ġpe ers
Ġmo vies
Ġpr istine
Ġsw ooped
Ġcha mp
Ġcha ins
ĠD are
Ġwind y
Tim e
Ġsurpr ising
Ġlight er
Ġgl anced
Ġmet allic
Ġper me
Ġrememb ers
Ġent ering
Ġwom en
Ġpos ition
Ġcomm itted
ĠG ina
ĠG reen
Ġrel ics
Ġwild ly
Ben ny
Ġduck ling
Ġsign ific
Ġwar p
oura ged
Ġind ic
Ġdi ved
Ġbi ases
Ġcap acity
Ġpan icked
Ġzoom ing
Ġris ky
Ġacc ountable
Ġrelax ing
Ġalley s
ĠAl ways
ĠCat ty
Ġdesc ribed
Ġcrack ling
Ġfriendship s
Ġorig ins
Re ally
Ġencoura ging
Ġinvent ions
Ġplun ging
Ġsignal ing
Ġinstinct ively
Ġflut tered
Ġprosp erity
Al though
Ġopt ions
Ġintent ions
Ġident ify
Ġabs or
Ġoverl ooked
Ġcasc ading
Ġplag ued
Ġawak ened
Ġprepar ation
Ġincorp or
E xc
J ames
M rs
M mm
O ur
P oppy
S andy
l if
n ie
r ation
Ġa ward
ed ed
er ts
Ġm ingling
Ġd ue
Ġl itter
Ġwas ted
Ġn i
an or
ĠI zzy
Ġsa ge
et he
Ġbe ads
ac ting
Ġr ac
ĠH enny
el vet
Ġne on
Ġne ither
Ġsp i
as ked
Ġtre mbled
if ying
us es
Ġdog gy
Ġtr aded
Ġhome work
Ġbl oss
uck ily
Ġunder neath
Ġcu is
Ġlook out
Ġneed les
Ġstre aking
Ġeat s
Ġgarden er
Ġcontin uing
ĠP inky
iver sity
Ġpro duce
Ġbirds ong
Ġjo ining
Ġsing er
Ġmus cle
Ġear ning
og o
Ġvisit or
Ġcons ul
Ġstri pes
Ġbat tles
Ġintric acies
Ġbuck ets
Ġrainb ows
Ġglass es
Ġstat ues
Ġcond uct
min a
Ġdestro ying
Ġform ula
Ġdinosaur s
Ġtick le
Ġwrit es
ĠCar la
Ġped als
Ġavoc ados
ĠMiss ile
Ġscatter ing
Ġrid dles
Ġdiv ided
Ġglob al
Ġdod ged
Ġcub es
Ġdrown ed
Ġhundred s
Ġnom ads
Ġrasp y
Ġairpl ane
Ġinterr upted
ĠCla ire
Ġcoff in
Ġastrophysic ist
Ġunimag inable
Ġchamp ion
lif etime
' .
H enry
j am
p aper
r upt
s ive
s hest
Ġs led
ing u
ĠT iti
is ha
Ġn ets
Ġn icer
Ġh int
Ġha ted
ĠS plash
at hetic
le ts
Ġr ats
se ek
ĠL ove
ur ry
ĠM erlin
Ġme owing
Ġsp it
Ġout c
Ġv oy
Ġsun ken
qu et
Ġun leas
Ġgr ows
ĠF irst
Ġdec ides
Ġpr edic
Ġus es
Ġany time
Ġfo yer
Ġdis bel
ĠD uck
Ġte ased
Ġimp ending
ci al
ĠC on
ĠC indy
Ġar cha
Ġche f
Ġche fs
Ġgl oom
Ġri pe
Ġsea weed
ĠO ther
